<pad>	0
<unk>	0
<s>	0
</s>	0
ㄴㅡㄴ	-3.78461
ㅇㅡㄹ	-4.02008
ㅇㅢ	-4.0686
ㄹㅡㄹ	-4.22535
ㅇㅣ	-4.27932
ㅇㅡㄴ	-4.30323
▁	-4.31086
ㄱㅏ	-4.31856
ㅇㅔ	-4.3199
ㄴ	-4.38832
ㄱㅗ	-4.42735
▁ㅇㅣ	-4.47372
ㄷㅗ	-4.70387
▁ㅇㅣㄹ	-4.92808
ㄷㅏ	-5.0403
ㅣ	-5.12821
ㅎㅏㄴ	-5.15794
ㄹㅗ	-5.17787
ㅇㅔㅅㅓ	-5.2248
ㅇㅡㄹㅗ	-5.23607
ㄹ	-5.24397
ㅈㅣ	-5.27079
ㅅㅣㅂ	-5.3718
ㄱㅘ	-5.38759
▁ㅅㅏ	-5.47674
▁ㅅㅜ	-5.51805
▁ㄱㅓㅅ	-5.52708
▁ㅅㅣㅂ	-5.52943
▁ㅇㅗ	-5.54055
▁ㅎㅏㄴ	-5.54464
▁ㄱㅡ	-5.58944
ㅡㄴ	-5.64739
▁ㅇㅣㅆㄷㅏ	-5.70821
ㅊㅓㄴ	-5.71234
ㅎㅐㅆㄷㅏ	-5.74994
▁ㅅㅏㅁ	-5.75965
ㄱㅔ	-5.78443
ㅁㅕㄴ	-5.78487
ㅇㅘ	-5.79189
▁ㅈㅓㄴ	-5.82637
▁ㄴㅕㄴ	-5.82765
▁ㄱㅜ	-5.83821
ㅅㅓ	-5.89292
ㅂㄴㅣㄷㅏ	-5.95498
ㅈㅣㅁㅏㄴ	-5.97168
ㅇㅣㄴ	-6.03445
▁ㅇㅣㅆㄴㅡㄴ	-6.04148
ㄱㅣ	-6.07979
ㅔ	-6.12398
ㅎㅏㄱㅗ	-6.13852
ㅂㅐㄱ	-6.15852
ㅗ	-6.18439
ㅁㅏㄴ	-6.19842
ㄴㅏ	-6.20752
▁ㅍㅏㄹ	-6.22451
▁ㅊㅣㄹ	-6.24541
ㅎㅏㄴㅡㄴ	-6.26059
ㄷㅡㄹ	-6.28122
ㅡㄹ	-6.29259
ㄹㅏㄱㅗ	-6.31484
ㅏ	-6.32544
▁ㅇㅠㄱ	-6.34414
▁ㅎㅏ	-6.34772
ㅈㅏ	-6.35076
ㅎㅏㄹ	-6.36889
▁ㅇㅝㄹ	-6.37423
ㅆㄷㅏ	-6.37783
ㅎㅐ	-6.39538
▁ㄷㅡㅇ	-6.41946
▁ㄸㅐ	-6.46109
ㅆㅅㅡㅂㄴㅣㄷㅏ	-6.49017
ㄲㅏㅈㅣ	-6.5074
▁ㄱㅓㅅㅇㅣ	-6.53329
▁ㅁㅏㄴ	-6.55902
▁ㅇㅏㄴ	-6.59987
▁ㄷㅜ	-6.60255
▁ㅅㅣ	-6.62064
▁ㄷㅓ	-6.6363
▁ㅇㅣㅆㅅㅡㅂㄴㅣㄷㅏ	-6.69311
▁ㄱㅣㅁ	-6.69744
▁ㅎㅐ	-6.71125
ㅈㅓㄱㅇㅣㄴ	-6.71567
▁ㅊㅓㄴ	-6.71711
ㅈㅓㄱㅇㅡㄹㅗ	-6.71739
▁ㅍㅓㅅㅔㄴㅌㅡ	-6.72077
ㄷㅡㄹㅇㅣ	-6.7319
ㅢ	-6.75576
▁ㄷㅐㅌㅗㅇㄹㅕㅇ	-6.75847
▁ㄷㅐ	-6.76779
ㅇㅔㄱㅔ	-6.77742
▁ㅇㅜㄹㅣ	-6.78814
▁ㅈㅜ	-6.79254
▁ㄸㅗ	-6.82123
▁ㄸㅐㅁㅜㄴ	-6.82231
▁ㅅㅔ	-6.84412
▁ㄱㅓ	-6.84909
▁ㄷㅐㅎㅏㄴ	-6.85589
ㅉㅓㅁ	-6.85737
▁ㅎㅐㅆㄷㅏ	-6.86708
▁ㅇㅟㅎㅐ	-6.86761
▁ㅇㅕ	-6.87037
▁ㄷㅏㄹ	-6.87291
▁ㅂㅐㄱ	-6.88076
▁ㅁㅜㄴㅈㅔ	-6.88531
▁ㄷㅐㅍㅛ	-6.89146
ㄷㅐ	-6.89191
ㅇㅑ	-6.90804
▁ㄴㅐ	-6.91876
▁ㅈㅜㅇ	-6.92744
ㄷㅚㄴ	-6.93406
ㅅㅡㅂㄴㅣㄷㅏ	-6.93906
▁ㄴㅏ	-6.95129
▁ㅈㅣㄴㅏㄴ	-6.96756
ㅁㅕㄴㅅㅓ	-6.98747
▁ㅂㅏㄱ	-7.00475
▁ㅈㅓㅇㅂㅜ	-7.00829
▁ㅁㅏㄹㅎㅐㅆㄷㅏ	-7.01037
ㅂㅜㅌㅓ	-7.01753
▁ㅁㅏㄹ	-7.01924
▁ㄷㅐㅎㅐ	-7.0207
ㅅㅣ	-7.02734
ㅁㅕ	-7.03822
▁ㅈㅔ	-7.05237
▁ㄱㅓㅅㅇㅡㄹ	-7.06188
▁ㅇㅟ	-7.0675
ㅂㅗㄷㅏ	-7.0822
▁ㅇㅕㄹ	-7.08766
▁ㄷㅏ	-7.09127
▁ㅎㅏㄴㅡㄴ	-7.10996
▁ㅇㅝㄴ	-7.11114
ㅁ	-7.11283
▁ㄱㅐ	-7.12057
ㅓ	-7.12406
ㅏㄴ	-7.12772
▁ㅈㅓㅇ	-7.1311
ㄱ	-7.13205
ㄹㅏㄴㅡㄴ	-7.13322
▁ㅁㅕㅇ	-7.13327
▁ㅎㅏㄹ	-7.13745
▁ㅇㅠ	-7.13955
ㄷㅓㄴ	-7.13975
ㅇㅣㄷㅏ	-7.14382
▁ㄱㅏㅌㅇㅡㄴ	-7.16166
▁ㄷㅏㅇ	-7.16494
ㅐ	-7.1926
▁ㅇㅢㅇㅝㄴ	-7.19781
ㅇㅛ	-7.19786
▁ㅈㅗ	-7.20246
▁ㄱㅕㅇㅇㅜ	-7.2066
▁ㅇㅣㄹㅓㄴ	-7.22326
▁ㅎㅏㅁㄲㅔ	-7.2244
▁ㄱㅕㅇㅊㅏㄹ	-7.23158
ㅅㅏ	-7.23763
▁ㄱㅔ	-7.23868
ㅇㅝㄴ	-7.25392
▁ㄷㅚ	-7.25531
▁ㅁㅏㄶ	-7.27106
▁ㄱㅓㅅㅇㅣㄷㅏ	-7.27594
▁ㅊㅏ	-7.3026
ㅈㅓㄱ	-7.30335
▁ㅁㅣㄱㅜㄱ	-7.30678
▁ㅈㅜㅇㄱㅜㄱ	-7.30764
▁ㅂㅗ	-7.30813
ㅇㅓ	-7.30938
▁ㄱㅡㄹㅓㄴ	-7.31844
▁ㅁㅏㄶㅇㅡㄴ	-7.32165
▁ㅈㅓㄱ	-7.33489
▁ㅅㅓㅇㅜㄹ	-7.3353
▁ㅇㅏ	-7.33828
▁ㄱㅡㄹㅓ	-7.34287
ㅈㅣㄴ	-7.37232
ㅅㅜ	-7.37583
▁ㄱㅏ	-7.37818
▁ㅅㅏㄹㅏㅁㄷㅡㄹ	-7.37856
ㅈㅔ	-7.37961
▁ㅈㅣ	-7.38054
▁ㅇㅓㅄㄷㅏ	-7.38383
▁ㅎㅏㄴㄱㅜㄱ	-7.39884
ㄷㅙㅆㄷㅏ	-7.40374
ㅈㅏㅇ	-7.41804
ㅣㄴ	-7.42928
▁ㅈㅓㅇㄷㅗ	-7.42935
▁ㅂㅏㄺㅎㅕㅆ	-7.43495
▁ㅈㅓㅁ	-7.4352
▁ㅈㅏㅅㅣㄴ	-7.44626
▁ㅇㅣㅆ	-7.44767
▁ㅂㅏㄴ	-7.45208
▁ㅂㅜ	-7.45282
▁ㅅㅏㄹㅏㅁ	-7.45831
ㅓㄴㅏ	-7.46404
▁ㄱㅗㅇ	-7.46728
ㅎㅣ	-7.47835
▁ㄱㅏㅈㅏㅇ	-7.48243
ㅇㅜㄴ	-7.49095
ㅅㅓㅇ	-7.49466
▁ㅇㅓㅄㄴㅡㄴ	-7.49467
▁ㅊㅓㅇㅇㅘㄷㅐ	-7.49932
▁ㄷㅏㅅㅓㅅ	-7.49935
▁ㄱㅓㄴ	-7.49975
▁ㅈㅣㄱㅡㅁ	-7.50115
ㅇㅣㄴㅏ	-7.50378
▁ㅇㅣㄹㅂㅗㄴ	-7.50959
▁ㅇㅣㅎㅜ	-7.51254
ㄱㅜㄱ	-7.5205
▁ㅅㅔㄱㅖ	-7.52168
▁ㅇㅣㅅㅏㅇ	-7.52206
ㅆㄷㅓㄴ	-7.52712
▁ㄷㅏㅇㅅㅣ	-7.53586
ㅎㅐㅆㅅㅡㅂㄴㅣㄷㅏ	-7.53861
▁ㅆㅣ	-7.54081
ㅅㅔ	-7.54118
▁ㄱㅏㅇ	-7.5467
▁ㅂㅜㄴ	-7.55387
▁ㅅㅓㄴ	-7.55575
▁ㄱㅡㄹㅐ	-7.55912
▁ㅇㅣㅆㅇㅓ	-7.55964
ㅊㅓㄹㅓㅁ	-7.56273
▁ㄱㅡㄹㅓㄴㄷㅔ	-7.56317
ㅇㅣㄹ	-7.56602
▁ㅊㅚㄱㅡㄴ	-7.56632
ㄱㅣㄷㅗ	-7.56844
▁ㅅㅜㅅㅏ	-7.5696
▁ㅁㅏㄴㅇㅝㄴ	-7.57177
▁ㄷㅔ	-7.57248
▁ㅂㅜㄱㅎㅏㄴ	-7.57845
ㅎㅏㄱㅔ	-7.58803
▁ㅈㅏㄹ	-7.59322
▁ㅇㅓㄸㅓㄴ	-7.60621
▁ㅇㅏㄴㅣ	-7.60731
▁ㅇㅏㄴㅣㄹㅏ	-7.60789
▁ㄷㅡㄹㅇㅓ	-7.60969
▁ㅅㅏㄱㅓㄴ	-7.61123
▁ㅁㅜㄴ	-7.61185
▁ㅎㅏㄴㄷㅏ	-7.61424
▁ㅈㅓ	-7.61498
▁ㅇㅣㄴㅏㄹ	-7.61688
▁ㄷㅏㄹㅡ	-7.61695
ㅕㅆㄷㅏ	-7.61746
▁ㄷㅚㄴㄷㅏ	-7.62286
ㄷㅗㄹㅗㄱ	-7.62684
▁ㄱㅕㄹㄱㅘ	-7.62759
▁ㅅㅏㅅㅣㄹ	-7.62798
ㄴㅐ	-7.62872
▁ㄴㅔ	-7.63498
▁ㅊㅡㄱ	-7.63535
▁ㅇㅓㄸㅓㅎ	-7.641
ㅅㅓㄴ	-7.64388
ㅎㅏㅂㄴㅣㄷㅏ	-7.64706
▁ㅎㅜ	-7.64928
ㅈㅜ	-7.65177
ㅂ	-7.65617
▁ㅂㅐ	-7.65631
ㅅㅏㅇ	-7.65783
▁ㄷㅐㅌㅗㅇㄹㅕㅇㅇㅣ	-7.6606
▁ㅇㅣㄹㅓㅎㄱ	-7.66254
▁ㅍㅣㄹㅇㅛ	-7.66387
ㅅ	-7.66439
▁ㅁㅜㄹ	-7.66741
▁ㄸㅏㄹㅡ	-7.66791
▁ㅌㅗㅇㅎㅐ	-7.67091
▁ㅂㅏㄷ	-7.67228
ㅊㅣ	-7.67664
ㄷㅙ	-7.6782
▁ㄱㅡㄹㅣㄱㅗ	-7.6786
▁ㄱㅏㄴㅡㅇㅅㅓㅇ	-7.68113
▁ㄱㅡㄹㅓㅎ	-7.68546
ㄷㅏㄴㅡㄴ	-7.68625
▁ㄷㅚㄴ	-7.69199
▁ㅇㅖ	-7.69525
▁ㅁㅏ	-7.69613
▁ㅁㅜ	-7.69622
ㅇㅕ	-7.7
▁ㅇㅣㄷㅡㄹ	-7.70151
▁ㅌㅡㄱㅎ	-7.70175
ㅎㅏㅇㅕ	-7.70273
ㅎㅘ	-7.7034
▁ㅅㅗ	-7.70625
ㅎㅡㄴ	-7.70723
▁ㄷㅚㄹ	-7.71285
▁ㅈㅏ	-7.71314
▁ㅇㅏㄶㅇㅡㄴ	-7.71741
▁ㅂㅓㄴ	-7.71969
▁ㄷㅐㅂㅜㅂㅜㄴ	-7.72207
▁ㅅㅏㄹ	-7.72844
▁ㄸㅏㄹㅏ	-7.73077
▁ㄷㅟ	-7.74201
ㅇㅛㅇ	-7.74321
ㅈㅓㄴ	-7.74353
▁ㅁㅗㄷㅜ	-7.746
ㅂㅜ	-7.75083
ㄱㅗㅂ	-7.75598
ㄱㅜ	-7.75892
ㅇㅓㅆㅅㅡㅂㄴㅣㄷㅏ	-7.75954
▁ㅇㅕㄷ	-7.76279
ㄷㅏㅇ	-7.7628
▁ㄱㅏㅈㅣ	-7.76456
▁ㅋㅡㄴ	-7.76707
▁ㅂㅜㄹ	-7.77126
ㅎㅏㄱㅣ	-7.77494
▁ㄱㅘㄴㄱㅖㅈㅏ	-7.77657
▁ㅈㅣㄴㅏㄴㅎㅐ	-7.78105
ㅈㅗㅇ	-7.78122
▁ㄷㅏㄴ	-7.78144
▁ㄷㅡㅇㅇㅡㄹ	-7.78682
ㄴㅡㄴㄷㅔ	-7.78919
▁ㅂㅏㄱㄱㅡㄴㅎㅖ	-7.79435
▁ㅅㅣㄴ	-7.79834
▁ㅇㅗㅎㅜ	-7.81158
▁ㄸㅐㅁㅜㄴㅇㅣ	-7.81289
▁ㄱㅕㄹㅈㅓㅇ	-7.81402
▁ㅇㅏㄶㄱㅗ	-7.81653
▁ㄱㅓㅁㅊㅏㄹ	-7.81893
▁ㄱㅘㄴㄹㅕㄴ	-7.81937
▁ㄱㅗ	-7.82191
ㅈㅓㅁ	-7.82801
▁ㅅㅣㄱㅏㄴ	-7.82867
ㄷㅐㄹㅗ	-7.83037
ㅅㅡ	-7.83619
ㄷㅏㄱㅗ	-7.83822
▁ㅇㅒㄱㅣ	-7.8401
▁ㅁㅣㅊ	-7.84035
ㄹㅏㅁㅕ	-7.84106
ㅅㅗ	-7.842
ㅕ	-7.84398
▁ㅇㅣㅂ	-7.84675
▁ㅁㅗ	-7.84689
▁ㅇㅕㅇ	-7.854
▁ㅅㅐㄴㅜㄹㅣㄷㅏㅇ	-7.85614
▁ㄱㅗㅅ	-7.86241
▁ㄴㅓㅁ	-7.86421
▁ㅎㅕㄴㅈㅐ	-7.87086
ㅎㅐㅇㅑ	-7.87539
▁ㄴㅐㄱㅏ	-7.87581
ㅁㅏㄴㅋㅡㅁ	-7.87978
▁ㅅㅏㄹㅏㅁㅇㅣ	-7.88072
▁ㅇㅣㅂㅓㄴ	-7.88196
▁ㅈㅣㅇㅕㄱ	-7.88421
▁ㅇㅏㄶㅇㅏㅆㄷㅏ	-7.88455
ㅜ	-7.88654
▁ㅅㅏㅇ	-7.88814
ㄱㅝㄴ	-7.89025
▁ㅁㅕㅇㅇㅣ	-7.89043
▁ㅈㅐ	-7.89141
ㅎㅏㄴㄷㅏ	-7.89939
▁ㅇㅣㅆㄷㅏㄴㅡㄴ	-7.89953
▁ㅇㅕㄹㅓ	-7.89958
ㅆㅣ	-7.90262
ㅅㅣㄱ	-7.90332
ㅇㅣㅇㅓㅆㄷㅏ	-7.9097
ㅎㅏ	-7.91102
ㄷㅚㄴㄷㅏ	-7.91933
ㅇ	-7.92082
ㄷㅡㄹㅇㅔㄱㅔ	-7.92165
ㅇㅠ	-7.92197
▁ㄱㅓㅅㅇㅣㄹㅏ	-7.92828
▁ㅎㅏㅈㅣ	-7.92946
ㅅㅣㄴ	-7.93392
ㅎㅏㅈㅣ	-7.93532
ㅂㅣ	-7.93664
▁ㅇㅏㄹ	-7.9397
▁ㅇㅣㄹㅂㅜ	-7.94518
▁ㄱㅕㄹ	-7.94656
ㅎㅏㅁㅕㄴㅅㅓ	-7.95116
▁ㅅㅣㅈㅏㅇ	-7.95233
▁ㅇㅏㄶ	-7.95599
ㅇㅓㅆㄷㅏ	-7.95626
▁ㅇㅜ	-7.96076
▁ㄷㅗㅇ	-7.96247
▁ㅂㅣ	-7.96402
▁ㅇㅕㄴ	-7.96464
ㄹㅣ	-7.96584
▁ㄱㅣ	-7.96835
▁ㅇㅗㄹㅎㅐ	-7.96908
▁ㅁㅏㄹㅆㅡㅁ	-7.97102
▁ㄷㅏㅇㅡㅁ	-7.97591
▁ㅇㅓㄱ	-7.97925
▁ㅈㅗㅇ	-7.98057
▁ㅇㅏㅇㅣ	-7.98079
▁ㅅㅐㅇㄱㅏㄱ	-7.98297
▁ㅈㅗㅁ	-7.98337
▁ㅂㅗㅁㅕㄴ	-7.98423
▁ㅇㅣㅆㅇㅡㄹ	-7.98718
▁ㅇㅑㅇ	-7.99087
▁ㅂㅗㄱㅗ	-7.99265
▁ㄴㅗㅍ	-7.99655
▁ㄱㅜㄱㄴㅐ	-7.99921
ㅎㅏㅁㅕㄴ	-8.00006
▁ㅅㅗㄴ	-8.00041
ㅁㅣㄴ	-8.00292
ㅆㅇㅓㅇㅛ	-8.00335
▁ㅇㅕㅅㅓㅅ	-8.00445
ㄷㅡㄴ	-8.0099
▁ㄱㅖㅅㅗㄱ	-8.01406
▁ㅈㅏㄱ	-8.01671
ㅎㅚ	-8.02207
ㅊㅔ	-8.02565
▁ㅅㅐ	-8.02581
▁ㅁㅗㅅㅎㅏ	-8.02624
ㅈㅜㅇ	-8.02661
▁ㅇㅑㄱ	-8.0299
ㄱㅖ	-8.03171
ㅅㅣㄹ	-8.0319
▁ㅊㅐ	-8.03235
▁ㄱㅜㄱㅁㅣㄴ	-8.03663
▁ㅇㅣㅇㅠ	-8.04229
▁ㅅㅐㄹㅗ	-8.04293
▁ㅁㅕㅊ	-8.04631
▁ㅇㅏㄶㄷㅏ	-8.05662
▁ㅇㅣㅆㅇㅓㅆㄷㅏ	-8.06179
ㅡㄹㅗ	-8.06198
ㄴㅣㄲㅏ	-8.06219
▁ㄱㅏㅌ	-8.07117
▁ㅇㅣㅇㅓ	-8.07342
▁ㄷㅗㅇㅇㅏㄴ	-8.0761
▁ㅊㅣㄹㅛ	-8.07771
▁ㄴㅕㄴㅇㅔ	-8.07916
▁ㅎㅏㄴㅏ	-8.07918
ㅎㅕㅇ	-8.08277
▁ㅅㅓㅇ	-8.0874
▁ㅇㅕㅅㅓㅇ	-8.08754
▁ㅇㅣㅇㅛㅇ	-8.08898
▁ㅈㅏㅇ	-8.08912
ㅈㅣㄱ	-8.08935
▁ㅇㅓㅄㄷㅏㄱㅗ	-8.09113
▁ㅋㅡ	-8.09131
ㄷㅗㅇ	-8.09626
▁ㄴㅏㅁ	-8.09651
▁ㅂㅏㄹ	-8.09932
▁ㅁㅓㄱ	-8.10024
▁ㅅㅏㅈㅣㄴ	-8.10193
ㅣㄷㅏ	-8.10275
▁ㄱㅓㄹ	-8.10474
ㅜㄴ	-8.11144
▁ㅊㅓㅇㅡㅁ	-8.12242
▁ㅈㅗㅎ	-8.12385
▁ㅈㅣㅂ	-8.12564
▁ㅁㅕㅇㅇㅢ	-8.12865
▁ㅇㅏㄹㄹㅕㅈㅕㅆㄷㅏ	-8.1303
▁ㅅㅏㄱㅗ	-8.13049
▁ㅇㅏㅈㅣㄱ	-8.13495
▁ㄱㅕㅇㅈㅔ	-8.13591
ㅁㅕㅇ	-8.13853
ㄱㅓㄴ	-8.13878
▁ㄷㅚㄴㅡㄴ	-8.13941
▁ㄷㅐㅎㅏㄱ	-8.14112
▁ㅇㅓ	-8.1412
▁ㅇ	-8.14453
▁ㅇㅏㄶㄴㅡㄴㄷㅏ	-8.14558
▁ㄷㅙㅆㄷㅏ	-8.14921
▁ㅎㅚㅅㅏ	-8.15089
▁ㅈㅗㅅㅏ	-8.15171
ㅁㅜㄹ	-8.15619
▁ㅎㅏㄱㄱㅛ	-8.16083
ㅓㄼ	-8.16191
ㅊㅏ	-8.16285
▁ㅅㅗㄱ	-8.16338
▁ㅍㅣㅎㅐㅈㅏ	-8.16355
▁ㅎㅏㄹㅜ	-8.16498
▁ㅊㅚ	-8.16639
▁ㅇㅣㄹㅓ	-8.16928
▁ㅈㅣㅇㅝㄴ	-8.17321
ㅇㅕㅆㄷㅏ	-8.17531
▁ㅇㅏㄶㄴㅡㄴ	-8.18168
▁ㄱㅏㄴ	-8.18181
▁ㅅㅣㅁ	-8.18199
▁ㄱㅏㅇㅜㄴㄷㅔ	-8.18245
▁ㅂㅏㄱㅆㅣ	-8.1826
ㅈㅏㅇㅇㅣ	-8.18449
▁ㅈㅏㄱㅣ	-8.19
▁ㅁㅏㄱ	-8.19532
ㅎㅗㅂ	-8.20043
▁ㅊㅓㅅ	-8.20162
▁ㅅㅓㄹ	-8.20175
▁ㅇㅓㄱㅇㅝㄴ	-8.2033
▁ㅅㅏㅇㅓㅂ	-8.20479
▁ㅈㅜㄹ	-8.20483
ㅍㅏ	-8.20491
▁ㅍㅣㅎㅐ	-8.20699
▁ㅇㅣㅂㅈㅏㅇ	-8.2093
▁ㅅㅏㅎㅚ	-8.21006
▁ㅂㅗㅇㅣㄴㄷㅏ	-8.21048
ㅈㅓㅇ	-8.21149
▁ㅅㅏㅇㅌㅐ	-8.21212
▁ㅇㅣㅁㅣ	-8.21259
ㄷㅔ	-8.2129
ㄴㅕㄴ	-8.21693
▁ㅁㅏㄴㄴㅏ	-8.2175
▁ㅂㅏㄷㄴㅡㄴ	-8.21786
▁ㅂㅏㄷㅇㅏ	-8.2206
▁ㅇㅏㅍㅇㅡㄹㅗ	-8.22213
ㅅㅡㅂㄴㅣㄲㅏ	-8.22505
▁ㅊㅗ	-8.22955
ㅁㅇㅡㄹ	-8.23092
▁ㅍㅕㅇㄱㅠㄴ	-8.23163
ㅓㄴ	-8.23366
▁ㄴㅡㄹ	-8.23635
▁ㄱㅛㅅㅜ	-8.23814
▁ㅈㅣㄱㅈㅓㅂ	-8.23836
ㅂㅓㅂ	-8.24163
▁ㄴㅗ	-8.24376
▁ㅇㅏㄴㅣㄴ	-8.24414
ㄷㅚㄱㅗ	-8.24576
▁ㄷㅗㅅㅣ	-8.24758
▁ㅅㅣㄹ	-8.25043
▁ㅇㅗㅈㅓㄴ	-8.25049
▁ㄱㅏㄱ	-8.2509
▁ㅅㅏㅁㅅㅓㅇ	-8.25219
▁ㄷㅗㄹ	-8.25421
▁ㅂㅏ	-8.25422
ㅈㅛ	-8.25455
ㅂㅏㄲㅇㅔ	-8.25877
▁ㅁㅣ	-8.26008
▁ㅎㅗㅇ	-8.26164
▁ㄷㅗㅇㅜㅁㅇ	-8.26413
▁ㅍㅕㅇㄱㅏ	-8.26807
▁ㄱㅏㅁ	-8.27181
ㅎㅗ	-8.27198
▁ㄴㅏㅇㅗ	-8.27592
▁ㄱㅕㅇㄱㅣ	-8.28008
ㄹㅕ	-8.28442
▁ㅂㅗㄷㅗ	-8.28905
▁ㄱㅜㄱㅎㅚ	-8.28927
▁ㅁㅗㄷ	-8.29298
▁ㅂㅏㅇ	-8.29398
▁ㅎㅜㅂㅗ	-8.29432
▁ㅌㅏ	-8.29449
▁ㅂㅏㄷㄱㅗ	-8.29509
ㅂㅏ	-8.29544
ㅅㅗㄱ	-8.29668
▁ㅇㅓㄴㄹㅗㄴ	-8.29814
▁ㅈㅣㄴㅏㄴㄷㅏㄹ	-8.29835
ㄹㅏ	-8.29922
▁ㄱㅕㅇ	-8.3051
▁ㄷㅐㅅㅓㄴ	-8.30856
ㅇㅟ	-8.30871
▁ㅎㅘ	-8.31101
▁ㄴㅗㄴㄹㅏㄴ	-8.31139
▁ㅇㅣㄹㅡㅁ	-8.31153
▁ㅂㅕㅇㅇㅝㄴ	-8.31315
ㅌㅡ	-8.31481
ㅂㅗㄱ	-8.31612
▁ㅇㅕㄴㄱㅜ	-8.31649
ㄹㅕㄱ	-8.31724
▁ㅊㅚㄷㅐ	-8.32073
▁ㅎㅚㅈㅏㅇ	-8.32143
ㅎㅏㄱ	-8.32429
▁ㅅㅟㅂ	-8.33038
▁ㅇㅓㅄㅇㅓ	-8.33093
▁ㅇㅓㅂㅁㅜ	-8.3324
▁ㅅㅡㅁㅜㄹ	-8.33277
▁ㅈㅣㄴ	-8.33713
▁ㅅㅓㅇㅅㅓ	-8.33758
▁ㅅㅏㅇㅎㅘㅇㅇㅣ	-8.33771
ㅇㅕㄱ	-8.33888
▁ㅊㅏㄹㅖ	-8.34008
▁ㅍㅏㄴㅁㅐ	-8.3403
▁ㅅㅏㅌㅐ	-8.34247
ㅅㅣㅁ	-8.34388
▁ㅈㅜㄴㅂㅣ	-8.34399
▁ㄴㅐㅂㅜ	-8.34476
▁ㅊㅗㅇ	-8.3532
▁ㅌㅡㄱㅂㅕㄹ	-8.35328
▁ㅂㅜㄹㅂㅓㅂ	-8.3543
ㄷㅏㅅㅣ	-8.35532
▁ㄱㅣㅁㅆㅣ	-8.35773
ㅇㅣㄹㅏㄴㅡㄴ	-8.36007
ㅏㄴㅡㄴ	-8.36033
▁ㅇㅕㄱ	-8.3605
ㅂㅓㅁ	-8.36101
▁ㅈㅗㄱㅡㅁ	-8.36193
ㅇㅕㅇ	-8.3623
ㄱㅓ	-8.36529
ㅔㅅㅓ	-8.36549
ㅅㅏㅇㅇㅡㄹ	-8.36822
ㄹㅗㅂㅜㅌㅓ	-8.3683
▁ㅊㅜㄹㅅㅣㄴ	-8.36835
▁ㄱㅡㄷㅡㄹ	-8.36863
ㅆㅣㄱ	-8.37183
▁ㄱㅜㄴ	-8.37327
ㅂㅏㄹ	-8.3748
▁ㄱㅏㄱㅕㄱ	-8.37597
ㅈㅓㄴㅎ	-8.37607
▁ㅇㅣㅇㅑㄱㅣ	-8.3777
▁ㅈㅓㅇㅊㅣ	-8.38102
▁ㅈㅜㅈㅏㅇ	-8.38552
ㄷㅚㄹ	-8.38712
ㅇㅏ	-8.38945
▁ㅅㅏㅇㅎㅘㅇ	-8.39133
ㅁㅏㄷㅏ	-8.39165
▁ㅅㅏㄹㅏㅁㄷㅡㄹㅇㅣ	-8.39332
▁ㅊㅏㅈㅇㅏ	-8.39866
ㅅㅏㄴ	-8.40104
ㄱㅏㄴ	-8.40451
▁ㅅㅐㅇㅎㅘㄹ	-8.40606
ㄱㅏㅁ	-8.40845
▁ㄷㅙ	-8.41133
▁ㅂㅜㄱ	-8.41247
▁ㅅㅜㄷㅗ	-8.41372
▁ㄷㅏㄹㄹㅓ	-8.4147
ㅈㅓㄹ	-8.41562
ㅎㅐㅅㅓ	-8.4196
▁ㅁㅐ	-8.41984
▁ㅇㅕㅎㅗㅇㅘ	-8.42091
▁ㅎㅏㄴㄷㅏㄱㅗ	-8.42374
▁ㅅㅗㄹㅣ	-8.42411
▁ㅇㅣㄹㅇㅣ	-8.42797
▁ㅁㅓㄴㅈ	-8.42947
▁ㄱㅐㅇㅣㄴ	-8.42999
ㅅㅜㄹ	-8.43065
▁ㄴㅏㄴ	-8.43135
▁ㅎㅏㄴㅡㄴㅣㅁ	-8.4314
▁ㅎㅘㄴㅈㅏ	-8.4315
▁ㄱㅖㅎㅚㄱ	-8.43327
▁ㄱㅛㅇㅠㄱ	-8.43409
▁ㅈㅓㅇㅅㅣㄴ	-8.43438
▁ㅇㅣㅆㄱㅗ	-8.43445
▁ㅁㅏㄴㄷㅡㄹㅇㅓ	-8.43505
ㄱㅡㅁ	-8.4367
ㅋㅡ	-8.43776
▁ㅁㅏㄴㄷㅡㄴ	-8.43934
▁ㅆㅡ	-8.44136
▁ㅁㅗㅅㅡㅂ	-8.44286
▁ㅈㅣㅈㅓㄱ	-8.44327
ㅗㄱ	-8.45189
▁ㄱㅣㄹ	-8.45246
▁ㅎㅗㄴㅏㅁ	-8.4526
▁ㅅㅓ	-8.45286
▁ㅂㅕㄴㅎㅗㅅㅏ	-8.45295
▁ㅈㅓㅇㅂㅗ	-8.45508
ㄱㅘㄴ	-8.45692
▁ㅈㅣㄱ	-8.45934
▁ㄷㅗㄴㅇㅡㄹ	-8.45996
ㅐㅆㄷㅏ	-8.46347
ㅂㅗ	-8.46688
ㅈㅏㅇㅇㅡㄹ	-8.4671
▁ㅇㅘㅇ	-8.46864
▁ㅍㅗ	-8.46926
▁ㅇㅣㅈㅔ	-8.46959
▁ㅇㅏㄷㅡㄹ	-8.47066
ㅎㅐㅆ	-8.47484
▁ㅁㅐㅊㅜㄹ	-8.47691
▁ㄷㅡㄹㅓㄴㅏ	-8.47695
▁ㅇㅏㄶㅇㅏㅆ	-8.4776
▁ㅂㅏㄷㅇㅏㅆㄷㅏ	-8.47779
▁ㄷㅗㄴ	-8.47822
▁ㅈㅏㄹㅣ	-8.47875
▁ㅈㅓㄴㅎㅕ	-8.48002
▁ㅇㅣㅆㄱㅔ	-8.48234
▁ㄱㅣㅇㅓㅂ	-8.48543
▁ㄱㅕㄹㅎㅗㄴ	-8.48745
▁ㅂㅏㄲㅜ	-8.48852
▁ㄴㅜㄴ	-8.49042
▁ㅇㅗㅎ	-8.49292
▁ㅂㅣㅍㅏㄴ	-8.49493
▁ㅈㅜㅌㅐㄱ	-8.49547
▁ㅈㅣㄴㅏ	-8.49652
▁ㄱㅘㄴ	-8.49662
▁ㄷㅐㅎㅐㅅㅓ	-8.49746
ㅣㄹㅕ	-8.49869
▁ㅎㅘㄱㅇㅣㄴ	-8.49901
▁ㅈㅓㄴㅊㅔ	-8.49924
▁ㅊㅚㅆㅣ	-8.50186
▁ㅇㅜㅅㅓㄴ	-8.50225
▁ㅇㅕㄱㅅㅣ	-8.50234
▁ㅇㅏㄶㅇㅡㄹ	-8.51035
▁ㅊㅐㄱㅇㅣㅁ	-8.51077
▁ㅁㅏㅇㅡㅁ	-8.51205
▁ㅈㅔㅍㅜㅁ	-8.51353
▁ㄱㅘㄴㄱㅖ	-8.51448
▁ㅈㅡㅇㅇㅣㄴ	-8.51754
▁ㅇㅓㄹㅁㅏ	-8.5184
▁ㅁㅗㅅ	-8.52003
▁ㅅㅓㄹㅁㅕㅇㅎㅐㅆ	-8.52021
▁ㅈㅓㄴㄱㅜㄱ	-8.52363
ㅁㅣ	-8.52632
▁ㅈㅣㄱㅇㅝㄴ	-8.52687
▁ㅇㅏㅍㅏㅌㅡ	-8.52792
▁ㅇㅕㅇㄱㅜㄱ	-8.52798
▁ㄸㅏㄹ	-8.53097
▁ㄴㅏㄱㅏ	-8.53136
ㄱㅔㅆㄷㅏㄱㅗ	-8.53182
▁ㅅㅣㄹㅈㅔㄹㅗ	-8.53194
ㅍㅛ	-8.53362
ㅇㅕㄴ	-8.53607
ㅅㅓㄱ	-8.5398
▁ㅇㅗㄹ	-8.54072
ㅈㅣㄴㅡㄴ	-8.54084
▁ㅂㅏㄹㅍㅛ	-8.54227
▁ㄷㅡㅇㅇㅔ	-8.54271
▁ㄴㅗㅎ	-8.54278
▁ㅇㅓㄷ	-8.54454
ㄹㅛ	-8.54663
▁ㅂㅜㅁㅗ	-8.5475
ㄹㅏㄷㅗ	-8.55109
▁ㅇㅓㅄㅇㅣ	-8.55122
▁ㄷㅡㅇㅇㅣ	-8.55218
▁ㅊㅏㄹㅑㅇ	-8.55229
▁ㅂㅣㄹㅗㅅ	-8.55287
▁ㄲㅡㅌ	-8.55329
▁ㅁㅜㄴㅈㅐㅇㅣㄴ	-8.55363
▁ㄸㅓㄴㅏ	-8.55404
▁ㄱㅜㄱㄱㅏ	-8.55624
ㅁㅐㅇㅜ	-8.55679
▁ㅈㅜㅇㅛ	-8.55711
▁ㄴㅏㅇㅘㅆㄷㅏ	-8.55719
▁ㅁㅗㅁ	-8.5581
▁ㄱㅡㄹ	-8.55811
▁ㄱㅝㄴ	-8.55824
ㅑ	-8.55956
▁ㄱㅣㄹㅗㄱ	-8.56215
▁ㅈㅐㅍㅏㄴㅂㅜ	-8.56268
ㅈㅐ	-8.56496
▁ㅅㅏㅇㅛㅇ	-8.56727
▁ㅈㅗㅈㅣㄱ	-8.56778
▁ㄱㅏㅈㅓㅇ	-8.56828
▁ㅇㅣㄴㄱㅡㄴ	-8.57071
▁ㅎㅘㅇ	-8.57076
ㄱㅓㄹ	-8.57316
▁ㅎㅐㄷㅏㅇ	-8.57351
ㅁㅗ	-8.57444
ㅅㅐㅇ	-8.57837
▁ㄱㅏㄹ	-8.57969
ㄷㅚㄴㅡㄴ	-8.58005
▁ㅈㅓㄻㅇㅡㄴ	-8.58084
▁ㄱㅗㅇㅅㅣㄱ	-8.58138
▁ㄸㅏㄹㅡㄴ	-8.58509
▁ㄱㅘㄴㅅㅣㅁ	-8.58584
▁ㅅㅏㅇㅎㅘㅇㅇㅔㅅㅓ	-8.58696
▁ㅂㅓㅂ	-8.58708
▁ㅅㅓㄴㅌㅐㄱ	-8.58897
▁ㅇㅏㄴㅣㄴㅑ	-8.58944
ㄷㅗㅇㅇㅏㄴ	-8.58947
▁ㅇㅗㄴㅡㄹ	-8.59047
▁ㄴㅐㄹㅕ	-8.59081
▁ㄷㅏㄹㄹㅏ	-8.59096
▁ㅇㅏㅁㅏ	-8.59185
▁ㅎㅕㅁㅇㅢㄹㅗ	-8.59189
▁ㄷㅏㅇㄱㅜㄱ	-8.59426
▁ㄱㅐㅇㅝㄹ	-8.59792
▁ㄴㅐㄹㅣ	-8.59891
▁ㅇㅣㅇㅓㅈㅣ	-8.59925
▁ㄴㅏㅅㅓ	-8.59925
▁ㅈㅓㄴㅎㅘ	-8.6018
ㅂㄱㅔ	-8.60315
▁ㅊㅣ	-8.60427
▁ㄷㅏㄴㅣ	-8.60548
▁ㅎㅏㅁㅕㄴ	-8.60629
▁ㄷㅡㄹ	-8.60661
▁ㄱㅓㄴㄱㅏㅇ	-8.60783
▁ㅍㅏㄴㄷㅏㄴ	-8.6119
▁ㄱㅡㅂ	-8.61662
▁ㅊㅣㄴㄱㅜ	-8.61745
▁ㅈㅓㅇㅁㅏㄹ	-8.61781
▁ㅇㅠㄴ	-8.61864
ㅂㄴㅣㄲㅏ	-8.61888
ㅊㅗ	-8.61895
ㅈㅏㄷㅡㄹ	-8.61899
▁ㅊㅐㄱ	-8.61902
▁ㅎㅐㅆ	-8.61944
▁ㅅㅣㄹㅈㅔ	-8.62129
ㅊㅓㅇ	-8.62203
ㅈㅓㅁㅇㅡㄹ	-8.62216
▁ㄱㅏㅈㅗㄱ	-8.62271
▁ㄱㅘㄴㄹㅣ	-8.62422
▁ㄱㅜㄱㅈㅓㅇ	-8.62439
▁ㅂㅜㄷㅗㅇㅅㅏㄴ	-8.62604
▁ㅁㅔㄹㅡㅅㅡ	-8.62678
▁ㅈㅏㅊㅔ	-8.62701
▁ㄸㅓㄹㅇㅓㅈㅣ	-8.62797
▁ㄱㅜㄱ	-8.62848
ㄷ	-8.62869
▁ㅇㅓㅄㅇㅓㅆㄷㅏ	-8.62975
▁ㄱㅘㅈㅓㅇㅇㅔㅅㅓ	-8.63058
▁ㄷㅐㅅㅏㅇ	-8.63228
▁ㅇㅣㅆㅇㅡㅁㅕ	-8.63349
▁ㅅㅐㅂㅕㄱ	-8.63556
▁ㅈㅏㄴㅕ	-8.63743
▁ㅊㅡㅇ	-8.63885
▁ㅇㅣㅆㄷㅓㄴ	-8.64345
▁ㅎㅗ	-8.64416
▁ㅂㅏㅇㅅㅗㅇ	-8.64433
▁ㅇㅣㄴㅌㅓㅂㅠ	-8.6451
ㄷㅓㄹㅏ	-8.64633
ㅅㅔㄴㅌㅓ	-8.6468
▁ㅁㅏㄴㄷㅡㄹ	-8.6474
▁ㄴㅏㄹ	-8.64749
▁ㅅㅓㄴㄱㅓ	-8.64892
▁ㅌㅜㅈㅏ	-8.65092
▁ㅇㅣㅁ	-8.65393
▁ㅇㅏㄹㄹㅕ	-8.65582
▁ㅈㅔㄷㅗ	-8.65659
▁ㅊㅜㄱㅏ	-8.65703
▁ㅇㅏㄴㅐ	-8.65947
▁ㅈㅏㄹㅛ	-8.66046
▁ㅎㅏㄴㅍㅕㄴ	-8.66455
ㅅㅣㅂㅅㅣㅇㅗ	-8.66461
▁ㅇㅐ	-8.66469
▁ㅈㅣㄴㅅㅜㄹ	-8.66495
▁ㅅㅜㅇㅣㅂ	-8.67219
▁ㅈㅓㄴㅎㅐㅈ	-8.67301
▁ㅂㅗㄴ	-8.67346
▁ㅇㅐㅇㅋㅓ	-8.67451
▁ㅎㅘㄹㄷㅗㅇ	-8.67455
▁ㄴㅐㅇㅛㅇ	-8.67538
ㅇㅣㅁ	-8.67786
ㅁㅐ	-8.67879
▁ㄷㅏㄹㄹㅣ	-8.68246
▁ㅇㅝㄴㅇㅣㄴ	-8.68365
▁ㄱㅘ	-8.68391
▁ㄴㅜㄱㅜ	-8.68407
▁ㅇㅏㅂㅓㅈㅣ	-8.68451
ㄷㅏㅇㅎㅏㄴ	-8.68509
ㅌㅏㄴ	-8.68563
▁ㅂㅜㅈㅗㄱ	-8.68842
ㅁㅗㄱ	-8.68874
▁ㄱㅕㅇㅊㅏㄹㅇㅔ	-8.68906
ㄱㅕㅇ	-8.69132
▁ㄱㅣㅈㅜㄴ	-8.69296
▁ㄴㅐㄴㅗㅎ	-8.69312
▁ㅇㅏㅍ	-8.69366
▁ㅇㅝㄴㄴㅐㄷㅐㅍㅛ	-8.69461
▁ㅅㅔㅇㅝㄹㅎㅗ	-8.69462
▁ㄱㅠㅁㅗ	-8.69466
▁ㅁㅗㄱㅅㅗㄹㅣ	-8.69468
▁ㅎㅚㄱㅕㄴ	-8.69477
▁ㅈㅣㅅㅣ	-8.69555
ㅕㄱㅗ	-8.69648
ㄱㅣㅇㅔ	-8.6967
▁ㅈㅓㄱㅇㅛㅇ	-8.69695
▁ㄴㅏㄹㅏ	-8.69769
▁ㅅㅏㅅㅣㄹㅇㅣ	-8.70316
▁ㅍㅕㄴ	-8.70481
▁ㄱㅏㅇㅈㅗㅎㅐ	-8.70486
▁ㅈㅡㅇㄱㅓ	-8.70488
▁ㅂㅏㄹㅇㅓㄴ	-8.70634
▁ㅇㅕㅇㅎㅑㅇㅇㅡㄹ	-8.70781
▁ㄴㅏㅇㅗㄴ	-8.70786
▁ㅈㅏㅂ	-8.70851
▁ㅂㅜㅅㅏㄴ	-8.71028
ㅍㅜㅇ	-8.71106
ㄴㄷㅏㄱㅗ	-8.71131
▁ㅈㅏㅇㅇㅐ	-8.71407
▁ㅇㅣㅂㅓㄴㅇㅔ	-8.71442
ㅇㅜ	-8.71481
▁ㅇㅣㅂㅈㅜ	-8.71624
▁ㅁㅣㅅㅏㅇㅣㄹ	-8.71657
▁ㄱㅣㅈㅗㄴ	-8.71677
▁ㅎㅕㄴㅅㅣㄹ	-8.71699
▁ㄴㅏㅌㅏㄴㅏㅆㄷㅏ	-8.71762
▁ㅁㅏㅈ	-8.71909
▁ㅇㅣㅈㅓㄴ	-8.71981
ㅉㅐ	-8.72046
▁ㅅㅗㅅㅣㄱ	-8.72216
▁ㅇㅏㄹㄹㅕㅈㅕ	-8.72255
▁ㅂㅜㅂㅜㄴ	-8.72543
▁ㄴㅏㅁㅓㅈㅣ	-8.72555
▁ㅅㅓㄹㅁㅕㅇ	-8.7265
▁ㅇㅖㅈㅓㅇㅇㅣ	-8.72663
▁ㅂㅜㄴㅅㅓㄱ	-8.72716
ㄱㅣㄹ	-8.72838
ㅈㅏㄹㅗ	-8.72872
▁ㅁㅏㄹㅕㄴ	-8.73025
ㅇㅡㄹㅗㅂㅜㅌㅓ	-8.73051
▁ㅂㅜㅇㅣㄴ	-8.7344
▁ㅁㅗㄱ	-8.73479
ㅅㅓㅇㅇㅣ	-8.73575
▁ㅁㅣㅌㅓ	-8.73737
▁ㅇㅣㅁㄱㅡㅁ	-8.7377
ㄱㅡㅂ	-8.74112
▁ㅎㅠ	-8.74116
▁ㅇㅣㅆㄱㅣ	-8.74251
▁ㅉㅗㄱ	-8.744
▁ㅂㅏㅇㅂㅓㅂ	-8.74553
▁ㅇㅣㄹㄷㅏㄴ	-8.74614
▁ㅈㅐㅍㅏㄴ	-8.74891
▁ㅍㅗㅎㅏㅁ	-8.74922
▁ㅁㅣㄷ	-8.75025
ㄱㅐ	-8.75047
▁ㄱㅏㅈㄱㅗ	-8.75169
▁ㅇㅚ	-8.75218
▁ㅅㅏㅇㄷㅐ	-8.75237
▁ㅋㅗ	-8.75244
▁ㅁㅜㄴㅎㅘ	-8.75296
ㄱㅕㅇㅈㅔ	-8.75554
▁ㅊㅜㄹ	-8.75596
▁ㄱㅡㄴㄱㅓ	-8.75772
▁ㄷㅡㄷ	-8.75832
ㅍㅏㄴ	-8.75852
ㅁㅜㄴ	-8.75959
▁ㅂㅕㅇ	-8.76172
▁ㅇㅢㄱㅕㄴㅇㅡㄹ	-8.76208
▁ㅅㅏㅈㅏㅇ	-8.76262
ㅅㅣㅈㅏㅇ	-8.76275
▁ㅇㅣㄹㅂㅏㄴ	-8.76312
▁ㅇㅑ	-8.76442
▁ㅁㅗㄹㅡ	-8.76782
▁ㅂㅓㅂㅇㅝㄴ	-8.7695
▁ㅎㅏㄱㅣ	-8.77027
▁ㅇㅢㅅㅏ	-8.77249
ㄴㅑ	-8.77251
ㄹㅏㅁㅕㄴ	-8.7727
ㅊㅜㄱ	-8.77341
▁ㅇㅡㄴㅎㅐㅇ	-8.7738
▁ㅈㅓㄴㄴㅏㅁ	-8.77749
▁ㅎㅏㄴㄱㅕㄹㅔ	-8.77933
▁ㄴㅓㅁㅜ	-8.78034
▁ㅎㅐㅇㅇㅟ	-8.78151
▁ㄱㅐㅂㅏㄹ	-8.7823
▁ㄱㅘㄴㄹㅕㄴㅎㅐ	-8.78296
▁ㅊㅣㅁ	-8.78388
▁ㄷㅐㅇㅡㅇ	-8.78803
▁ㄱㅟ	-8.78873
ㅅㅣㄴㅁㅜㄴ	-8.7888
▁ㅇㅕㄱㅅㅏ	-8.78893
▁ㄱㅘㅈㅓㅇ	-8.78927
▁ㄷㅓㅇㅜㄱ	-8.79044
▁ㅇㅜㄹㅣㄴㅏㄹㅏ	-8.7905
▁ㅂㅏㅇㅊㅣㅁㅇ	-8.79237
ㄱㅣㄱㅏ	-8.79295
▁ㅅㅓㅂㅣㅅㅡ	-8.79302
▁ㅎㅏㄱㅅㅐㅇㄷㅡㄹ	-8.79649
▁ㅅㅟㄴ	-8.79766
▁ㅎㅏㄱ	-8.80012
ㄷㅜ	-8.80013
▁ㅅㅏㅇㅣㅇㅔ	-8.80119
▁ㅈㅣㅂㅏㅇ	-8.80148
▁ㄱㅡㄱㅓㅅ	-8.80169
▁ㅍㅛㅎㅕㄴ	-8.80178
ㅎㅕㄴㅈㅓㅇ	-8.80194
▁ㄱㅣㅅㅜㄹ	-8.80223
▁ㅇㅏㄶㅇㅏ	-8.80332
▁ㄱㅜㅊㅔㅈㅓㄱ	-8.80435
▁ㅅㅗㅂㅣㅈㅏ	-8.80544
▁ㄷㅗ	-8.80632
▁ㅈㅜㅁㅣㄴ	-8.80659
▁ㅅㅏㅇㅣ	-8.80735
▁ㅈㅓㄴㅁㅜㄴㄱㅏ	-8.80826
▁ㅇㅣㄴㅅㅏ	-8.8095
ㅉㅡㅁ	-8.81166
ㅆㄷㅏㄱㅗ	-8.81273
▁ㄴㅏㅇㅗㄴㄷㅏ	-8.81362
ㄷㅏㄹ	-8.81668
▁ㅁㅗㅅㅎㅏㄴ	-8.81879
▁ㅇㅓㅄ	-8.81994
ㅎㅐㅆㄷㅓㄴ	-8.82136
▁ㄴㅗㄷㅗㅇ	-8.82203
ㅊㅡㅇ	-8.82319
▁ㅁㅓㄹㅣ	-8.82396
ㅆㄴㅡㄴㄷㅔ	-8.82423
▁ㅎㅓㄴㅈㅐ	-8.82458
▁ㄷㅏㅇㅑㅇㅎㅏ	-8.82479
▁ㅅㅣㅍ	-8.82557
▁ㄷㅐㅎㅕㅇ	-8.82693
▁ㅂㅜㄴㅁㅕㅇㅎ	-8.82803
▁ㅊㅗㄱㅣ	-8.82861
ㅈㅜㅇㅢ	-8.8294
▁ㅇㅢㅎㅗㄱ	-8.82963
▁ㅂㅗㄹ	-8.8306
▁ㅅㅏㄴㅇㅓㅂ	-8.83063
▁ㅈㅜㅇㅇㅣ	-8.83297
ㄱㅓㄷㅡㄴㅇㅛ	-8.83301
▁ㅇㅏㅁㅜㄹ	-8.83579
▁ㅇㅣㅅㅡㄹㄹㅏㅁ	-8.83615
▁ㄷㅓㅁㅣㄴㅈㅜ	-8.83658
ㅎㅏㄷㅏ	-8.83784
▁ㅇㅏㅍㅇㅔ	-8.83791
▁ㅇㅕㄱㅎㅏㄹ	-8.83894
ㅈㅡㅇ	-8.83974
▁ㄱㅏㄴㅡㄴ	-8.84181
▁ㅎㅕㅇㅅㅏ	-8.84315
▁ㅈㅓㅇㅅㅏㅇ	-8.84443
▁ㅂㅏㄹㅗ	-8.845
▁ㄱㅛ	-8.84508
▁ㅇㅖㅅㅏㅇ	-8.8456
▁ㄱㅣㅅㅏ	-8.84731
▁ㅌㅡㄱㄱㅓㅁ	-8.84795
▁ㅂㅜㄱㅎㅏㄴㅇㅣ	-8.84875
▁ㅈㅗㅇㄱㅛ	-8.84989
▁ㅈㅏㅅㅔ	-8.85005
ㅅㅣㅋㅕ	-8.85009
▁ㄷㅓㅅㅂㅜㅌㅇ	-8.8511
▁ㅂㅕㄹ	-8.85114
▁ㅈㅓㄴㅁㅜㄴㄱㅏㄷㅡㄹ	-8.85117
▁ㅂㅜㄷㅏㅁ	-8.85155
▁ㅇㅗㄴㄹㅏㅇㅣㄴ	-8.85222
ㅈㅣㄹ	-8.85226
▁ㅊㅜ	-8.85543
▁ㅇㅣㅆㅈㅣ	-8.85573
▁ㄴㅡㅇㄹㅕㄱ	-8.85573
▁ㄱㅜㄱㅁㅣㄴㅇㅢㄷㅏㅇ	-8.85984
▁ㅂㅣㄴㅏㄴ	-8.86022
ㄱㅔㅆㅅㅡㅂㄴㅣㄷㅏ	-8.86136
▁ㄴㅏㅁㅅㅓㅇ	-8.86176
ㅇㅣㄹㅏ	-8.86218
▁ㄷㅐㅅㅣㄴ	-8.86286
ㅎㅕㄴ	-8.8634
ㅂㅕㄹㄹㅗ	-8.86343
ㅇㅓㅂㅊㅔ	-8.86866
▁ㅈㅓㅁㅇㅣ	-8.87072
▁ㄱㅘㄴㅊㅡㄱ	-8.87197
▁ㅈㅣㄱㅇㅓㅂ	-8.87202
▁ㄱㅣㄱㅏㄴ	-8.87315
▁ㅍㅏ	-8.87338
ㄹㄲㅏ	-8.87352
▁ㅈㅣㅂㅎㅚ	-8.87381
▁ㅅㅣㅁㄱㅏㄱㅎㅏㄴ	-8.87418
▁ㅁㅗㅅㅡㅂㅇㅣ	-8.87456
▁ㅊㅓㅇ	-8.87477
▁ㅇㅏㄹㅐ	-8.87504
ㅈㅗ	-8.87567
▁ㄸㅡㅅ	-8.87757
▁ㄷㅜㄱㅗ	-8.87772
▁ㅅㅣㄱㅏㄴㅇㅣ	-8.87889
▁ㅂㅏㄹㅏㅁ	-8.88056
ㅇㅗㄴ	-8.8809
ㅕㄴ	-8.88139
▁ㄷㅏㅅㅜ	-8.88219
▁ㅁㅕㄴ	-8.8826
▁ㄱㅏㅇㄴㅏㅁ	-8.88348
▁ㅌㅏㄴㅎㅐㄱ	-8.88406
▁ㅂㅕㄴㅎㅘ	-8.88495
▁ㅎㅕㅇ	-8.88528
▁ㄱㅓㅈㅛ	-8.88611
▁ㅂㅓㄹ	-8.88916
ㅣㄹㅡㄹ	-8.88961
▁ㅊㅏㅁㅇㅕ	-8.89021
▁ㅅㅏㄷㅡ	-8.8916
▁ㅎ	-8.89299
▁ㅊㅏㅁ	-8.89386
▁ㅂㅜㅌ	-8.89394
▁ㄷㅐㄱㅜ	-8.89464
▁ㄷㅐㅊㅜㄹ	-8.89523
▁ㅁㅣㄹ	-8.89594
▁ㄷㅚㅇㅓ	-8.89596
▁ㅎㅏㄴㅡㄴㅣㅁㄲㅔㅅㅓ	-8.89654
▁ㅍㅣ	-8.89657
▁ㅈㅜㅁㅣㄴㄷㅡㄹ	-8.89711
▁ㅇㅕㅈㅏ	-8.89714
ㅊㅓㄹㅅㅜ	-8.89741
▁ㄹㅗㅅㄷㅔ	-8.89796
▁ㅂㅏㄹㅏ	-8.89828
▁ㅈㅜㅇㅅㅣㅁ	-8.90065
▁ㄷㅗㄹㅇㅏㄱㅏ	-8.90225
▁ㄱㅏㅁㅈㅓㅇ	-8.90235
▁ㄷㅡㅅ	-8.90348
ㄱㅗㅇㅛ	-8.90498
ㅇㅠㄹ	-8.90598
▁ㅈㅜㅇㅇㅔ	-8.90646
▁ㅅㅐㅇㄱㅏㄱㅎㅏㄴㅡㄴ	-8.90755
ㄹㅣㄴ	-8.9082
▁ㅈㅣㄹㅂㅕㅇ	-8.90923
ㅡ	-8.90943
▁ㅇㅣㅆㅇㅓㅆ	-8.90987
▁ㅅㅏㅌㅚ	-8.91061
▁ㅇㅣㄹㄱㅏㄱㅇㅔㅅㅓ	-8.91153
▁ㅈㅏㅇㄱㅘㄴ	-8.91316
▁ㅇㅣㄹㅇㅓㄴㅏ	-8.91472
▁ㄱㅏㅌㄷㅏ	-8.91672
▁ㅈㅏㅅㅣㄴㅇㅣ	-8.9174
▁ㅎㅣㅁㄷㅡㄹ	-8.91826
▁ㅋㅓㅈㅣ	-8.91898
ㅁㅏㅇ	-8.9197
▁ㅅㅣㄹㅍㅐ	-8.92024
▁ㅅㅣㄱ	-8.92048
▁ㅂㅏㄴㄷㅐ	-8.92075
▁ㅇㅓㅁㅓㄴㅣ	-8.92157
▁ㅇㅣㄱㅓㅅ	-8.92159
▁ㄱㅏㄱㄱㅏㄱ	-8.92177
▁ㄱㅕㅇㅇㅜㅇㅔ	-8.92276
ㅈㅐㄷㅏㄴ	-8.92302
ㅌㅏ	-8.92443
ㄱㅛ	-8.92483
▁ㄱㅏㅊㅣ	-8.9255
ㅂㅜㄱㅏ	-8.9285
▁ㅇㅏㅍㅅㅓ	-8.92896
▁ㅇㅣㄹㅡㄴ	-8.93091
▁ㅁㅗㅅㅎㅐㅆㄷㅏ	-8.93262
▁ㅇㅏㄱㅣ	-8.93283
▁ㅇㅔㄹ	-8.93286
▁ㄱㅠㅈㅓㅇ	-8.93314
▁ㅎㅕㄴ	-8.93417
▁ㅇㅙ	-8.9342
▁ㅅㅏㅇㅛㅇㅎㅏ	-8.93422
▁ㄱㅏㅇㅎㅘ	-8.93694
▁ㅅㅓㄹㅗ	-8.93762
▁ㄱㅏㄲㅏㅇㅣ	-8.93887
▁ㅆㅡㄴ	-8.94051
▁ㅈㅣㄱㅡㅁㄲㅏㅈㅣ	-8.94071
ㄷㅚㅁㅕㄴ	-8.94181
ㅈㅕㅆㄷㅏ	-8.9422
▁ㅇㅜㄹㅕ	-8.94287
▁ㅇㅣㅂㅈㅏㅇㅇㅣ	-8.94315
ㅇㅟㅇㅝㄴㅎㅚ	-8.94654
▁ㅅㅣㄴㄱㅗ	-8.94685
ㄴㅠㅅㅡ	-8.94744
ㅇㅏㅆㄷㅏ	-8.94848
▁ㄱㅏㅇㅈㅔ	-8.94862
▁ㅇㅣㄹㅝㅈㅣ	-8.94904
ㄹㅓ	-8.95281
▁ㅈㅣㅂㅈㅜㅇ	-8.95572
ㅅㅓㅇㅇㅡㄹ	-8.95575
▁ㅃㅜㄴ	-8.95719
▁ㄱㅕㄹㄹㅗㄴ	-8.95726
▁ㅅㅐㅇㄱㅏㄱㅇㅡㄹ	-8.95739
▁ㄷㅏㅅ	-8.95833
ㄱㅡㄹㅜㅂ	-8.9598
ㄱㅛㅇㅠㄱ	-8.95991
ㅆㅇㅡㅁㅕ	-8.96087
▁ㅅㅣㄱㅏㄴㅇㅡㄹ	-8.96304
▁ㅍㅓㅅㅔㄴㅌㅡㄱㅏ	-8.96314
ㄹㅕㄱㅇㅡㄹ	-8.9643
▁ㅎㅣㅁㅇㅡㄹ	-8.96525
▁ㅂㅗㅇㅕ	-8.96529
▁ㄷㅡㅇㅇㅡㄹㅗ	-8.96531
▁ㅂㅜㄹㄹㅣ	-8.96532
ㄷㅡㄹㅇㅔ	-8.96619
ㄱㅣㄹㅗ	-8.96635
▁ㅊㅜㄹㅅㅣ	-8.9668
▁ㅈㅣㄱㅈㅏㅇ	-8.96856
▁ㅇㅑㄷㅏㅇ	-8.97021
▁ㅎㅏㄱㅅㅐㅇ	-8.97079
▁ㄷㅏㅇㅅㅣㄴ	-8.97117
▁ㄴㅕㄴㄱㅏㄴ	-8.9715
▁ㄱㅡㄹㅓㅁㅕㄴ	-8.97301
▁ㅅㅔㄴㅌㅣㅁㅣㅌㅓ	-8.97379
▁ㄱㅠㅈㅔ	-8.97457
▁ㄱㅗㅇㄱㅕㄱ	-8.97485
▁ㅇㅓㅄㅅㅡㅂㄴㅣㄷㅏ	-8.97501
ㄱㅓㄹㅣ	-8.97517
▁ㄷㅡㄹㅇㅓㄱㅏ	-8.97534
▁ㅇㅏㄴㅣㄴㄱㅏ	-8.97548
▁ㅎㅏㅂㅇㅢ	-8.97584
▁ㅇㅛㄱㅜ	-8.97596
▁ㅁㅜㅅㅡ	-8.97652
▁ㅊㅓㅂㅓㄹ	-8.97666
▁ㅇㅣㄴㄱㅣ	-8.97736
▁ㄸㅓ	-8.97798
▁ㅅㅜㄴ	-8.97882
▁ㅅㅜㅅㅓㄱ	-8.97906
▁ㅇㅓㄷㅣ	-8.97945
ㄱㅜㄴ	-8.98096
▁ㄱㅏㄴㅡㅇㅎㅏ	-8.98146
▁ㄱ	-8.98393
ㅇㅐㄱ	-8.98558
▁ㅇㅣㅅㅏ	-8.98598
▁ㅎㅠㄷㅐㅈㅓㄴㅎㅘ	-8.98738
▁ㅁㅜㄹㅕ	-8.98979
▁ㅅㅏㄱㅘ	-8.99005
ㅍㅗ	-8.9905
ㅂㅕㅇㅇㅜ	-8.99087
▁ㅊㅟㅈㅣ	-8.99125
▁ㅊㅚㅅㅜㄴㅅㅣㄹ	-8.9916
ㅈㅜㅅㅣ	-8.99283
▁ㅍㅜㅇ	-8.99368
ㅋㅏ	-8.99483
▁ㅅㅓㅇㅈㅓㄱ	-8.99677
▁ㄷㅏㄴㄱㅖ	-8.99766
▁ㅎㅐㅆㄴㅡㄴㄷㅔ	-8.9987
ㅈㅣㅂ	-8.99909
▁ㄱㅡㅁ	-8.99924
▁ㄷㅏㄴㅈㅣ	-9.0004
▁ㅊㅓㅇㅅㅗㄴㅕㄴㄷㅡㄹ	-9.00051
▁ㅅㅏㄹㅏㅁㅇㅡㄹ	-9.00109
▁ㅆㅏㅎㅇ	-9.00123
▁ㅌㅡㄱ	-9.00129
ㅎㅐㅇ	-9.00168
▁ㄱㅜㄱㅈㅔ	-9.002
▁ㅈㅜㅁㅏㄹ	-9.00207
▁ㅈㅓㄴㅈㅐㅇ	-9.00379
▁ㅂㅣㅈ	-9.00452
▁ㅈㅓㅇㄱㅝㄴ	-9.00555
▁ㅈㅜㅇㅇㅛㅎㅏㄴ	-9.00569
ㄹㅅㅜㄹ	-9.0115
▁ㅅㅗㄷㅡㄱ	-9.01179
▁ㅅㅏㄹㅇㅣㄴ	-9.01458
▁ㅂㅣㅅㅡㅅㅎㅏ	-9.01497
▁ㅇㅝㄴㅊㅣㄱ	-9.01529
▁ㅎㅑㅇㅎㅐ	-9.01542
▁ㄱㅘㅎㅏㄱ	-9.01544
▁ㅅㅣㅈㅏㄱㅎㅏㄴ	-9.01579
▁ㅂㅏㄹㅅㅏ	-9.01727
▁ㅇㅏㄹㄹㅕㅈㅣ	-9.01746
▁ㅇㅗㄹㅐ	-9.0175
ㅟ	-9.01762
▁ㅊㅚㄱㅗ	-9.01771
ㅃㅜㄴ	-9.0182
▁ㄱㅡㅁㅇㅠㅇ	-9.02086
▁ㅁㅏㄶㅇㅏ	-9.02105
▁ㄲㅡㅌㄴㅏ	-9.02139
ㅂㅏㄷ	-9.02261
ㅍㅡ	-9.0234
▁ㅎㅏㅂ	-9.02379
▁ㅎㅗㄱ	-9.02458
▁ㄴㅕㄴㄷㅐ	-9.02475
▁ㄸㅏㅇ	-9.02507
▁ㄱㅕㅇㅎㅓㅁ	-9.02549
▁ㄱㅖㅎㅚㄱㅇㅣ	-9.02603
▁ㅊㅗㅇㅈㅏㅇ	-9.02621
ㅇㅡㅁㅕㄴㅅㅓ	-9.02645
▁ㄷㅐㅎㅏㄱㄱㅛ	-9.02725
▁ㅇㅣㅎㅐ	-9.02726
▁ㅇㅏㅇㅣㄷㅡㄹ	-9.02734
▁ㅇㅣㄴㅅㅏㅇ	-9.02935
▁ㅁㅏㄴㅇㅑㄱ	-9.03011
▁ㄱㅓㄴㅁㅜㄹ	-9.03039
ㄹㅏㅇ	-9.03139
▁ㅇㅣㅎㅜㅇㅔ	-9.0322
▁ㄱㅏㄱㅜ	-9.03223
▁ㅇㅣㄹㅈㅓㅇ	-9.03226
▁ㅇㅟㅇㅝㄴㅈㅏㅇ	-9.03256
▁ㅇㅕㅂㅜ	-9.03394
▁ㅇㅏㅁ	-9.03433
▁ㅅㅣㅈㅏㄱㅎㅐ	-9.03441
▁ㅇㅢㅁㅣ	-9.03499
▁ㅇㅣㅆㄴㅡㄴㄷㅔ	-9.03718
ㄴㅑㅇ	-9.03764
▁ㅇㅢㅎㅗㄱㅇㅡㄹ	-9.03884
▁ㄴㅡㄹㅇㅓㄴㅏ	-9.04086
▁ㅅㅏㄱㅓㄴㅇㅡㄹ	-9.04254
▁ㄱㅕㄲ	-9.04334
▁ㄱㅚ	-9.04336
▁ㅅㅣㄴㅎㅗ	-9.04414
ㅈㅏㅇㅇㅡㄹㅗ	-9.04456
ㄹㄹㅣ	-9.04459
▁ㅅㅏㅁㅜㅅㅣㄹ	-9.04465
▁ㅈㅗㅊㅣ	-9.04508
▁ㅂㅜㅂㅜㄴㅇㅣ	-9.04567
▁ㄱㅗㅅㅇㅣ	-9.04603
▁ㅇㅣㅎㅏ	-9.0484
▁ㅁㅏㄹㅇㅣ	-9.04844
▁ㄱㅣㅈㅏ	-9.04881
▁ㅈㅜㄱㅣ	-9.04893
▁ㅇㅣㄱㅗㅅ	-9.05004
▁ㅋㅓ	-9.0501
▁ㅈㅓㄴㅇㅔ	-9.05018
▁ㅅㅏㄹㅇㅏ	-9.0509
▁ㅂㅗㅎㅗ	-9.05387
▁ㅊㅜㅇ	-9.05571
▁ㅇㅣㅆㅇㅓㅅㅓ	-9.05581
ㅇㅑㅇ	-9.05604
▁ㅅㅓㅊㅗ	-9.05615
ㅌㅗㅇ	-9.05638
▁ㅅㅜㅈㅜㄴㅇㅣ	-9.05743
▁ㅌㅡㄹㅓㅁㅍㅡ	-9.05783
▁ㅎㅡㄴㅎㅣ	-9.0579
▁ㅌㅗㅇㅎㅏㄴ	-9.05879
▁ㅇㅣㅇㅠㄹㅗ	-9.05913
▁ㅂㅣㅇㅛㅇ	-9.0611
ㅈㅏㄹㅛ	-9.06214
▁ㅈㅓㅇㅊㅐㄱ	-9.06221
▁ㅂㅗㄴㅐ	-9.06259
▁ㅈㅜㅇㅢ	-9.06303
ㅋㅗ	-9.06322
ㅅㅐㄱ	-9.06426
ㄹㅏㄴ	-9.06622
ㅂㅜㄴ	-9.06637
▁ㅈㅣㄴㅎㅐㅇ	-9.06693
▁ㅎㅚ	-9.06713
ㄷㅏㄱㅏ	-9.06913
ㅘ	-9.06992
▁ㄴㅗㄴㅇㅢ	-9.07
▁ㅍㅏㄴㄱㅕㄹ	-9.07259
▁ㅌㅔㄹㅓ	-9.07265
▁ㅁㅏㄹㅣ	-9.07306
▁ㅂㅜㄹㄹㅓ	-9.07312
▁ㅅㅐㅇㄱㅏㄱㅎㅐ	-9.07332
▁ㅇㅏㅅㅣㅇㅏ	-9.07445
ㅌㅗ	-9.0749
▁ㅈㅣㄴㅈㅓㅇ	-9.07721
▁ㅇㅟㅇㅔ	-9.07846
ㅈㅓㅇㅂㅗ	-9.0785
ㅣㄹㅏㄱㅗ	-9.07895
▁ㅇㅣㅆㅣ	-9.07896
▁ㄱㅕㅇㅈㅐㅇ	-9.07989
▁ㅍㅛ	-9.07996
ㅌㅣ	-9.08043
▁ㅅㅓㄱ	-9.08124
ㅠ	-9.08151
▁ㅈㅔㅈㅜ	-9.08303
▁ㅇㅖㅅㅜ	-9.08401
▁ㅎㅏㄴㄱㅜㄱㅇㅣㄴ	-9.08584
ㄹㅜ	-9.08824
▁ㅎㅕㄴㄱㅡㅁ	-9.09007
▁ㅂㅕㄴㄱㅕㅇ	-9.09011
▁ㅈㅡㅇㄱㅏㅎㅏㄴ	-9.09034
ㅈㅏㄴㅡㄴ	-9.09132
▁ㅎㅘㄴ	-9.09174
ㅍㅣ	-9.09196
▁ㅇㅗㄴ	-9.09346
ㅅㅣㄱㅇㅡㄹ	-9.09422
▁ㅂㅘㅆ	-9.09439
ㅇㅇㅣ	-9.09564
▁ㄷㅗㅇㅁㅜㄹ	-9.09667
ㅂㅕㅇ	-9.09708
ㅈㅣㅇㅔ	-9.09906
▁ㅂㅗㅇㅣㄱㅗ	-9.10017
▁ㅈㅣㅅ	-9.10255
▁ㄱㅏㅅㅓ	-9.10257
▁ㅁㅜㄷ	-9.10299
ㅎㅏㅁㅕ	-9.10345
▁ㅈㅜㅇㅇㅏㅇ	-9.10357
▁ㅇㅕㄴㄱㅕㄹ	-9.1041
▁ㅈㅣㅋㅣ	-9.10477
▁ㅅㅚ	-9.10538
▁ㅁㅏㅈㄴㅡㄴ	-9.10594
▁ㅁㅏㅊㅣ	-9.10712
ㅁㅏㄴㅇㅡㄹㅗ	-9.10836
ㄹㅗㄱ	-9.10933
ㄲㅔ	-9.11035
▁ㄱㅓㄹㅐ	-9.11051
▁ㅇㅏㅍㄷㅜ	-9.11123
▁ㅇㅓㅉㅓ	-9.11206
▁ㅎㅜㅇㅔ	-9.11258
ㅊㅜ	-9.1127
▁ㅅㅣㅁㅈㅣㅇ	-9.11367
▁ㅇㅓㄹㅕㅇㅜㄴ	-9.1147
ㅁㅗㅆㅣ	-9.11541
ㅇㅝ	-9.11633
▁ㅊㅗㅇㄹㅣ	-9.11708
▁ㅈㅓㄱㅇㅓ	-9.11784
▁ㄸㅢ	-9.11801
▁ㅇㅖㅅㅜㄲㅔㅅㅓ	-9.11808
▁ㅎㅕㄴㄷㅐ	-9.11892
▁ㄴㅗㄹㅕㄱ	-9.11904
▁ㅇㅢㅅㅣㅁ	-9.11963
▁ㅊㅔ	-9.11992
▁ㅇㅕㅇㅇㅓ	-9.12015
▁ㅈㅓㄴㄹㅑㄱ	-9.12096
▁ㄴㅡㄲㅣ	-9.12108
▁ㅇㅕㄹㅇㅓ	-9.12282
▁ㅈㅏㄱㅇㅓㅂ	-9.12314
▁ㅈㅓㄴㅁㅜㄴ	-9.12483
▁ㅊㅏㄴ	-9.1252
▁ㅇㅝㄹㅅㅔ	-9.12612
▁ㅎㅐㅇㅑ	-9.12665
▁ㅎㅓㄱㅏ	-9.12687
ㅈㅓ	-9.12834
▁ㄱㅗㅇㅁㅜㅇㅝㄴ	-9.12861
▁ㅂㅕㄴ	-9.12924
ㅁㅏㄹ	-9.12931
▁ㅂㅜㅅㅏㅇ	-9.12976
▁ㅆㅏ	-9.13037
▁ㅈㅡㅇㄱㅏ	-9.13161
▁ㅎㅏㅁㅕㄴㅅㅓ	-9.13208
▁ㄴㅗㅎㄱㅗ	-9.13254
▁ㅁㅏㄴㅁㅕㅇ	-9.1329
▁ㅍㅔㅇㅣㅅㅡㅂㅜㄱ	-9.13363
▁ㄴㅏㅁㄴㅕ	-9.13364
▁ㅍㅣㄱㅗㅇㅣㄴ	-9.13381
▁ㄱㅣㅂㅗㄴ	-9.13385
▁ㅋㅏㅍㅔ	-9.13521
▁ㅈㅓㅇㅆㅣ	-9.13632
▁ㅂㅗㅇㅣ	-9.13686
ㄴㅏㅁ	-9.13894
▁ㅇㅕㅎㅐㅇ	-9.13905
▁ㄴㅏㅈ	-9.13986
ㄷㅚㅈㅣ	-9.14033
▁ㄱㅡㄹㅓㅁㅕㄴㅅㅓ	-9.14205
ㅎㅕㅂ	-9.14235
▁ㅌㅏㄹㄷㅏㅇ	-9.14277
▁ㄴㅏㄱ	-9.14363
ㅁㅜㄴㅇㅡㄹ	-9.14363
▁ㅇㅑㄱㅝㄴ	-9.14444
▁ㅎㅐㅇㅅㅏ	-9.1451
▁ㅈㅜㅅㅣ	-9.14591
ㅔㄱㅔ	-9.14641
▁ㄷㅐㅊㅐㄱ	-9.14721
▁ㄴㅗㄷㅗㅇㅈㅏ	-9.14954
▁ㅇㅘ	-9.14993
ㄹㅑㅇ	-9.15013
▁ㅁㅗㄱㅍㅛ	-9.15097
▁ㅌㅗㅇㅎㅏㅂ	-9.15107
▁ㅅㅔㅁㅇㅣ	-9.15145
▁ㅂㅜㄹㄱㅘ	-9.1518
▁ㅇㅏㄴㅣㄷㅏ	-9.15214
▁ㅈㅜㅂㅕㄴ	-9.15384
ㄹㄹㅗㄴ	-9.15408
▁ㄱㅏㄴㅡㅇㅎㅏㄷㅏ	-9.15439
ㄷㅐㅎㅏㄴ	-9.15507
ㅂㅏㄴ	-9.15634
▁ㅂㅗㅎㅓㅁ	-9.15665
ㅆㄴㅡㄴㄷㅔㅇㅛ	-9.15785
▁ㅅㅏㄹㅏㅇ	-9.15926
▁ㅍㅗㄱ	-9.16066
▁ㅈㅣㄹㅁㅜㄴㅇㅔ	-9.16166
▁ㄴㅏㅌㅏㄴㅏ	-9.16176
ㄲㅜ	-9.16509
▁ㅇㅢㄱㅕㄴ	-9.16687
ㅅㅣㅅㅓㄹ	-9.16943
▁ㅇㅣㅌㅡㄹ	-9.17214
ㄹㅠ	-9.17228
▁ㅋㅏ	-9.1734
▁ㅂㅜㅂㅜ	-9.1736
ㄹㅆㅣㄴ	-9.17586
▁ㄱㅗㅇㄱㅐ	-9.17727
▁ㅇㅓㄹㅕㅇㅜ	-9.17791
ㅈㅔㄷㅗ	-9.17911
ㅇㅣㄴㄷㅔ	-9.17983
▁ㅈㅓㄴㅅㅔ	-9.18014
▁ㄱㅏㅁㅅㅏ	-9.18034
▁ㅎㅕㅁㅇㅢ	-9.18083
ㅇㅣㄹㅏㅁㅕ	-9.18092
▁ㅂㅏㄹㄱㅕㄴㄷㅙㅆ	-9.18093
▁ㅃㅐ	-9.18202
▁ㅋㅣㄹㄹㅗㅁㅣㅌㅓ	-9.18202
▁ㅁㅣㄴㅈㅜㄷㅏㅇ	-9.18212
▁ㄷㅗㄱㅇㅣㄹ	-9.1826
▁ㄱㅏㅇㄴㅏㅁㄱㅜ	-9.18333
ㅜㄹㅡㄹ	-9.18374
▁ㄱㅘㅇ	-9.18503
▁ㅇㅕㄹㄹㅣㄴ	-9.18547
ㅁㅜㅅㅓㅇ	-9.1855
▁ㄱㅏㅇㄹㅕㄱ	-9.18602
ㄱㅘㄴㄹㅣ	-9.18778
▁ㄴㅐㅇㅛㅇㅇㅡㄹ	-9.18779
▁ㅅㅏㅇㅍㅜㅁ	-9.18836
▁ㄴㅏㅁㅍㅕㄴ	-9.18852
▁ㅇㅢㅇㅝㄴㅇㅣ	-9.18888
▁ㅅㅣㅈㅏㄱㄷㅚㄴ	-9.1889
▁ㅁㅜㄴㅈㅔㅇㅔ	-9.1893
▁ㅎㅐㅇㅏㄴ	-9.19037
ㅇㅓㄴㅡ	-9.19278
ㄱㅗㅇ	-9.19286
▁ㅈㅣㅅㅏ	-9.19413
ㄹㅑㅇㅇㅣ	-9.19428
ㅍㅗㄱ	-9.19499
ㅅㅣㄹㅅㅏㅇ	-9.19512
▁ㄱㅝㄴㅎㅏㄴ	-9.19613
ㄱㅏㄱ	-9.19666
▁ㄱㅡㄴ	-9.19692
▁ㅇㅣㅆㄴㅡㄴㅈㅣ	-9.19734
▁ㅂㅓㅂㅈㅓㅇ	-9.19819
▁ㅂㅗㄱ	-9.19855
▁ㅂㅏㄹㅡㄴㅈㅓㅇㄷㅏㅇ	-9.19869
▁ㅅㅓㅇㅁㅐㅁㅐ	-9.19869
▁ㅇㅏㅊㅣㅁ	-9.1987
▁ㅈㅣㄹㅎㅘㄴ	-9.19876
▁ㅍㅗㄱㅂㅏㄹ	-9.19893
▁ㅎㅐㅇㅚ	-9.19986
▁ㄱㅏㄲㅏㅇ	-9.20038
▁ㅎㅗㅌㅔㄹ	-9.20038
▁ㅇㅏㅇㅣㄷㅡㄹㅇㅣ	-9.20242
▁ㅊㅓㅇㅡㅁㅇㅔ	-9.20324
▁ㅂㅏㄷㅇㅡㄹ	-9.20359
▁ㄴㅜㄴㅇㅔ	-9.20477
▁ㅅㅗㄴㅇㅔ	-9.20481
ㅉㅏ	-9.20493
▁ㅁㅐㅈㅏㅇ	-9.20513
▁ㄲㅡㄹ	-9.20637
▁ㅁㅗㄱㅈㅓㄱ	-9.20855
▁ㄷㅗㄱ	-9.20938
▁ㅅㅟ	-9.20957
▁ㄴㅗㄱ	-9.20958
▁ㅇㅢㅈㅣ	-9.21017
▁ㅈㅓㄱㅇㅣ	-9.21149
▁ㅎㅏㄴㅡㄴㄷㅔ	-9.21269
▁ㅂㅏㄹㅅㅐㅇ	-9.21284
▁ㅊ	-9.21368
▁ㅌㅗㅇ	-9.21465
▁ㅎㅕㄴㅅㅏㅇㅇㅣ	-9.21513
▁ㅂㅏㄷㅇㅡ	-9.2153
▁ㅊㅟㅎㅏ	-9.21542
▁ㅁㅏㅈㅊㅝ	-9.21564
▁ㅂㅕㄴㅎㅗㅇㅣㄴ	-9.21564
▁ㅎㅝ	-9.21572
▁ㅊㅜㅅㅏㄴ	-9.21593
ㅏㄱㅔ	-9.2161
▁ㅂㅓㄴㅉㅐ	-9.21638
▁ㅇㅘㄴㅈㅓㄴ	-9.21673
ㅊㅕ	-9.217
▁ㅅㅗㄱㅐ	-9.21847
▁ㅇㅓㄹㅣㄴ	-9.21935
ㅋㅏㄷㅡ	-9.21958
ㅎㅘㄴ	-9.21972
ㅏㄹ	-9.22013
▁ㅅㅣㅎㅐㅇ	-9.22042
ㄹㅠㄹㅇㅣ	-9.22075
ㅅㅡㅇ	-9.22098
▁ㅅㅣㅁㅣㄴㄷㅡㄹㅇ	-9.22119
▁ㅇㅖㅅㅏㄴ	-9.22176
ㅅㅏㄹ	-9.22274
▁ㅅㅣㄱㅇㅡㄹㅗ	-9.22303
▁ㅇㅣㅆㄷㅏㅁㅕ	-9.22651
ㅌㅜ	-9.22721
▁ㅂㅏㄷㄱㅣ	-9.22728
▁ㅁㅝ	-9.22964
ㅜㄱㅗ	-9.22979
▁ㄱㅏㅁㅅㅗ	-9.23014
▁ㅈㅣㅅㅗㄱ	-9.2321
▁ㄴㅐㄴ	-9.2327
▁ㅈㅓㅂㅊㅗㄱ	-9.23288
▁ㄱㅓㅇㅖㅇㅛ	-9.23288
▁ㄴㅜㄱㅜㄴㄱㅏ	-9.23317
▁ㅊㅓㅇㅅㅗㄴㅕㄴ	-9.2336
▁ㄷㅐㅈㅏㅂㅗ	-9.23438
▁ㅎㅘㄱ	-9.23507
▁ㄱㅓㄹㅇㅓ	-9.23547
▁ㄱㅣㅎㅚ	-9.23554
▁ㅇㅕㅁㅕㅇ	-9.23586
▁ㅇㅏㄴㅇㅔ	-9.23587
▁ㅂㅘ	-9.23607
ㅉㅗㄱ	-9.23676
ㅇㅡㅁ	-9.2375
▁ㅈㅣㄹㅁㅜㄴ	-9.23838
▁ㄷㅏㄴㅅㅗㄱ	-9.23891
▁ㅍㅗㄱㄹㅕㄱ	-9.23896
ㅌㅓ	-9.23964
▁ㅈㅓㄴㅁㅏㅇ	-9.23998
▁ㅂㅗㅅㅏㅇ	-9.24128
▁ㅈㅔㅇㅏㄴ	-9.24181
▁ㅁㅏㄴㅇㅝㄴㅇㅡㄹ	-9.24225
▁ㅁㅏㅌㄱㅣ	-9.2425
ㅏㄱㅗ	-9.2432
▁ㅇㅓㅄㄱㅗ	-9.24416
▁ㄷㅐㅂㅣ	-9.24497
▁ㅈㅡㄱ	-9.24508
ㅆㄷㅏㅁㅕ	-9.24607
▁ㅇㅏㄴㅈㅓㄴ	-9.24732
ㅂㅕㄹ	-9.24832
ㅇㅣㅈㅏ	-9.24839
▁ㄷㅚㅈㅣ	-9.24872
▁ㅇㅟㄱㅣ	-9.24893
ㄱㅣㄴㅡㄴ	-9.24895
▁ㅁㅣㄴㅈㅓㅇㅅㅜㅅㅓㄱ	-9.25042
▁ㅁㅏㅈㅣㅁㅏㄱ	-9.25042
▁ㅎㅑㅇㅎㅜ	-9.25047
▁ㅅㅏㄹㅏㅈㅣ	-9.25083
▁ㅅㅗㄱㅇㅔ	-9.25101
▁ㅅㅓㄴㅁㅜㄹ	-9.25197
ㄱㅡㅁㅇㅡㄹ	-9.25212
ㅊㅡ	-9.2526
▁ㅊㅏㅈㄱㅣ	-9.25304
▁ㅈㅜㅇㅇㅛㅎㅏㄷㅏ	-9.25374
ㅇㅗㄱ	-9.25406
ㅎ	-9.25424
ㄱㅝㄴㅇㅡㄹ	-9.25459
ㅇㅑㅁㅏ	-9.25557
ㄲㅏ	-9.25585
ㅇㅓㅂ	-9.25591
▁ㄷㅐㅁㅗㄱㅇ	-9.25605
▁ㅌㅐ	-9.25616
ㅊㅣㄹㅡㄹ	-9.25636
▁ㅍㅣㄹㅇㅛㅎㅏㄷㅏ	-9.25684
ㅅㅓㄹ	-9.25714
ㅌㅣㅁ	-9.25821
ㅂㅏㅇ	-9.25835
▁ㅅㅔㄱㅣ	-9.25836
▁ㄴㅏㅇㅘ	-9.25886
▁ㅇㅟㅎㅓㅁ	-9.25909
▁ㅎㅐㅆㄷㅓㄴ	-9.26034
▁ㅎㅏㄷㅓㄹㅏ	-9.26053
▁ㅁㅗㄹ	-9.26186
▁ㅈㅣㅈㅣ	-9.2619
ㅈㅣㅂㅇㅔㅅㅓ	-9.26235
▁ㄷㅏㅇㅈㅏㅇ	-9.26341
▁ㄱㅗㄹ	-9.26422
ㅂㅕㅇㅇㅝㄴ	-9.26422
ㅋㅣ	-9.26535
▁ㅈㅓㅈㅏ	-9.26569
▁ㅇㅓㅂㅊㅔ	-9.26595
▁ㄲㅗㅊ	-9.26743
ㅏㅇ	-9.26772
▁ㄷㅐㅎㅏㄴㅁㅣㄴㄱㅜㄱ	-9.26828
▁ㅇㅗㄻㄱㅣ	-9.26828
ㅍㅜㅁ	-9.26844
▁ㅈㅓㄴㄴㅏㄹ	-9.26864
▁ㅈㅣㅈㅣㅇㅠㄹ	-9.2691
▁ㅇㅕㄴㅅㅗㄱ	-9.2692
ㅁㅇㅣ	-9.26952
▁ㅊㅏㅈㄴㅡㄴ	-9.27001
▁ㅌㅔ	-9.27018
▁ㅂㅏㄲ	-9.27101
▁ㅌㅡㄱㅅㅜ	-9.2713
▁ㅎㅕㄴㅈㅣ	-9.27194
▁ㅅㅜㄴㄱㅏㄴ	-9.2723
▁ㅈㅏㅅㅣㄴㄷㅡㄹ	-9.2727
▁ㄱㅗㅇㄱㅡㅂ	-9.27352
▁ㅎㅣㅁ	-9.27493
ㄴㄷㅏㅁㅕㄴ	-9.27588
ㅏㄱ	-9.27701
▁ㄱㅏㅈㅣㄴ	-9.27765
ㅅㅡㅌㅡ	-9.27836
▁ㅂㅗㅇ	-9.27934
▁ㅍ	-9.28105
ㅈㅏㄷㅡㄹㅇㅣ	-9.28135
▁ㅇㅏㅍㄷㅜㄱㅗ	-9.28242
▁ㄸㅏ	-9.2829
▁ㅁㅏㄶㄷㅏ	-9.2834
ㅇㅘㅆㄷㅏ	-9.28359
▁ㅅㅣㅈㅏㄱ	-9.28509
ㅅㅜㄱㅏ	-9.28551
▁ㅇㅜㄹㅅㅏㄴ	-9.28647
▁ㅌㅗㅇㅎㅘ	-9.28693
▁ㅎㅕㄴㅈㅏㅇㅇㅔ	-9.28724
▁ㄱㅗㅇㅊㅓㄴ	-9.28804
ㄱㅡㄹ	-9.28912
▁ㄱㅔㅇㅣㅁ	-9.28944
▁ㅇㅣㄴㅌㅓㄴㅔㅅ	-9.29017
▁ㄱㅡㅁㄹㅣ	-9.29042
▁ㅂㅏㅁ	-9.29067
▁ㄱㅐㄱㅜㄱ	-9.29117
▁ㅂㅗㄴㅇㅣㄴ	-9.29127
▁ㅈㅣㄴㅐ	-9.29177
ㅇㅑㄱ	-9.29181
▁ㅈㅏㅇㅅㅗ	-9.29185
▁ㅇㅕㅅㅓㅇㅇㅣ	-9.293
ㄹㅣㅂ	-9.29385
▁ㅋ	-9.29556
▁ㄴㅕㄴㅂㅜㅌㅓ	-9.29703
ㄸ	-9.2987
▁ㅇㅓㅄㄷㅏㅁㅕ	-9.30047
▁ㅁㅜㄱㅔ	-9.30255
ㅇㅚ	-9.30472
▁ㅇㅡㅇㄷㅏㅂ	-9.30498
ㅂㅏㅌㅏㅇ	-9.30499
▁ㅈㅗㄹㅇㅓㅂ	-9.3055
▁ㅇㅝㄴㅈㅏㅇ	-9.30565
▁ㅈㅜㅇㅣㄴ	-9.3059
▁ㅎㅗㄱㅅㅣ	-9.30613
▁ㄱㅜㅅㅓㅇ	-9.30655
▁ㄴㅗㅇ	-9.30703
▁ㅅㅓㅅㅓ	-9.3072
ㅈㅏㄱㅏ	-9.30739
▁ㅅㅐㅇㄱㅏㄱㅎㅏㅂㄴㅣㄷㅏ	-9.30782
ㅈㅜㅇㅇㅔ	-9.30796
▁ㅇㅕㄹㅗㄴ	-9.30826
▁ㅈㅏㄷㅗㅇㅊㅏ	-9.30839
▁ㅊㅗㅇㅅㅓㄴㅇㅔㅅㅓ	-9.30879
ㅆㅇㅡㄹ	-9.30929
▁ㅈㅓㅇㄷㅏㅇ	-9.30983
▁ㄱㅗㅇㅅㅏ	-9.30987
▁ㅇㅝㄴㅇㅠ	-9.31006
ㅁㅗㅇㅣㅁ	-9.31131
▁ㄱㅣㄴㅡㅇ	-9.31169
▁ㄲㅐ	-9.3128
ㅆㄷㅏㄴㅡㄴ	-9.31358
▁ㅁㅏㅅㅣ	-9.31367
▁ㅅㅏㄱㅓㄴㅇㅣ	-9.31401
ㄱㅡㄷㅗㅇㅇㅏㄴ	-9.31408
▁ㄱㅘㅇㅕ	-9.31478
▁ㅅㅔㄷㅐ	-9.3166
▁ㅇㅏㄶㅇㅡ	-9.31712
▁ㅁㅏㅇㅡㄹ	-9.31837
▁ㄱㅗㄷ	-9.31875
▁ㄱㅏㄱㅔ	-9.31894
▁ㅈㅓㄴㅇㅛㅇ	-9.31901
▁ㅂㅜㄴㅁㅕㅇㅎㅏ	-9.31934
▁ㅇㅣㅆㄷㅏㅁㅕㄴ	-9.31954
▁ㅅㅐㅇ	-9.31991
ㄷㅚㅇㅓ	-9.32065
▁ㅅㅡ	-9.32152
▁ㅁㅜㅇㅓㅅㅇㅣ	-9.32372
▁ㅅㅡㅌㅡㄹㅔㅅㅡ	-9.32385
▁ㄱㅜㅅㅗㄱㅇㅕㅇㅈㅏㅇ	-9.32385
▁ㅂㅏㄴㅇㅡㅇ	-9.32385
▁ㅈㅣㅇㅇㅕㄱ	-9.32385
▁ㅅㅏㅁㅅㅓㅇㅈㅓㄴㅈㅏ	-9.32385
▁ㅌㅐㅇㅑㅇ	-9.32397
ㄴㅎㅐ	-9.32455
▁ㅅㅗㅂㅣ	-9.32459
▁ㅅㅣㄹㅣㅇㅏ	-9.32471
▁ㅇㅓㄴㅈㅔ	-9.32476
▁ㅈㅏㄹㅁㅗㅅ	-9.32492
▁ㄱㅓㄱㅈㅓㅇ	-9.32502
▁ㅂㅔ	-9.32569
▁ㅊㅜㄹㅁㅏ	-9.32573
▁ㅅㅜㅈㅜㄴ	-9.32714
▁ㅎㅐㅅㅓㄱ	-9.32795
▁ㄱㅐㅎㅕㄱ	-9.328
▁ㄱㅐㅈㅓㅇ	-9.32817
▁ㄱㅡㄹㅓㅁ	-9.3285
ㅎㅏㄱㅔㅆㄷㅏ	-9.32851
▁ㅂㅏㅇㅣㄹㅓㅅㅡ	-9.32853
ㅂㅗㅎㅗ	-9.33016
ㄺ	-9.33044
▁ㅂㅏㅇㅎㅑㅇ	-9.33156
ㅆㄱㅗ	-9.33269
▁ㄴㅡㄹㅇㅓㅆ	-9.33292
▁ㅌㅐㄷㅗ	-9.33346
▁ㄱㅐㅅㅓㄴ	-9.33406
▁ㅂㅗㄴㅣ	-9.33465
▁ㄴㅗㅍㅇㅣ	-9.33509
▁ㅆㅡㄹ	-9.33678
ㄸㅐ	-9.33719
▁ㄱㅗㅅㅇㅔㅅㅓ	-9.33785
ㄱㅕㄴㅇㅣ	-9.33802
▁ㅁㅣㄴ	-9.33806
▁ㅂㅗㅅㅣ	-9.3385
ㅊㅔㄱㅖ	-9.33985
▁ㅍㅕㅇ	-9.34131
▁ㅇㅛㄱㅜㅎㅏ	-9.343
▁ㅁㅣㄹㄹㅣㅁㅣㅌㅓ	-9.34308
▁ㅃㅏㅈㅣ	-9.34308
▁ㅈㅣㅇㄱㅖ	-9.34309
▁ㄷㅏㅂㅂㅕㄴ	-9.34319
▁ㅅㅏㅁㅅㅓㅇㄱㅡㄹㅜㅂ	-9.34346
▁ㅎㅏㄱㄴㅕㄴ	-9.34354
▁ㅈㅣㄷㅗㅈㅏ	-9.34412
▁ㅆㅓ	-9.34547
▁ㄱㅡㅊㅣ	-9.34584
▁ㅊㅡㄱㅈㅓㅇ	-9.34608
▁ㅈㅓㅇㄱㅜㄱ	-9.34797
▁ㅇㅓㄹㅕㅂ	-9.34858
▁ㅂㅗㄱㅓㄴ	-9.34893
ㄱㅣㅇㅓㅂ	-9.35109
▁ㅇㅕㄹㄹㅣ	-9.35109
ㅈㅗㅊ	-9.35182
▁ㄴㅜ	-9.35223
▁ㄱㅗㅇㄱㅏㄴ	-9.35241
▁ㅎㅗㄴ	-9.35258
▁ㄴㅏㅌㅏㄴㅐ	-9.35291
ㄹㅕㄱㅇㅣ	-9.35319
▁ㅇㅠㅈㅣ	-9.35346
ㄷㅓㄱ	-9.35369
▁ㅎㅚㅂㅗㄱ	-9.35465
▁ㄱㅡㅂㅜㄴ	-9.35466
ㅇㅓㅄㅇㅣ	-9.35478
ㅏㅁㅏ	-9.3551
▁ㅎㅓㄹ	-9.35512
ㅇㅡㅁㅕ	-9.35565
▁ㅁㅐㄱ	-9.35615
▁ㅇㅕㅍ	-9.35676
ㅅㅣㄹㅇㅔ	-9.3568
ㅚ	-9.35768
▁ㅂㅗㅇㅏㅆ	-9.35848
▁ㄷㅡㄴㄷㅏ	-9.35884
▁ㅅㅐㅇㄱㅣ	-9.35958
ㅜㄹㅗㄱ	-9.36003
ㅅㅜㄴ	-9.3609
▁ㅇㅜㄴㅈㅓㄴ	-9.36129
▁ㄴㅗㅁㅜㅎㅕㄴ	-9.36269
▁ㅊㅚㅈㅓㅇㅣㅁㄱㅡㅁ	-9.36269
▁ㄱㅣㅁㄷㅐㅈㅜㅇ	-9.36269
▁ㄱㅘㄴㅅㅡㅂ	-9.36287
▁ㅈㅣㄴㅊㅜㄹ	-9.36292
▁ㅂㅓㅂㄹㅠㄹ	-9.36304
▁ㄱㅣㅁㅇㅕㅇ	-9.36342
▁ㄱㅐㅇㅢ	-9.36343
▁ㅈㅏㅂㅎㅣ	-9.36371
▁ㄷㅐㄱㅣㅇㅓㅂ	-9.36507
▁ㅋㅣㄹㅗㅁㅣㅌㅓ	-9.36519
▁ㅈㅏㅂㅇㅏ	-9.36534
▁ㅊㅗㄱㄱㅜㅎㅏ	-9.36554
▁ㅅㅓㄴㄱㅗㅂㅏㄷㅇㅏㅆ	-9.36575
▁ㅎㅜㄴㄹㅕㄴ	-9.36703
▁ㅇㅑㄱㅅㅗㄱ	-9.36707
▁ㅅㅣㄴㅊㅓㅇ	-9.36778
▁ㅇㅓㄹㅕㅂㄷㅏ	-9.3688
▁ㄱㅜㅈㅗ	-9.36902
▁ㅌㅗㅇㅅㅣㄴ	-9.37123
▁ㅇㅣㅂㅈㅏㅇㅇㅔㅅㅓ	-9.37128
▁ㄱㅓㅁㅅㅏ	-9.37131
▁ㄱㅖ	-9.37146
▁ㅎㅐㅇㄷㅗㅇㅇㅡㄹ	-9.37167
▁ㅎㅕㄴㅈㅏㅇ	-9.37313
▁ㅎㅕㅂㅅㅏㅇ	-9.37335
▁ㅂㅏㅇㅁㅜㄴ	-9.37404
ㅕㅆㅅㅡㅂㄴㅣㄷㅏ	-9.37543
▁ㅈㅣㅈㅓㄱㅇㅣ	-9.37558
ㅍㅕㅇ	-9.37563
▁ㅅㅏㅇㄷㅏㅇㅎ	-9.37575
▁ㄱㅗㅅㅇㅔ	-9.3767
ㄴㅎㅣ	-9.37718
▁ㄱㅏㅇㄷㅗ	-9.3785
▁ㅇㅣㄴㄷㅗ	-9.37953
ㄷㅏㄹㄹㅏ	-9.38003
▁ㅇㅣㅎㅐㅎㅏ	-9.38186
▁ㅂㅏㄹㅅㅐㅇㅎㅏㄴ	-9.38228
▁ㅎㅏㄹㅏㄱ	-9.38254
▁ㅃㅏㄹㅡ	-9.38269
▁ㅁㅔㅅㅣㅈㅣ	-9.38269
▁ㅂㅓㅁㅎㅐㅇ	-9.38272
▁ㅅㅗㅅㅗㅇ	-9.3829
▁ㅈㅣㄴㅉㅏ	-9.38302
▁ㄱㅐㅍㅕㄴ	-9.38303
▁ㄷㅏㅁㅂㅐ	-9.38326
▁ㅈㅓㅂㅅㅜ	-9.38328
▁ㄷㅓㅂㅜㄹㅇㅓㅁㅣㄴㅈㅜㄷㅏㅇ	-9.38443
▁ㅇㅗㄹㅡ	-9.38478
▁ㄱㅘㄱㅓ	-9.38625
▁ㅂㅜㅅㅣㄹ	-9.38685
▁ㅇㅚㅇㅔ	-9.38703
▁ㅈㅜㅅㅗ	-9.38704
▁ㅍㅗㄱㅣㅎㅏ	-9.38742
▁ㅅㅣㄷㅐ	-9.38758
▁ㅇㅓㅄㅈㅣ	-9.38807
ㅈㅓㅇㅇㅡㄹ	-9.3884
▁ㅇㅕㅇㅇㅓㅂ	-9.3886
ㅇㅈㅏㅇㅎ	-9.38884
▁ㅂㅣㄱㅛ	-9.3895
▁ㅅㅓㄴㅅㅜ	-9.38993
▁ㄷㅏㄹㄹㅕ	-9.39109
▁ㄱㅖㅇㅑㄱ	-9.39123
▁ㅇㅣㄴㄱㅜ	-9.39134
▁ㅅㅣㅇㅟ	-9.39171
▁ㅈㅓㄹㅊㅏ	-9.392
▁ㄴㅗㅍㄷㅏ	-9.39201
▁ㄸㅐㄲㅏㅈㅣ	-9.39296
▁ㅁㅏㄹㅎㅏㄴ	-9.39298
▁ㄱㅏㅇㅑ	-9.39336
▁ㄱㅗㅇㄱㅣ	-9.3934
▁ㅅㅓㅇㄱㅗㅇ	-9.39342
▁ㅈㅣㅋㅕㅂㅗ	-9.39385
▁ㄷㅗㄹㅇㅏ	-9.39402
▁ㅅㅣㄴㅐ	-9.39426
ㅎㅜ	-9.39515
ㅅㅏㄱㅏ	-9.39526
ㅇㅓㅆ	-9.39553
▁ㅁㅕㅇㅇㅡㄹ	-9.39553
ㄱㅘㄴㅇㅛㅇ	-9.39628
▁ㅊㅚㅅㅗ	-9.39832
▁ㅈㅏㄹㅁㅗㅅㄷㅚ	-9.39855
ㄹㅕㅆㄷㅏ	-9.39888
▁ㅇㅜㄴㅇㅕㅇ	-9.39915
▁ㅂㅏㄷㄱㅔ	-9.39997
▁ㅇㅟㅊㅣ	-9.40099
▁ㅈㅏㄱㅍㅜㅁ	-9.40157
▁ㅎㅢㅁㅏㅇ	-9.40235
ㅈㅓㅇㅊㅣㅁㅣㄴㅈㅜㅇㅕㄴㅎㅏㅂ	-9.40309
▁ㅎㅕㅇㅌㅐ	-9.40331
▁ㅅㅏㅈㅓㄴ	-9.40339
▁ㅍㅣㅇㅢㅈㅏ	-9.40354
▁ㅈㅗㅋㅏ	-9.40435
▁ㅎㅏㄹㅁㅓㄴㅣ	-9.4057
▁ㅈㅏㅈㅜ	-9.40573
▁ㄴㅗㄹㄹㅏ	-9.40622
▁ㅈㅜㄱㅓ	-9.40631
▁ㅂㅏㄱㅅㅏ	-9.40648
ㅎㅕㅂㅎㅚ	-9.40652
▁ㄱㅓㅅㄱㅘ	-9.40684
▁ㅈㅔㅇㅣㄹ	-9.40913
▁ㅇㅣㅅㅏㅈㅏㅇ	-9.40986
ㅇㅕㅆ	-9.41049
▁ㄱㅛㅎㅘㄴ	-9.41085
ㄹㅣㄱㅏ	-9.41096
▁ㅅㅏㄹㅏㅁㅇㅔㄱㅔ	-9.41149
ㄱㅇㅡㄹ	-9.41173
▁ㅅㅣㄹㅁㅜ	-9.41188
ㅊ	-9.41213
▁ㅂㅐㅇㅜㅈㅏ	-9.41442
▁ㄱㅜㅅㅗㄱ	-9.41505
▁ㄷ	-9.41541
▁ㅎㅘㄹㄷㅗㅇㅇㅡㄹ	-9.41715
▁ㅊㅚㅅㅜㄴㅅㅣㄹㅆㅣ	-9.41744
▁ㅇㅏㅍㅇㅔㅅㅓ	-9.41925
ㅌㅐ	-9.4199
ㅎㅏㅁㅇㅡㄹ	-9.42006
ㄷㅡ	-9.42044
▁ㅂㅓㄹㅣ	-9.42145
▁ㅁㅜㄱㅣ	-9.42311
ㅌㅣㅇ	-9.42326
▁ㅂㅗㅇㅅㅏ	-9.42362
▁ㅁㅕㄴㅈㅓㅂ	-9.42393
▁ㅈㅘㅎㅚㅈㅓㄴ	-9.42394
▁ㄸㅗㄱㄱㅏㅌ	-9.42395
▁ㅈㅜㅇㅅㅗㄱㅣㅇㅓㅂ	-9.424
▁ㅇㅓㄹㅣㄴㅇㅣㅈㅣㅂ	-9.42401
▁ㅅㅣㄴㄱㅠ	-9.42422
▁ㅇㅘㄴㅎㅘ	-9.42427
▁ㅇㅖㅊㅡㄱ	-9.42429
▁ㅇㅓㄴㅇㅓ	-9.42437
▁ㄱㅘㅇㅇㅕㄱ	-9.42437
▁ㅅㅜㅂㅐㄱ	-9.42497
▁ㄱㅏㄹㄷㅡㅇㅇㅣ	-9.42541
▁ㅈㅗㅊㅓ	-9.4259
▁ㄱㅜㄴㅅㅏ	-9.42622
▁ㄱㅗㅇㄷㅗㅇ	-9.4265
▁ㅂㅜㄹㅇㅓ	-9.42745
▁ㄷㅏㅂ	-9.42802
▁ㄷㅐㄱㅏ	-9.42849
▁ㅎㅛㄱㅘ	-9.4312
▁ㅅㅐㅇㄱㅣㄴ	-9.43152
ㅅㅗㅎㅏㄴ	-9.43153
ㄹㅕㄴㅡㄴ	-9.43175
▁ㅇㅢㅇㅝㄴㄷㅡㄹ	-9.43236
▁ㅇㅏㅁㅜ	-9.43297
▁ㅁㅗㅇㅣㅁ	-9.43328
▁ㅊㅏㅈ	-9.4333
▁ㄱㅏㅁㅇㅕㅁㄷㅚ	-9.4361
▁ㅎㅘㄱㅂㅗ	-9.43629
ㅇㅏㅁ	-9.43658
▁ㅌ	-9.43774
ㄱㅜㄱㅁㅣㄴ	-9.43777
▁ㄱㅗㅅㅗ	-9.43909
▁ㅌㅡㄱㅈㅓㅇ	-9.43915
▁ㄴㅏㅁㄱㅣ	-9.44127
ㅇㅣㅇㅓ	-9.44151
ㄲㅔㅅㅓ	-9.44215
▁ㅇㅏㄹㅇㅏ	-9.44376
▁ㅈㅜㄱㅗ	-9.44401
ㅇㅖ	-9.44514
▁ㅂㅡㄹㅐㄴㄷㅡ	-9.4452
▁ㅅㅐㅇㅅㅏㄴ	-9.44522
▁ㄱㅏㅈㅊㅜ	-9.44531
▁ㅎㅓㄴㅂㅓㅂ	-9.44536
▁ㅌㅡㄹㅓㄱ	-9.44548
▁ㅌㅗㄴ	-9.44557
ㅊㅟ	-9.44584
▁ㅁㅐㄴ	-9.44608
▁ㅈㅐㅅㅏㄴ	-9.44615
▁ㅇㅜㅇㅕㄴ	-9.44668
▁ㅈㅐㅍㅏㄴㄱㅘㄴ	-9.44722
▁ㅇㅛㅇㅣㄴ	-9.44777
▁ㅈㅓㅂ	-9.4484
▁ㅅㅡㅅㅡ	-9.44955
▁ㅎㅐㅁㅕㅇ	-9.44957
▁ㅂㅐㅊㅣ	-9.45077
▁ㅋㅡㄷㅏ	-9.45113
▁ㅅㅏㅇㅣㅌㅡ	-9.45361
▁ㄲㅣ	-9.45379
ㅇㅇㅡㄴ	-9.45379
ㅎㅐㅆㄴㅡㄴㄷㅔ	-9.45392
▁ㅇㅓㅄㅇㅡㄹ	-9.45677
▁ㄷㅓㄹ	-9.45706
▁ㅎㅐㅅㅓ	-9.45749
▁ㅇㅏㄴㄴㅐ	-9.4579
ㅍㅗㄴ	-9.45826
▁ㅁㅏㅇㅡㅁㅇㅣ	-9.45859
▁ㅎㅕㄱㅅㅣㄴ	-9.46031
▁ㅂㅐㅇㅜ	-9.46063
ㅂㅕㄴ	-9.46265
ㅗㄴ	-9.46358
▁ㄷㅐㅊㅔ	-9.46439
ㅌㅐㄱ	-9.46662
▁ㅃㅏㅈㅕ	-9.46691
▁ㅂㅣㅅㅓㅅㅣㄹㅈㅏㅇ	-9.46694
▁ㅂㅓㅂㅁㅜㅂㅜ	-9.46695
▁ㅅㅣㄴㄹㅚ	-9.46695
▁ㅈㅣㄱㅎㅜ	-9.46715
▁ㅎㅕㅂㅇㅢ	-9.46725
▁ㅅㅡㅇㄹㅣ	-9.46726
▁ㅈㅣㄷㅗㅂㅜ	-9.46729
▁ㄱㅓㄹㅊㅕ	-9.46734
▁ㄷㅗㅇㅂㅏㄴ	-9.4674
▁ㅂㅜㄴㅇㅕㄹ	-9.46749
▁ㅈㅣㅎㅏㅊㅓㄹ	-9.46835
▁ㅇㅑㄱㄱㅏㄴ	-9.46864
▁ㅇㅚㄱㅛ	-9.4687
ㅎㅏㄷㅓㄴ	-9.46872
▁ㄷㅜㄴ	-9.46888
▁ㅁㅗㅇㅑㅇ	-9.46896
▁ㅇㅓㅉ	-9.46912
▁ㄷㅏㅁ	-9.46997
▁ㄱㅡㅁㅇㅐㄱ	-9.47013
▁ㅁㅏㄹㅎㅏ	-9.47089
▁ㄴㅗㅇㅣㄴ	-9.47194
ㄱㅕㄹ	-9.47269
ㅆㄱㅓㄷㅡㄴㅇㅛ	-9.47288
▁ㅈㅐㅈㅓㅇ	-9.47327
▁ㄷㅡㄹㅇㅓㅇㅗㄴ	-9.47396
▁ㄷㅐㅎㅐㅅㅓㄴ	-9.47423
▁ㅈㅏㅇㅝㄴ	-9.47474
ㅊㅓ	-9.47493
▁ㅅㅏㅁㅜ	-9.47506
▁ㅎㅐㅆㅇㅡㄹ	-9.476
ㄴㅡㅇㄹㅕㄱ	-9.47604
ㅋㅔㅅ	-9.47623
▁ㅂㅏㅇㅂㅓㅂㅇㅡㄹㅗ	-9.47771
▁ㅇㅏㄴㅇㅔㅅㅓ	-9.47905
▁ㅅㅔㄱㅡㅁ	-9.48198
ㄴㄱㅏㄴ	-9.4849
ㅁㅏㅈㅓ	-9.48535
ㅈㅜㄴ	-9.48696
▁ㅅㅡㅇㄱㅐㄱ	-9.48702
▁ㅂㅗㄱㅗㅅㅓ	-9.48737
▁ㅅㅓㄹㅁㅕㅇㅎㅏ	-9.48758
▁ㅈㅓㄴㅈㅏ	-9.48761
▁ㅂㅏㄷㅇㅏㄷㅡㄹㅇㅣ	-9.48762
▁ㄱㅓㅁㅊㅏㄹㅇㅔ	-9.48791
▁ㅅㅐㅈㅓㅇㅊㅣㅇㅕㄴㅎㅏㅂ	-9.48917
▁ㅅㅡㅇㅇㅛㅇㅊㅏ	-9.48917
ㄷㅏㅁㅕ	-9.48946
▁ㅁㅗㄷㅔㄹ	-9.48965
ㅇㅕㄹ	-9.48977
▁ㅇㅖㅈㅓㅇ	-9.49026
▁ㄱㅖㅅㅣ	-9.49042
ㄲㅏㅇㅛ	-9.49071
▁ㄱㅘㅇㅣㄹ	-9.4909
▁ㅇㅣㅈㅜ	-9.49119
▁ㅃㅏㄹㄹ	-9.49121
▁ㅂㅗㅂㅗㄱ	-9.49134
▁ㅇㅘㅆㅅㅡㅂㄴㅣㄷㅏ	-9.49222
▁ㄲㅗㅂㅎㅣㄴ	-9.49251
▁ㄴㅐㄴㅕㄴ	-9.49274
▁ㅁㅜㅅㅏㅇ	-9.49327
▁ㄴㅏㅁㅜ	-9.49431
▁ㄱㅏㄹㅅ	-9.49519
ㄹㄹㅗ	-9.49553
▁ㅇㅣㅁㅣㄴ	-9.496
▁ㅇㅓㅂㄱㅖ	-9.49616
▁ㅇㅓㅂㅊㅔㄷㅡㄹ	-9.49684
▁ㄴㅏㅇㅗㄴㅡㄴ	-9.49761
ㅐㅆㄷ	-9.49796
▁ㅁㅔ	-9.49896
▁ㅅㅓㅇㅈㅏㅇ	-9.49914
ㅅㅏㅇㅇㅡㄹㅗ	-9.49975
ㅅㅡㅂ	-9.50076
▁ㄴㅏㅁㅍㅕㄴㅇㅣ	-9.50307
▁ㅇㅣㄱㅏㅌㅇ	-9.50358
▁ㄱㅕㄴ	-9.50425
▁ㄸㅐㅇㅔ	-9.50428
▁ㅍㅗㅎㅏㅁㄷㅚ	-9.50482
ㅂㅏㄱ	-9.5054
▁ㅎㅚㅇㅢ	-9.50646
▁ㅈㅣㅂㅇㅔ	-9.50689
▁ㄱㅣㄹㅇㅣ	-9.50692
ㄴㄷㅔ	-9.50712
▁ㅂㅏㄲㅟ	-9.50784
▁ㅅㅔㅇㅝ	-9.50821
▁ㅂㅏㄴㄷㅡ	-9.50919
▁ㅇㅗㄴㄷㅗ	-9.50942
▁ㅂㅜㄹㄱㅜ	-9.5097
▁ㄷㅟㅇㅔ	-9.50991
▁ㅍㅏㅇㅏㄱㅎㅏ	-9.51014
▁ㅇㅘㅆㄷㅏ	-9.51093
▁ㅈㅗㅅㅓㄴ	-9.51141
▁ㅊㅜㅈㅓㅇ	-9.51147
▁ㅂㅗㅅㅜ	-9.5116
ㅇㅛㄱ	-9.51184
▁ㅁㅏㅇㅣㄴㅓㅅㅡ	-9.51189
▁ㅁㅏㅈㅂㅓㄹㅇㅣ	-9.51189
▁ㄴㅗㄴㅁㅜㄴ	-9.5119
▁ㅂㅗㄱㅈㅏㅂㅎㅏ	-9.51195
▁ㅁㅗㅂㅏㅇㅣㄹ	-9.51197
▁ㅁㅗㄱㅅㅜㅁㅇㅡ	-9.51212
▁ㅇㅡㅁㅅㅣㄱㅈㅓㅁ	-9.51215
▁ㄱㅏㅂㅕ	-9.5126
▁ㅅㅣㄱㅏㄴㅇㅔ	-9.51313
▁ㅇㅏㄹㄱㅔ	-9.51366
▁ㅂㅜㄴㅇㅣ	-9.51381
ㅎㅚㅇㅢ	-9.51469
ㄷㅏㅁ	-9.51526
▁ㅎㅘㄱㄷㅐ	-9.51577
▁ㅇㅣㄴㅅㅐㅇㅇ	-9.51607
▁ㅈㅓㅇㅊㅣㄱㅝㄴ	-9.51612
▁ㅂㅣㅈㅜㅇ	-9.51623
▁ㄱㅡㄸㅐ	-9.51637
▁ㄷㅏㅇㅅㅓㄴ	-9.51703
ㄱㅣㄲㅏㅈㅣ	-9.51733
ㅅㅏㅇㅓㅂ	-9.51747
▁ㄹㅏㅇㅣ	-9.51749
▁ㄷㅗㅈㅓㄴ	-9.51804
▁ㅈㅏㅅㅏㄹ	-9.51908
▁ㄷㅗㅇㄴㅔ	-9.51915
▁ㅇㅓㅄㅇㅡㅁㅕ	-9.51917
▁ㅌㅚ	-9.51988
▁ㅈㅜㄹㅇㅣ	-9.52095
▁ㅅㅓㄹㅊㅣ	-9.52134
▁ㅂㅣㅅㅏㅇ	-9.52181
ㅅㅏㄴㅇㅓㅂ	-9.52201
▁ㅇㅣㅆㅇㅓㅆㄴㅡㄴㄷㅔ	-9.52227
▁ㅂㅗㅈㅣ	-9.52245
▁ㄴㅐㅈㅜ	-9.52364
ㅅㅕㅆ	-9.52407
ㅅㅗㄹㅣ	-9.52435
▁ㅇㅣㄴㄹㅕㄱ	-9.5246
▁ㅂㅕㄹㄷ	-9.52543
▁ㅇㅣㄴㄱㅝㄴ	-9.52623
▁ㄷㅏㅇㅡㅁㅇㅔ	-9.52697
▁ㅇㅢㅎㅏㄱ	-9.52719
▁ㅎㅓ	-9.52725
▁ㅅㅣㄱㅣ	-9.5274
▁ㅎㅐㄱㅕㄹ	-9.52791
ㅎㅢ	-9.52961
▁ㅈㅣㅇㅕㄱㅇㅔ	-9.52965
▁ㄷㅗㅇㅣㅂ	-9.52995
▁ㄷㅟㅅ	-9.53311
▁ㅈㅓㄴㅁㅏㅇㅇㅣ	-9.53326
▁ㅇㅛ	-9.5337
▁ㅂㅏㄹㄱㅕㄴ	-9.53403
▁ㅂㅏㄱㅈㅓㅇㅎㅢ	-9.53515
▁ㄷㅗㅇㅇㅕㅇㅅㅏㅇ	-9.53515
▁ㅈㅡㄹㄱㅣ	-9.53517
▁ㅊㅏㅇㅈㅗ	-9.53542
▁ㅇㅗㄱㅅㅣ	-9.53551
ㅎㅗㅇ	-9.53572
ㅂㅗㅇ	-9.53576
▁ㄱㅗㅇㅇㅑㄱ	-9.53584
▁ㅍㅏㄴ	-9.53725
▁ㅅㅣㄴㄷㅏㅇ	-9.5377
▁ㅊㅜㄹㅂㅏㄹ	-9.538
ㄱㅏㅌㅇㅡㄴ	-9.53802
▁ㅈㅏㄱㅅㅓㅇ	-9.53827
▁ㅈㅗㅆㅣ	-9.53884
▁ㅅㅜㅅㅜㄹ	-9.53895
▁ㅂㅓ	-9.53948
▁ㅈㅏㅇㅕㄴ	-9.53999
▁ㄱㅗㄱ	-9.54091
ㄴㅗㅎㄱㅗ	-9.541
ㅂㅓㅂㅇㅣㄴ	-9.54119
▁ㅅㅣㄷㅗ	-9.54256
▁ㅈㅜㄹㅇㅓㄷㅡㄴ	-9.54345
▁ㅁㅏㄶㅇㅏㅈㅣ	-9.54421
▁ㄹㅣㅅㅡㅌㅡ	-9.54481
ㄹㅣㄴㅡㄴ	-9.54521
▁ㅇㅢㄹㅛ	-9.5458
ㅇㅣㅌㅡ	-9.54652
▁ㅅㅣㅎㅓㅁ	-9.54703
▁ㅅㅜㅈㅓㅇ	-9.54738
▁ㅎㅕㄴㅅㅏㅇ	-9.54824
ㅊㅜㄹ	-9.54937
ㅏㄹㅡㄴ	-9.54955
▁ㅂㅏㄴㅂㅗㄱ	-9.55071
▁ㅅㅏㅁㅏㅇ	-9.5509
▁ㅂㅏㅇㅇㅏㄴ	-9.5513
▁ㄱㅗㅅㄱㅗㅅㅇㅔ	-9.5524
ㅣㄱㅏ	-9.55271
ㅈㅓㄱㅇㅣ	-9.5528
▁ㅇㅣㅇㅘ	-9.5529
▁ㅇㅓㄱㅇㅝㄴㅇㅡㄹ	-9.55384
ㅜㄱㅇㅡㄹ	-9.55428
▁ㅂㅜㄹㅍㅕㄴㅎㅏ	-9.55446
▁ㅈㅓㅁㅅㅜ	-9.55615
ㄷㅡㅅ	-9.55644
ㄱㄱㅘ	-9.55793
▁ㅈㅓㄹㅂㅏㄴ	-9.55833
▁ㅊㅟㅈㅐ	-9.55844
▁ㄲㅗㄱ	-9.55896
▁ㅍㅖㅅㅙ	-9.55896
▁ㅌㅐㄱㅂㅐ	-9.55896
▁ㅈㅜㄹㄱㅗ	-9.55896
▁ㅌㅗㅈㅣ	-9.55908
▁ㅂㅜㄴㅇㅟㄱㅣ	-9.55913
▁ㄷㅗㅊㅏㄱ	-9.55919
▁ㅎㅕㄴㅇㅕㄱ	-9.55942
▁ㄱㅛㅊㅔ	-9.55959
▁ㅅㅗㅌㅗㅇ	-9.55968
▁ㅇㅕㄹㅡㅁ	-9.56
▁ㅂㅏㄹㅍㅛㅎㅏㄴ	-9.56076
▁ㅉㅣㄱ	-9.56101
▁ㄴㅡㄲㅣㅁㅇㅣ	-9.56104
▁ㄷㅣㅈㅏㅇㅣㄴ	-9.56105
▁ㄱㅏㅅㅡㅁ	-9.56106
▁ㅂㅏㄱㅈㅐ	-9.56133
ㅊㅗㅇ	-9.56163
▁ㄸㅓㄹㅇㅓㅈㅕ	-9.56169
▁ㅂㅣㅆㅏ	-9.56172
ㅊㅓㄹ	-9.56185
▁ㅅㅜㅊㅜㄹ	-9.5623
▁ㅇㅕㅇㅈㅏㅇ	-9.5626
▁ㅁㅣㄱㅜㄱㅇㅔㅅㅓ	-9.56355
▁ㄴㅓ	-9.56388
▁ㅅㅣㅁㅣㄴ	-9.56419
▁ㄷㅗㅇㅅㅣ	-9.56442
▁ㅂㅣㄱ	-9.56443
▁ㅎㅘㄱㅇㅣㄴㄷㅙㅆㄷㅏ	-9.56443
▁ㅃㅕ	-9.56458
▁ㄴㅏㅇㅣ	-9.56589
▁ㄴㅐㄹ	-9.5668
▁ㅌㅗㅇㄱㅘ	-9.56767
▁ㅌㅣㅁㅈㅏㅇ	-9.56797
ㅇㅏㄴㅇㅡㄹ	-9.56886
▁ㅅㅐㅇㅎㅘㄹㅂㅣ	-9.56943
ㅆ	-9.56988
▁ㅍㅓ	-9.57005
▁ㄱㅣㅁㅈㅓㅇㅇㅡㄴ	-9.57012
▁ㄲㅡㄹㅇㅓ	-9.57045
ㅇㅣㅇㅓㅆ	-9.57048
▁ㄱㅣㅍㅇ	-9.57056
▁ㅅㅔㄹㅕㄱ	-9.57068
▁ㅎㅡㄹㅡㅁㅇ	-9.57125
▁ㅁㅜㄹㄹㅕ	-9.57164
▁ㅇㅣㄹㅇㅣㄷㅏ	-9.5718
▁ㄱㅡㄹㅜㅂ	-9.57204
ㄱㅘㄴㅇㅡㄹ	-9.57236
ㅎㅘㄴㄱㅕㅇ	-9.57268
ㅎㅘㅇ	-9.57287
▁ㄱㅡㄹㅓㅎㄷㅏ	-9.57292
▁ㅊㅏㅇㅣ	-9.57298
▁ㄱㅓㄹㅣ	-9.57428
▁ㅎㅏㄷㅏ	-9.57475
▁ㅎㅑㅇ	-9.57495
▁ㅈㅣㅈㅓㅇ	-9.57603
▁ㅅㅓㅇㅜㄹㅅㅣ	-9.57638
▁ㅍㅕㅇㅇㅑㅇ	-9.57814
▁ㅈㅜㄴ	-9.57848
ㄹㅡㅁ	-9.57918
▁ㄷㅐㅍㅛㅇㅘ	-9.57953
▁ㅈㅓㄴㄹㅑㄱㅈㅓㄱ	-9.58041
▁ㅋㅣ	-9.58105
ㄷㅏㅁㅕㄴ	-9.58326
▁ㄱㅐㅊㅚ	-9.58335
▁ㅅㅐㄲㅣ	-9.58335
▁ㅇㅏㅃㅏ	-9.58335
▁ㅅㅏㅊㅏㄹ	-9.58344
ㅈㅣㅇ	-9.5836
▁ㅊㅓㅇㄴㅕㄴ	-9.58388
▁ㅋㅏㄹ	-9.58427
▁ㄱㅓㅊㅕ	-9.58487
ㅎㅏㄴㄷㅏㄱㅗ	-9.58527
▁ㅇㅡㅁㅅㅣㄱ	-9.58569
▁ㅍㅡㄹㅗㄱㅡㄹㅐㅁ	-9.58582
▁ㅂㅐㅅㅏㅇ	-9.58666
▁ㅇㅕㄹㅓㅂㅜㄴ	-9.58723
▁ㅇㅠㅁㅕㅇ	-9.58729
ㅍㅣㄹ	-9.58764
▁ㅈㅜㅊㅏ	-9.58768
ㄷㅏㅇㅇㅣㄹ	-9.58789
▁ㅇㅕㄴㄷㅐ	-9.58841
▁ㅊㅜㅇㅂㅜㄴㅎㅏ	-9.59279
▁ㅈㅓㅇㅎㅘㄱㅎㅏㄴ	-9.59282
▁ㅎㅏㅁ	-9.5929
▁ㅈㅜㅈㅔ	-9.59343
▁ㅁㅣㅊㅣ	-9.59391
▁ㅈㅣㅋㅕ	-9.59475
ㄷㅏㄴㅊㅔ	-9.59546
▁ㅇㅝㄴㅇㅣ	-9.59561
ㄱㅏㄹㅑㅇ	-9.59606
▁ㄷㅡㄹㄱㅗ	-9.59623
▁ㅁㅏㄴㅇㅝㄴㅇㅣ	-9.59891
▁ㄴㅐㄹㅕㅆㄷㅏ	-9.59922
ㅂㅐ	-9.60035
▁ㄱㅓㅂㅜ	-9.60254
▁ㅈㅜㅂㅕㄴㅇㅔ	-9.60274
▁ㅎㅘㄴㄱㅕㅇ	-9.60287
▁ㅇㅕㅇㅅㅏㅇ	-9.60481
▁ㅈㅣㄱㅜ	-9.6055
▁ㄱㅡㄷㅐㄹㅗ	-9.60589
▁ㅈㅔㄱㅣㅎㅏ	-9.60664
▁ㅁㅗㅇㅏ	-9.60673
▁ㄱㅏㅇㅣㅂ	-9.60723
▁ㅈㅣㄹ	-9.60791
▁ㄱㅗㄹㅣㄹㄹㅏ	-9.60835
▁ㅈㅏㅈㅓㄴㄱㅓ	-9.60835
▁ㅈㅏㅇㅕㅇㅇㅓㅂ	-9.60836
▁ㅂㅗㄴㄱㅕㄱ	-9.60848
▁ㅎㅐㄱㅅㅣㅁ	-9.60858
ㅂㅓㄴㅎㅗ	-9.60874
▁ㄱㅘㅎㅏㄱㅈㅏㄷㅡㄹ	-9.60875
▁ㅍㅕㅇㅎㅘ	-9.60889
▁ㅁㅏㅇㅑㄱ	-9.60895
▁ㅍㅏㄴㅅㅏ	-9.60911
▁ㅉㅏ	-9.60937
▁ㅎㅜㅇㅣㅁ	-9.60971
▁ㅁㅏㄴㅈㅗㄱ	-9.61003
▁ㅁㅣㅅㅔ	-9.6104
▁ㅈㅓㄴㄱㅕㄱ	-9.61055
▁ㅅㅔㄱㅠㄴ	-9.61088
▁ㅅㅗㅇ	-9.6111
▁ㄷㅗㄹㅂㅗ	-9.61143
▁ㅊㅓㄱ	-9.61153
▁ㅌㅡㄱㅍㅏ	-9.61261
ㅁㅏㄱ	-9.61321
▁ㅂㅏㄴㄷㅐㅎㅏㄴㅡㄴ	-9.61515
▁ㄷㅐㅎㅘ	-9.61626
▁ㅁㅜㄹㅇㅓㅆ	-9.61629
▁ㅇㅣㄹㅅㅣ	-9.61667
▁ㄱㅓㅁ	-9.61775
▁ㅅㅓㄴㄱㅗ	-9.61851
▁ㅇㅜㅈㅜ	-9.61909
▁ㅎㅜㅂㅗㅈㅏ	-9.61978
▁ㅊㅟ	-9.6198
ㅎㅏㄱㄱㅛ	-9.62016
ㅅㅗㄷㅡㄱ	-9.62047
▁ㅁㅏㄶㅇㅏㅆ	-9.62188
▁ㅍㅕㅇㅅ	-9.62207
ㅜㄱ	-9.62288
▁ㅇㅣㄴㄱㅏㄴ	-9.62326
▁ㅇㅗㅅ	-9.62368
▁ㅂㅏㅂ	-9.62455
ㅅㅔㄹㅕㄱ	-9.62483
▁ㄱㅓㄱㅈㅓㅇㅎㅏ	-9.62611
▁ㅎㅘㄱㅂㅗㅎㅏㄴ	-9.62614
ㅎㅏㄹㅕ	-9.62636
▁ㅍㅛㅈㅣ	-9.62637
▁ㄱㅡㄹㅓㄹ	-9.62645
▁ㅁㅓㄴ	-9.62694
ㄱㅐㄱ	-9.62703
▁ㅅㅏㅇㄷㅏㅇ	-9.628
▁ㅅㅏㄹㅖ	-9.62816
▁ㅋㅏㄷㅡ	-9.62916
▁ㅇㅡㅁ	-9.62943
▁ㄱㅗㅁㅣㄴ	-9.62956
▁ㅅㅜㄷㅗㄱㅝㄴ	-9.62979
ㅇㅡㄹㅗㅅㅓ	-9.63036
▁ㅇㅣㅆㅇㅓㅆㄱㅗ	-9.63054
▁ㅂㅜㄹㅡ	-9.63095
▁ㅌㅏㄹ	-9.63097
▁ㅁㅣㄴㄱㅏㄴ	-9.63232
▁ㅇㅣㄴㅎㅏ	-9.63307
▁ㅅㅏㅇㅌㅐㅇㅔ	-9.63399
▁ㅈㅓㄴㄷㅏㅇㄷㅐㅎㅚ	-9.63399
ㅂㅓㅁㅈㅚㅅㅜㅅㅏ	-9.63401
▁ㅆㅡㄹㅔㄱㅣ	-9.63404
▁ㄱㅕㅇㅇㅕㅇ	-9.635
▁ㅇㅟㅂㅏㄴ	-9.63533
▁ㅇㅣㄴㅊㅜㄹ	-9.63582
ㅗㅌㅡ	-9.63596
▁ㅅㅣㄴㅊㅔ	-9.63632
▁ㄱㅗㄱㅐㄱ	-9.63638
▁ㅂㅣㅎㅐㅇㄱㅣ	-9.63681
▁ㄱㅕㅇㅜㄹ	-9.63714
▁ㄱㅝㄴㄹㅣ	-9.6375
▁ㄱㅘㄴㅎㅐ	-9.63785
▁ㄱㅏㄱㅖ	-9.63803
ㄴㅣㅁ	-9.63808
▁ㄷㅏㄴㅇㅓ	-9.6381
▁ㄴㅓㅁㅇㅓㅅㅓ	-9.63866
▁ㅇㅕㄱㅣ	-9.63874
▁ㅊㅓㄹㄱㅓ	-9.63893
▁ㄲㅜㅁ	-9.639
▁ㅊㅓㅈㅣ	-9.63914
▁ㅈㅏㄹㅣㅇㅔ	-9.64027
▁ㅈㅣㅈㅣㅈㅏ	-9.64075
ㅂㅗㄴㅂㅜ	-9.64082
▁ㅍㅜㄹㅇㅣ	-9.64186
▁ㅇㅣㅈㅓㄴㅇㅔ	-9.64194
▁ㅈㅡㅇㄱㅝㄴ	-9.64238
ㅎㅐㅇㅘㅆㄷㅏ	-9.64304
ㅆㅈㅛ	-9.64305
▁ㅁㅏㅌㅇㅏ	-9.64326
▁ㄱㅣㄹㅗㄱㅎㅐㅆㄷㅏ	-9.64328
ㅊㅡㄱ	-9.64342
▁ㄱㅏㅈㅗㄱㄷㅡㄹ	-9.64388
ㅈㅔㄱㅏ	-9.64428
▁ㅅㅏㅇㅣㅇㅔㅅㅓ	-9.64453
▁ㅁㅓㄹ	-9.64489
▁ㅇㅣㅆㅇㅓㅇㅑ	-9.64647
ㅅㅣㅋㅣㄴ	-9.64674
▁ㅎㅏㄴㄷㅏㅁㅕ	-9.64729
ㅅㅣㅎㅓㅁ	-9.64734
▁ㄱㅣㅅㅏㅇㅔㅅㅓ	-9.64763
ㅇㅣㄹㅏㄴ	-9.64782
▁ㄸㅡㅅㅇㅡㄹ	-9.64803
▁ㅅㅜㄱㅏ	-9.64819
▁ㅇㅏㄶㅇㅡㅁㅕ	-9.64857
▁ㄱㅓㄷ	-9.64954
▁ㅇㅜㄴㅈㅓㄴㅈㅏ	-9.64966
▁ㄷㅏㄴㅊㅔ	-9.64975
▁ㄹㅔ	-9.65116
▁ㅇㅢㅎㅐ	-9.65136
ㅇㅎㅏㄴㅡㄴ	-9.65156
▁ㅈㅣㅇㅕㄱㅇㅔㅅㅓ	-9.65174
ㄷㅔㅇㅛ	-9.65188
ㅊㅐㄱㅇㅡㄹ	-9.65206
ㅊㅏㅇ	-9.65217
▁ㅅㅐㅇㅁㅕㅇ	-9.65269
ㅜㄹ	-9.65312
▁ㄱㅏㅈ	-9.65342
ㅈㅓㅇㅇㅣ	-9.65351
▁ㅁㅏㄶㅇㅏㅆㄷㅏ	-9.65448
▁ㅇㅣㅁㅣㅈㅣ	-9.65592
▁ㅊㅜㅇㅂㅜㄴㅎ	-9.6589
ㅈㅗㄱㅏ	-9.65918
▁ㅈㅘ	-9.65975
▁ㅈㅜㅇㄱㅜㄱㅇㅣㄴ	-9.6599
ㅂㅜㄱ	-9.66023
ㅌㅏㅇㅣㅁㅅㅡ	-9.66029
▁ㅆㅗㄷㅇㅏㅈㅕㅆ	-9.66031
▁ㅊㅘㄹㅇㅕㅇ	-9.66031
ㅎㅏㄴㅌㅔ	-9.66031
▁ㄱㅔㅅㅣㅍㅏㄴ	-9.66033
▁ㅈㅏㄹㅏ	-9.66035
▁ㄲㅓㄴㅐ	-9.66043
▁ㅈㅡㅇㅅㅏㅇ	-9.66062
ㄸㅐㄹㅗ	-9.66114
▁ㅇㅕㄴㄹㅏㄱ	-9.66126
▁ㄱㅕㅇㅇㅟ	-9.66128
▁ㅅㅣㄴㄱㅕㅇ	-9.66139
▁ㅂㅏㅇㅅㅣㄱㅇㅡㄹㅗ	-9.66223
ㅅㅣㅁㅈㅏㅇ	-9.66227
▁ㅊㅔㅈㅔ	-9.66319
▁ㄱㅜㄱㅈㅓㅇㅇㅝㄴ	-9.66335
▁ㄱㅓㅅㅇㅣㅇㅓㅆㄷㅏ	-9.66405
▁ㅈㅜㅈㅏㅇㅇㅡㄹ	-9.66424
ㅁㅗㄴ	-9.66427
▁ㅂㅓㄹㅇㅓㅈㅣ	-9.66444
▁ㅅㅣㄱㄷㅏㅇ	-9.66501
▁ㅈㅜㅇㅅㅗ	-9.66518
ㅅㅣㅋㅣ	-9.66546
▁ㅁㅐㅇㅣㄹ	-9.6659
▁ㅂㅏㄷㅏ	-9.66662
▁ㄷㅏㅇㅂㅜ	-9.66692
ㅅㅔㅇㅛ	-9.66719
▁ㅍㅛㅁㅕㅇ	-9.6672
▁ㄱㅛㅇㅠㄱㅂㅜ	-9.66723
▁ㅂㅏㄷㅇㅏㅆ	-9.66728
▁ㅎㅏㅁㅕ	-9.66731
▁ㅈ	-9.66743
▁ㄴㅏㅁㅂㅜ	-9.66792
▁ㅈㅓㄱㅈㅓㄹㅎㅏ	-9.66885
ㅇㅡㄴㅎㅐㅇ	-9.66925
▁ㅂㅜㄹㄱㅏㄴㅡㅇㅎㅏ	-9.66951
ㅊㅣㅇ	-9.6697
ㅝ	-9.67047
ㅈㅏㅇㅇㅢ	-9.67145
▁ㅈㅓㄴㅁㅕㄴ	-9.67163
▁ㄱㅛㅌㅗㅇ	-9.67202
ㅇㅣㄱㅣ	-9.67265
▁ㅅㅓㅇㅇㅣㄴ	-9.67288
ㅅㅓㅇㅇㅘㄴ	-9.67398
ㄲㅐ	-9.67413
ㅆㅈㅣㅇㅛ	-9.67417
▁ㅅㅣㅈㅏㄱㅎㅐㅆㄷㅏ	-9.67419
▁ㅇㅛㅇㅇㅢㅈㅏ	-9.67494
▁ㅂㅜㄷㅐ	-9.67641
ㅇㅝㄴㅈㅓㄴ	-9.67849
▁ㅇㅛㅊㅓㅇ	-9.67972
▁ㅊㅏㅇ	-9.68006
▁ㅅㅡㅁㅏㅌㅡ	-9.68035
ㄱㅐㄱㅏ	-9.68097
ㅅㅏㅁ	-9.68171
▁ㅇㅗㄻㄱㅕ	-9.68171
ㅇㅓㄴㅇㅣ	-9.68356
▁ㅎㅘㄱㅈㅓㅇ	-9.68454
▁ㄱㅛㅅㅏ	-9.68484
ㅂㅗㄱㅗ	-9.68546
ㅅㅜㄱ	-9.68604
▁ㅊㅗㅇㅅㅓㄴ	-9.68617
▁ㅁㅏㄴㄴㅏㄴ	-9.68703
▁ㅎㅏㅇㅕ	-9.68708
▁ㅇㅖㅅ	-9.6872
▁ㅇㅓㅁㅊㅓㅇㄴㅏ	-9.68733
▁ㄱㅏㅄ	-9.68733
▁ㅁㅓㄴㅣㅌㅜㄷㅔㅇㅣ	-9.68733
▁ㅇㅜㅇㅜㄹㅈㅡㅇ	-9.68733
▁ㄹㅓㅅㅣㅇㅏ	-9.68733
▁ㅃㅜㄹㅣ	-9.68733
▁ㅍㅐㅅㅕㄴ	-9.68733
▁ㅇㅢㄹㅚ	-9.68734
▁ㅆㅏㅇㅜㅁ	-9.68734
▁ㅇㅜㄴㄷㅗㅇㅇㅡㄹ	-9.68764
▁ㅈㅏㅌㅐㄱ	-9.68792
▁ㅇㅕㅇㅇㅑㅇ	-9.68806
▁ㄴㅏㅈㅇㅏ	-9.6881
▁ㅊㅜㄹㄷㅗㅇ	-9.68812
▁ㅊㅚㅈㅗㅇ	-9.68918
▁ㅈㅏㅅㅏㄴ	-9.68943
▁ㅇㅣㅁㅇㅝㄴ	-9.68944
▁ㅇㅢㄹㅛㅈㅣㄴ	-9.6895
▁ㅇㅗㄹㄹㅣ	-9.68974
▁ㄷㅡ	-9.69009
▁ㄱㅡㄹㅣㅅㅡ	-9.69032
▁ㅇㅜㅁㅈㅣㄱㅇㅣ	-9.69045
▁ㅈㅣㅎㅏ	-9.69063
▁ㄱㅗㅇㄱㅐㄷㅚ	-9.69087
▁ㅂㅜㄴㄷㅏㅇ	-9.69097
▁ㅇㅕㄹㅊㅏ	-9.69099
▁ㅈㅗㅎㄷㅏ	-9.69187
▁ㅂㅣㅎㅐ	-9.69256
ㅈㅣㅇㅕㄱ	-9.69261
▁ㄱㅣㄱㅘㄴ	-9.69321
▁ㅋㅣㅇㅝ	-9.69332
ㅈㅝㅇㅑ	-9.6935
▁ㅂㅜㄹㅇㅏㄴ	-9.69453
ㅣㄷㅡㅁ	-9.69467
▁ㅎㅖㅌㅐㄱ	-9.69484
▁ㅇㅓㅁ	-9.69504
▁ㅇㅣㄹㅡㄴㅡㄴ	-9.69513
▁ㄱㅗㄹㅕㅎㅐ	-9.69576
▁ㄴㅓㅎㅇㅡ	-9.69659
▁ㄴㅏㅎ	-9.6966
▁ㅎㅐㅇㅑㅇ	-9.69664
▁ㅂㅏㄱㅇㅝㄴ	-9.69743
▁ㄱㅗㅇㅈㅔ	-9.69749
▁ㅊㅜㄹㅅㅏㄴ	-9.69761
▁ㅂㅏㄺㅎㅣㄴ	-9.69823
▁ㄱㅗㅇㅈㅓㅇ	-9.69832
▁ㄷㅚㄱㅣ	-9.6985
▁ㅇㅣㄷㅗㅇ	-9.70034
ㄱㅔㅆㄷㅏ	-9.70135
▁ㅂㅜㄹㅁㅏㄴ	-9.70137
▁ㅊㅚㅅㅓㄴㅇ	-9.70145
▁ㅎㅏㅇㅇㅢ	-9.70212
ㅅㅏㅎㅚ	-9.70271
▁ㅇㅢㅅㅣㄱ	-9.70273
▁ㅁㅗㄹㄹ	-9.70276
ㄱㅡㄴ	-9.70356
▁ㅇㅓㅂ	-9.70541
▁ㅈㅓㄹ	-9.70618
▁ㄱㅣㄷㅐ	-9.70653
▁ㅎㅐㄱ	-9.70733
▁ㄱㅗㅂㅏㄹ	-9.70772
ㅇㅡㄴㅣㄲㅏ	-9.70798
▁ㅇㅣㅁㅗㅆㅣ	-9.7084
▁ㅎㅐㅇㄷㅗㅇ	-9.70878
ㅔㅇㅛ	-9.71025
▁ㄱㅖㄱㅣ	-9.71033
ㅈㅝㅆㄷㅏ	-9.711
▁ㅊㅜㅇㄷㅗㄹ	-9.71152
ㅐㄱ	-9.71171
ㄱㅜㄴㅇㅢ	-9.71184
ㄱㅣㄱㅘㄴ	-9.71195
▁ㄲㅡㅌㄴㅏㄴ	-9.71199
▁ㄱㅗㅇㄱㅗㅇ	-9.71289
ㅌㅡㄹ	-9.71329
▁ㅅㅏㅇㅅㅡㅇ	-9.71405
▁ㅇㅡㅇ	-9.71508
▁ㄷㅣㅈㅣㅌㅓㄹ	-9.7151
▁ㅇㅏㄹㅡㅁㄷㅏㅇㅜ	-9.71511
▁ㅇㅏㄹㅡㅂㅏㅇㅣㅌㅡ	-9.71511
▁ㅊㅗㄷㅡㅇㅎㅏㄱㄱㅛ	-9.71511
ㄱㅛㅅㅓㅂ	-9.71511
▁ㅇㅣㅅㅔㄷㅗㄹ	-9.71511
▁ㄱㅓㄷㅡㅂ	-9.71517
▁ㄱㅜㄱㅎㅚㅇㅢㅇㅝㄴ	-9.71521
▁ㅊㅔㅍㅗ	-9.71533
▁ㅈㅣㅈㅣㅊㅡㅇ	-9.71536
▁ㅇㅛㄹㅣ	-9.71552
▁ㅅㅏㅇㅊㅓ	-9.71557
ㅅㅣㄷㅐ	-9.71582
▁ㅅㅓㄹㅠ	-9.71607
▁ㅇㅓㄱㅇㅜㄹㅎㅏㅁ	-9.71708
▁ㅁㅜㅅ	-9.71731
▁ㅂㅗㅇㅏㄴ	-9.71933
▁ㅎㅘㄱㅏ	-9.72053
ㅇㅇㅡㄹ	-9.72098
▁ㅈㅣㅂㄱㅝㄴ	-9.72118
▁ㄸㅏㄱ	-9.72354
ㄱㅕㄱㅇㅣ	-9.72391
▁ㅈㅓㅇㅊㅣㅈㅓㄱ	-9.72405
ㅅㅓㅇㅜㄹㅈㅜㅇㅇㅏㅇㅈㅣㄱㅓㅁ	-9.72436
▁ㅇㅝㄹㅇㅔ	-9.72551
ㅎㅐㅆㄴㅡㄴㅈㅣ	-9.72553
ㅂㅘ	-9.72643
▁ㅇㅏㄶㅇㅏㅆㅇㅡ	-9.72724
ㅇㅜㄴㄷㅗㅇ	-9.72737
ㅈㅡ	-9.72738
▁ㄱㅘㅇㅈㅜ	-9.72897
ㅗㅅㅡㄹㅏ	-9.73014
ㅂㅗㅎㅓㅁ	-9.73018
▁ㅈㅣㄱㅡㅂ	-9.73024
▁ㅅㅗㅎㅘ	-9.73031
▁ㅈㅜㄹㅇㅣㄹ	-9.73037
ㅊㅓㅂㅜㄴ	-9.73066
▁ㅍㅣㄹ	-9.73131
▁ㅅㅜㅇㅓㅂ	-9.73382
ㅂㅏㄹㅗ	-9.7339
▁ㄱㅘㄴㅊㅏㄹ	-9.73413
ㅇㅗㄴㅡㄴ	-9.73418
ㅇㅝㄴㅈㅏㅇ	-9.7342
▁ㅎㅏㅅㅕㅆ	-9.73428
▁ㅂㅓㅅㅇㅓㄴㅏ	-9.73575
ㄷㅐㅂㅣ	-9.73597
ㄴㅡㄴㄷㅔㅇㅛ	-9.73616
▁ㅇㅛㄱㅜㅎㅏㄴ	-9.73782
ㅎㅗㅇㅈㅜㄴ	-9.73823
ㅉㅏㄹ	-9.73844
▁ㄹㅣ	-9.73904
▁ㅂㅏㅇㅇㅏㄴㅇㅡㄹ	-9.73912
▁ㅂㅜㄴㄷㅡㄹ	-9.73953
▁ㄷㅔㅅㅓ	-9.74013
▁ㅌㅡㄱㅅㅓㅇ	-9.74143
▁ㅎㅏㄱㅔㅆㄷㅏ	-9.74237
▁ㅇㅚㄱㅜㄱ	-9.74264
ㄱㅘㄴㄱㅖ	-9.74279
ㄷㅐㅍㅛ	-9.74311
▁ㅈㅜㄱㅇㅡㅁ	-9.74354
▁ㄴㅚ	-9.74364
▁ㅂㅗㄱㄱㅟ	-9.74368
▁ㅊㅗㅅㅂㅜㄹ	-9.74368
▁ㅅㅐㅇㅈㅗㄴ	-9.74368
▁ㅇㅏㅀ	-9.74368
▁ㄸㅜㄱ	-9.74368
▁ㅅㅡㅍㅔㅇㅣㄴ	-9.74369
▁ㄱㅏㅅㅡㅂㄱㅣ	-9.7437
▁ㅂㅜㅅㅏㅈㅏㅇㅇ	-9.74381
▁ㅁㅣㄷㅣㅇㅓ	-9.74388
▁ㄱㅓㅂㅜㅎㅏ	-9.74397
▁ㅊㅗㅇㅁㅜ	-9.74407
▁ㅈㅏㅇㄱㅣㅈㅓㄱㅇㅡㄹㅗ	-9.74428
▁ㅅㅡㅇㅈㅣㄴ	-9.74445
▁ㅁㅜㅇㅓㅅㅇㅡㄹ	-9.74456
▁ㅌㅗㅇㅈㅔ	-9.74471
▁ㄱㅗㅇㅍㅗ	-9.74486
▁ㄷㅗㅇㅅㅐㅇ	-9.74489
▁ㄷㅐㅂㅜㄱ	-9.74496
▁ㅅㅣㅍㄷㅏ	-9.74537
▁ㅂㅏㄱㅁㅗㅆㅣ	-9.74543
▁ㅊㅓㄹㅣ	-9.74555
▁ㅇㅣㄴㅇㅝㄴ	-9.74576
▁ㅅㅓㄴㅎㅗ	-9.74759
▁ㄷㅏㅇㅇㅕㄴㅎ	-9.74826
ㅉㅏㄱ	-9.74889
▁ㅌㅏㄴ	-9.74899
▁ㅈㅣㅂㅐ	-9.74934
▁ㄷㅗㅊㅓㅇ	-9.74968
▁ㅂㅓㅅㅡ	-9.74982
▁ㄷㅓㅍ	-9.7504
▁ㅈㅜㅈㅣ	-9.75056
ㅅㅣㅋㅣㄹ	-9.75155
▁ㄸㅓㄹㅇㅓㅈㅕㅆㄷㅏ	-9.75216
▁ㅅㅜㅁㅈㅣㄴ	-9.75261
▁ㅅㅣㅈㅏㅇㅇㅔ	-9.75283
▁ㅇㅕㄱㅣㅅㅓ	-9.753
▁ㅋㅡㄱㅣ	-9.7533
▁ㅂㅏㄹㅏㅁㅇㅣ	-9.75383
▁ㄴㅏㅅㅓㅆ	-9.75402
▁ㅈㅗㅎㄱㅔ	-9.75426
▁ㄷㅙㅆ	-9.755
▁ㄴㅗㅍㅇㅡ	-9.75505
▁ㅈㅓㄴㅇㅕㄱ	-9.7558
▁ㅇㅣㄴㅁㅜㄹ	-9.75638
▁ㅇㅕㄴㄱㅜㅇㅝㄴ	-9.758
ㄷㅏㄴㅇㅣ	-9.75804
▁ㅎㅐㅇㅂㅗ	-9.7582
▁ㅊㅜㄹㅅㅓㄱ	-9.75843
ㅎㅚㅇㅔㅅㅓ	-9.75887
▁ㄱㅗㅂ	-9.75934
▁ㅎㅏㅈㅏ	-9.76128
ㄱㅏㄱㅕㄱ	-9.7613
▁ㅈㅔㅈㅏㄱ	-9.76223
ㄱㅇㅔ	-9.76316
ㅈㅗㄱ	-9.76459
▁ㄱㅣㅇㅓㄱㅇㅣ	-9.76474
▁ㅇㅓㄹㅣ	-9.76488
▁ㄴㅏㅇㅗㅁㅕㄴ	-9.76498
▁ㅅㅡㅇㅂㅜ	-9.76562
▁ㅂㅜㄴㅇㅑㅇ	-9.76677
ㅁㅇㅡㄴ	-9.76684
▁ㅇㅣㅇㅛㅇㅎㅐ	-9.76704
▁ㄱㅗㅁㅜㄴㅇ	-9.76741
▁ㅆㅏㄴ	-9.76756
▁ㅇㅏㄴㅈㅓㅇㅈㅓㄱㅇㅣ	-9.76765
ㅣㅇㅏ	-9.768
ㄹㅑㅇㅇㅡㄹ	-9.76929
▁ㄷㅚㄱㅔㅆㄷㅏ	-9.7695
ㅅㅡㅇㅁ	-9.7695
▁ㄱㅗㅇㄱㅏㅁ	-9.77
▁ㄷㅡㄹㅇㅓㅇㅘ	-9.77022
▁ㄱㅣㅁㅈㅓㅇ	-9.77026
▁ㅌㅔㄴㄷㅔ	-9.77032
ㅈㅜㄱㅏ	-9.77032
▁ㄴㅓㄼ	-9.77078
▁ㅅㅡㅌ	-9.77145
ㅓㄱ	-9.77185
▁ㅇㅣㅀㅇㅓ	-9.77309
▁ㅇㅔㄴㅓㅈㅣ	-9.77309
▁ㅁㅕㅇㅎㅘㄱㅎ	-9.77311
▁ㄱㅐㅎㅓㄴ	-9.77312
▁ㅃㅏㅈㅕㄴㅏㄱㅏ	-9.77314
▁ㅋㅓㅍㅣ	-9.77332
▁ㅈㅗㅇㄹㅗㄱㅜ	-9.77333
▁ㅂㅜㅎㅚㅈㅏㅇ	-9.77337
ㄱㄱㅝㄴㅇㅡㄹ	-9.7734
ㄹㅏㅁㅕㄴㅅㅓ	-9.77342
▁ㅁㅕㄴㅇㅕㄱ	-9.77385
▁ㅁㅗㄹㄹㅕ	-9.7739
▁ㅊㅚㅊㅗ	-9.77392
▁ㅅㅣㅅㅣㄴ	-9.77517
▁ㅇㅜㅇㅠ	-9.77531
▁ㅎㅐㅅㅏㅇ	-9.77576
▁ㅊㅏㅈㅇㅏㅆ	-9.77642
▁ㄴㅗㅁ	-9.77654
▁ㅎㅘㄱㅇㅣㄴㄷㅙ	-9.77759
▁ㄱㅗㄹㅕㅎㅏ	-9.77796
▁ㅇㅟㅎㅐㅅㅓ	-9.7784
▁ㅂㅏㄹㅅㅐㅇㅎㅐㅆ	-9.77871
▁ㅅㅣㅈㅏㄱㅎㅏ	-9.77883
▁ㄸㅐㄴ	-9.77936
▁ㅎㅡㄹㅡ	-9.77952
▁ㄷㅓㅎㅐ	-9.78082
▁ㅇㅣㅈㅐ	-9.78087
▁ㅇㅕㄱㅣㅇㅔ	-9.78097
▁ㅁㅗㄹㅡㄱㅔㅆ	-9.78131
ㅂㅓㅂㅅㅏㅇ	-9.78139
ㅊㅜㄹㅎㅏㄴ	-9.78244
▁ㄷㅡㅇㄹㅗㄱ	-9.78275
▁ㄱㅡㄴㅁㅜ	-9.78312
▁ㅇㅣㅁㅅㅣㄴ	-9.78317
▁ㅅㅣㅁㄹㅣ	-9.78318
▁ㄱㅣㅂㅜㄴ	-9.78338
▁ㅁㅣㄹㅣ	-9.78372
▁ㅇㅣㄴㅈㅓㅇㅎㅏ	-9.78416
▁ㅍㅜㄹ	-9.78425
▁ㅅㅡㅇ	-9.78513
▁ㅂㅣㅇㅠㄹㅇㅣ	-9.78574
▁ㅈㅏㄱㅜㄱ	-9.78665
ㅋ	-9.78671
▁ㅎㅐㅆㅇㅡㄴ	-9.78685
ㄱㅣㅁㅏㄴ	-9.78701
ㄱㅗㅇㅇㅓㅂ	-9.7875
▁ㅇㅕㅇㅇㅝㄴㅎ	-9.78779
ㄱㅏㅇ	-9.78846
▁ㅂㅗㅈㅣㄱ	-9.78911
ㅂㅜㄹ	-9.79016
ㅗㅇㄷㅏㄴ	-9.79068
ㅅㅜㅇㅣㅂ	-9.79082
▁ㅇㅣㄹㅡㅁㅇㅣ	-9.79109
ㅌㅜㅈㅏ	-9.7914
▁ㅇㅖㄱㅡㅁ	-9.79149
ㅏㅂㅇㅡㄹ	-9.79181
▁ㅊㅚㄱㅗㅇㅟㅇㅝㄴ	-9.79213
▁ㅈㅓㄱㅈㅏ	-9.79327
ㅣㅅ	-9.79408
ㅊㅏㄱ	-9.7942
▁ㅅㅗㄴㄴㅣㅁㄷㅡㄹ	-9.79442
▁ㄸㅓㄹㅇㅓㅈㅕㅆ	-9.79492
▁ㅈㅣㅅㅏㅇ	-9.79498
▁ㅊㅣㄴ	-9.79553
ㄱㅕㄱ	-9.79646
▁ㅂㅓㅂㅇㅣㄴ	-9.79678
▁ㄷㅐㅌㅗㅇㄹㅕㅇㅇㅔㄱㅔ	-9.79791
▁ㅈㅜㅁㅜㄴ	-9.7982
▁ㅊㅚㄷㅐㅎㅏㄴ	-9.79838
▁ㅅㅗㄴㄴㅣㅁ	-9.79854
ㄱㅠ	-9.79866
▁ㅊㅜㅅㅔ	-9.79965
▁ㄴㅐㅆㄷㅏ	-9.79968
▁ㅇㅠㅈㅗㄱ	-9.80019
▁ㅂㅏㅇㅅㅣㄱㅇ	-9.8003
▁ㅅㅗㅁㅜㄴ	-9.80045
▁ㅊㅜㅈㅣㄴ	-9.80217
▁ㄱㅓㅅㅇㅣㄱㅗ	-9.80231
ㅂㅣㄱㅏ	-9.80243
▁ㄴㅏㅃㅡ	-9.8034
▁ㅅㅓㅇㄴㅡㅇ	-9.8034
ㅅㅓㄴㅈㅣㄴㅎㅘㅂㅓㅂ	-9.8034
▁ㅇㅐㅍㅡㄹ	-9.8034
▁ㅅㅜㅅㅜㄹㅛ	-9.8034
▁ㄱㅜㅊㅣㅅㅗ	-9.8034
▁ㅅㅜㄱㅅㅗ	-9.80342
▁ㄴㅐㅁㅣㄹ	-9.80356
▁ㅂㅗㄱㅈㅣ	-9.80358
▁ㅅㅗㄹㅈㅣㄱㅎ	-9.8037
▁ㄱㅕㅇㄴㅏㅁ	-9.80377
▁ㄱㅡㄱㄷㅏㄴ	-9.80401
▁ㅁㅐㅁㅐ	-9.80402
▁ㅁㅜㄹㄱㅕㄹ	-9.80405
▁ㅇㅛㅇㄱㅣ	-9.80405
▁ㅇㅗㄹㅐㄷㅚ	-9.80411
▁ㅎㅗㅇㅂㅗ	-9.80429
▁ㄴㅜㄴㅁㅜㄹ	-9.80446
▁ㅇㅢㅇㅝㄴㄱㅘ	-9.80449
▁ㅈㅣㄴㄷㅏㄴ	-9.80461
ㅓㅈㅕ	-9.80507
▁ㄱㅏㅁㅇㅏㄴㅎㅏ	-9.80544
▁ㅅㅏㅇㄱㅝㄴ	-9.80593
▁ㅇㅚㄱㅜㄱㅇㅣㄴ	-9.80606
▁ㅈㅔㄱㅓㅎㅏ	-9.80648
ㅆㅣㅇㅔㄱㅔ	-9.80765
▁ㅇㅛㅇㅅㅓㅎㅏ	-9.80777
▁ㅅㅜㄹㅣ	-9.80781
▁ㅂㅗㅇㅣㄱㅣ	-9.80794
▁ㅎㅏㄱㅂㅜㅁㅗ	-9.80832
ㅏㅈㅕㅆㄷㅏ	-9.80861
ㅂㅏㄷㄱㅗ	-9.80889
▁ㅅㅗㄴㅅㅏㅇ	-9.80942
▁ㅌㅏㄹㅂㅜㄱㅈㅏ	-9.80961
▁ㅇㅣㄹㅈㅏㄹㅣ	-9.80975
▁ㅅㅏㅇㄷㅏㅁ	-9.8099
ㅇㅏㄱ	-9.81181
▁ㅈㅗㅁㅕㅇ	-9.81184
▁ㅂㅏㄺㅎㅕㅈㅕ	-9.81246
▁ㅇㅢㅎㅚ	-9.81258
▁ㄱㅗㄹㅕ	-9.81293
ㅇㅁㅏ	-9.8134
ㅊㅏㅁㅅㅏ	-9.81433
▁ㅅㅗㄱㅇㅔㅅㅓ	-9.81435
▁ㅈㅗㄱㅓㄴ	-9.81441
ㅇㅣㅈㅡ	-9.8161
ㅌㅚ	-9.81624
▁ㅅㅣㅈㅓㄹ	-9.81637
ㅕㄴㅐㄴ	-9.81688
ㄴㅗㅎㅇㅏㅆㄷㅏ	-9.81707
▁ㅌㅜㅇㅣㅂㅎㅐ	-9.81723
▁ㅈㅓㄴㄴㅕㄴ	-9.8173
▁ㅇㅣㅂㅈㅏㅇㅇㅔㅅㅓㄴ	-9.8175
▁ㅇㅓㄴㄱㅡㅂ	-9.81782
ㅈㅗㅈㅣㄱ	-9.81801
▁ㄷㅏㅇㅊ	-9.81821
▁ㄱㅣㅈㅜㄴㅇㅣ	-9.81842
▁ㄱㅕㅇㄱㅗ	-9.81851
ㅜㅇㅔ	-9.81886
▁ㅇㅓㅁㅁㅏ	-9.81905
▁ㄴㅏㅆㄷㅏ	-9.8192
▁ㅂㅏㄹㄱㅕㄴㅎㅏㄴ	-9.81981
▁ㅅㅣㄱㅁㅜㄹ	-9.81999
ㄹㅠㄴ	-9.82044
▁ㅇㅓㄹㅕㅇㅝ	-9.82277
ㄹㄹㅣㄹ	-9.8235
ㅅㅐㅇㄷㅡㄹ	-9.82373
▁ㅁㅏㅊㅏㄴㄱㅏㅈㅣ	-9.82392
▁ㅂㅜㅁㅗㄴㅣㅁ	-9.82446
▁ㅌㅓ	-9.82458
ㅎㅚㅅㅏ	-9.82581
▁ㅅㅏㄹㅏㅇㅎㅏ	-9.82587
ㅈ	-9.8259
▁ㄱㅡㄹㅓㅎㄱ	-9.82611
▁ㅂㅗㄷㅗㅎㅏㄴ	-9.82661
ㅁㅇㅓㅄ	-9.82695
ㄱㅡㅂㅅㅣㄱ	-9.82698
▁ㅌㅜ	-9.82902
ㄷㅏㄴㅈㅣ	-9.82959
▁ㅅㅏㅇㅛㅇㅎㅏㄴㅡㄴ	-9.8299
ㄷㅙㅇㅑ	-9.83003
ㄱㅏㅁㅇㅣ	-9.83004
▁ㅈㅜㅇㅇㅛ	-9.83112
▁ㄷㅐㅅㅏㅇㅇㅣ	-9.83168
▁ㄷㅗㅈㅜㅇ	-9.83195
▁ㄱㅕㅇㅊㅏㄹㅊㅓㅇ	-9.83245
▁ㅅㅜㄹ	-9.83258
▁ㅈㅣㅈㅣㅈㅏㄷㅡㄹ	-9.83291
ㅎㅏㅈㅏ	-9.8336
▁ㄴㅗㄹㅡㅇㅞㅇㅣ	-9.83465
▁ㅌㅡㄴㅌㅡㄴㅎㅏ	-9.83465
▁ㅎㅐㅇㅈㅓㅇㄱㅘㄴ	-9.83465
ㅃㅏㅇ	-9.83465
▁ㅅㅓㄹㄷㅡㄱㅎㅏ	-9.83465
▁ㅊㅐㅇㄱㅣ	-9.83466
ㅇㅏㅈㅕㅆㄱㅗ	-9.83466
▁ㄱㅐㅅㅓㅇㄱㅗㅇㄷㅏㄴ	-9.83467
▁ㅂㅓㅂㅇㅏㄴ	-9.83467
▁ㅇㅗㄴㅡㄹㄴㅏㄹ	-9.83469
▁ㅂㅜㄹㄱㅓㅈㅣ	-9.83471
▁ㅅㅣㅁㅣㄴㄷㅏㄴㅊㅔ	-9.83474
▁ㅇㅠㄱㅝㄴㅈㅏ	-9.83478
▁ㅍㅓㅅㅔㄴㅌㅡㅍㅗㅇㅣㄴㅌㅡ	-9.83478
▁ㅈㅓㅈㅣㄹㅡ	-9.83482
▁ㅍㅗㅅㅡㅌㅓ	-9.83485
▁ㅂㅜㅊㅣㄴㅇ	-9.83485
▁ㄹㅗㅁㅏ	-9.83486
▁ㅈㅓㅇㅎㅐㅈㅣㄴ	-9.83506
▁ㅅㅣㅍㅇㅓ	-9.83509
▁ㅁㅜㄱ	-9.83518
▁ㅂㅓㄹㄱㅡㅁ	-9.8352
▁ㅁㅐㄱㅏㄱ	-9.83521
▁ㅈㅏㅇㅂㅕㅇ	-9.83527
▁ㅇㅢㄹㅛㄱㅖ	-9.83538
▁ㅈㅐㄷㅏㄴ	-9.83563
▁ㅂㅜㄴㄹㅠ	-9.83567
▁ㅂㅕㅇㅇㅝㄴㅇㅔ	-9.83571
ㄹㄹㅔㅁ	-9.83583
▁ㅇㅜㅅㅜㅎㅏ	-9.83592
ㄷㅙㅆ	-9.83606
▁ㅅㅓㅁ	-9.83699
▁ㅇㅕㄴㅁㅏㄹ	-9.83702
▁ㅈㅣㅁㅗㄱ	-9.83704
▁ㅂㅜㄹㅍㅕㅇㄷㅡㅇ	-9.83729
▁ㅂㅜㅇㅟ	-9.83736
▁ㅈㅔㄱㅗㅂㅁㅣㅌㅓ	-9.83911
▁ㄱㅓㄴㅊㅜㄱ	-9.8395
▁ㄴㅗㅍㅇㅏㅈㅣ	-9.83957
▁ㄱㅓㅅㅇㅣㄹㅏㄴ	-9.83962
▁ㅅㅗㄱㄷㅗ	-9.84007
▁ㅊㅜㅈㅓㅇㄷㅚㄴㄷㅏ	-9.84056
▁ㄱㅘㄷㅗ	-9.84075
▁ㅎㅘㅈㅐ	-9.84085
ㅕㅅㅓ	-9.84086
▁ㅁㅣㄹㅐ	-9.84111
▁ㄱㅕㅇㅊㅏㄹㅊㅓㅇㅈㅏㅇ	-9.84146
▁ㅎㅏㅂㄱㅕㄱ	-9.84265
▁ㄱㅏㅆㄷㅏ	-9.84404
▁ㅁㅏㅈㅇㅡㄴ	-9.84414
ㄷㅐㅅㅏㅇ	-9.8442
ㄹㅕㅁㅕ	-9.84441
▁ㄱㅣㅇㅓㅂㄷㅡㄹㅇ	-9.84446
▁ㄴㅏㅁㅜㄷㅡㄹ	-9.84517
▁ㄲㅡㄶㅇㅣ	-9.8452
▁ㅎㅘㅈㅏㅇㅅㅣㄹ	-9.8455
▁ㄱㅡㄱ	-9.84644
▁ㄱㅡㅂㅇㅕ	-9.84701
ㅁㅜㄴㅇㅣ	-9.84722
▁ㄷㅗㄹㅗ	-9.84741
▁ㅈㅣㅇㅕㄴ	-9.84753
▁ㅊㅏㅇㅇㅝㄴ	-9.84819
ㅎㅛ	-9.84841
ㅇㅇㅢ	-9.84883
▁ㅊㅏㅈㅣㅎㅏ	-9.84907
▁ㄷㅗㅇㄹㅛㄷㅡㄹ	-9.84983
▁ㅅㅡㅌㅏ	-9.84998
▁ㅍㅜㅁ	-9.85
ㄱㅓㅁㅅㅏ	-9.85105
▁ㅁㅜㄷㄴㅡㄴ	-9.85105
▁ㅇㅕㄴㄱㅡㅁ	-9.852
▁ㅍㅣㄹㅗ	-9.85201
▁ㅍㅣㄹㅇㅛㅅㅓㅇ	-9.85281
▁ㄱㅡㄹㅣ	-9.85307
▁ㄷㅔㄷㅏ	-9.85344
▁ㅂㅓㄹㅕㅆ	-9.85348
▁ㄱㅐㄱㅏ	-9.85351
▁ㅁㅏㄴㄷㅡㄹㄱㅣ	-9.85356
▁ㅂㅏㄺㅎㅣ	-9.85401
ㅂㅜㄴㄱㅏㄴ	-9.85444
ㄹㅣㅅㅡㅌㅡ	-9.85446
▁ㅇㅜㄴㅇㅕㅇㅎㅏ	-9.85487
▁ㅅㅗㅈㅜ	-9.85509
ㅌㅗㅇㅅㅣㄴ	-9.85532
▁ㄷㅚㅇㅓㅆ	-9.85581
▁ㅇㅕㅇㅣㄴ	-9.85602
▁ㅇㅗㅂ	-9.85809
ㄹㅕㅇ	-9.85857
ㅁㅜㄴㅎㅘ	-9.85867
▁ㅎㅏㅅㅣ	-9.85897
ㅇㄹㅐ	-9.85936
▁ㄱㅣㄷ	-9.8597
▁ㅇㅓㄴ	-9.86061
ㅇㅓㅆㄷㅏㅁㅕ	-9.8609
ㄱㅜㄱㅏ	-9.86285
ㅇㅓㅈㅕ	-9.86422
ㄱㅡㄱ	-9.86466
ㅏㄱㅏ	-9.86522
▁ㄴㅐㅇㅛㅇㅇㅣ	-9.86532
▁ㅎㅏㄴㄷㅏㄹ	-9.86547
▁ㅊㅏㅈㅇㅡㄹ	-9.86654
ㅇㅏㄵㅇㅏ	-9.86676
▁ㄱㅖㅈㅘ	-9.8669
▁ㄱㅘㄴㅈㅔㅌㅏㅂ	-9.8669
▁ㄷㅜㄹㄹㅓㅆㅏ	-9.8669
▁ㅅㅓㄲㅇ	-9.86691
▁ㅆㅗㄷㅇㅏㅈㅣ	-9.86691
▁ㅇㅏㅁㅋㅓㅅ	-9.86691
▁ㅇㅡㅇㅅㅣㅈㅏ	-9.86691
▁ㄱㅗㅇㅇㅏㄴ	-9.86693
▁ㄱㅡㄷㅏㅇㅡㅁ	-9.86695
▁ㅋㅗㅅㅡㅍㅣ	-9.86696
▁ㅈㅏㄴㅇㅐㄱ	-9.86699
▁ㅅㅓㄴㅅㅐㅇㄴㅣㅁ	-9.8671
▁ㄱㅡㄴㅊㅓ	-9.86711
▁ㄱㅏㄹㅡㅊㅣ	-9.86713
▁ㅎㅕㄴㅎㅐㅇ	-9.86721
▁ㅂㅜㄹㄱㅘㅎㅏㄷㅏ	-9.86721
▁ㅅㅏㄴㅅㅗ	-9.86727
▁ㄴㅗㅇㅖ	-9.86729
▁ㅎㅐㅇㅈㅓㅇㅂㅜ	-9.86734
▁ㅊㅣㅇㅏㄴ	-9.86745
▁ㅅㅏㅅㅣㄹㄱㅘㄴㄱㅖ	-9.86746
▁ㄲㅡㄹㄹㅕ	-9.86749
▁ㅅㅗㅅ	-9.86758
▁ㅃㅓㄴ	-9.86792
▁ㅇㅣㅁㅁㅕㅇ	-9.86821
▁ㅇㅓㄴㄹㅗㄴㅇㅔ	-9.86833
ㅊㅗㅇㅇㅐㄱ	-9.86891
ㅈㅓㅇㅈㅏㄱ	-9.86913
ㅅㅓㄴㅇㅣ	-9.86923
▁ㅅㅏㅇㄷㅏㅇㅅㅜ	-9.86962
▁ㄱㅗㄷㅡㅇㅎㅏㄱㄱㅛ	-9.86981
▁ㄱㅜㅇㅣㅂ	-9.86989
▁ㅁㅗㅅㅎㅐㅆㅅㅡㅂㄴㅣㄷㅏ	-9.86997
▁ㅅㅣㄱㅏㄱ	-9.87061
ㅈㅏㄱㅡㅁㅇㅡㄹ	-9.87064
▁ㅎㅏㄴㄱㅏㅇ	-9.87104
▁ㅈㅏㅁㅅㅣㄹ	-9.87157
▁ㄱㅜㄴㄷㅐ	-9.87208
▁ㅆㅗㄹㄹㅕ	-9.87264
▁ㅈㅜㄴㅕㄴ	-9.87275
▁ㄴㅏㄹㅏㄷㅡㄹ	-9.87292
ㅋㅓㅂㅇㅡㄹ	-9.87335
ㄱㅗㅇㅈㅏㅇ	-9.87355
▁ㅅㅔㅂㅜ	-9.87397
ㅇㅝㄴㅇㅣ	-9.87405
▁ㅌㅏㅅ	-9.87415
ㄷㅜㅇ	-9.87457
▁ㄸㅟㅇㅓ	-9.87461
ㅅㅡㅌㅓ	-9.87465
▁ㅎㅏㄱㄷㅐ	-9.87494
▁ㅈㅜㄱㅇㅡㅁㅕㄴ	-9.87554
▁ㅇㅏㄴㅣㄱㅗ	-9.87598
▁ㅅㅣㅈㅏㄱㅎㅏㄹ	-9.876
ㄱㅕㅇㅇㅔ	-9.87623
▁ㅇㅗㄹㄹㅏㄱㅏ	-9.87669
▁ㄱㅘㄴㄱㅘㅇ	-9.87743
ㅇㅅㅏㅇ	-9.87759
▁ㅎㅐㄱㅕㄹㅎㅏ	-9.87782
ㅂㅓㄴ	-9.87809
▁ㅍㅏㅇㅏㄱ	-9.87904
▁ㅇㅓㄹㅣㄴㅇㅣ	-9.87934
▁ㅈㅗㅅㅏㅇㅔ	-9.88029
▁ㅈㅏㅇㅠ	-9.8808
ㅎㅐㅇㅅㅏ	-9.88171
ㄷㅏㄹㅏㄴ	-9.88223
▁ㅇㅣㄴㅅㅏㄷㅡㄹㅇ	-9.88232
▁ㅁㅣㄴㅈㅜㅈㅜㅇㅢ	-9.88247
▁ㄴㅏㅌㅏㄴㅐㄹ	-9.88348
▁ㄸㅏㅈㅕ	-9.88358
ㅈㅜㄹㅗ	-9.88414
▁ㄱㅏㅇㅇㅝㄴ	-9.88424
▁ㅊㅏㅇㅝㄴ	-9.88445
▁ㅅㅣㅅㅏ	-9.88467
▁ㄱㅡㄹㅓㄷㅏ	-9.88565
ㅏㅁ	-9.88605
ㅏㅁㅇㅡㄹ	-9.88636
ㄱㅖㅇㅑㄱ	-9.88647
ㅇㅓㅆㄷㅓㄴ	-9.88685
ㅇㅕㄴㄱㅜㅇㅝㄴ	-9.88705
▁ㅈㅓㄴㅎㅘㄴ	-9.88709
▁ㅁㅏㄴㄷㅡㄹㅇㅓㄴㅐ	-9.88771
▁ㅈㅓㅇㄱㅣㅈㅓㄱ	-9.88832
▁ㅅㅏㅇㅎㅘㅇㅇㅔ	-9.88886
ㅌㅏㄱ	-9.88928
▁ㄴㅏㅇㅔㄱㅔ	-9.88973
▁ㄴㅡㄲㅣㄴㄷㅏ	-9.89006
▁ㅋㅡㄹㄹ	-9.89036
▁ㅁㅏㅈㅊㅜ	-9.89049
ㄱㅗㅇㅅㅏ	-9.89054
ㅊㅣㄱㅏ	-9.89094
ㅕㅆㄱㅗ	-9.89238
▁ㅅㅐㅇㄱㅏㄱㅇㅣ	-9.89248
▁ㅂㅣㅊ	-9.89267
ㅜㅇㅢ	-9.89515
▁ㄴㅏㅇㅘㅆ	-9.89581
ㄹㅖㄹㅗ	-9.89589
▁ㄷㅚㄴㅡㄴㄷㅔ	-9.89641
ㅅㅂㅗㄹ	-9.89676
ㅆㄴㅡㄴㅑ	-9.89709
ㅁㅗㄹ	-9.89745
▁ㅂㅣㄴ	-9.89746
▁ㅈㅔㅎㅏㄴㅎㅏ	-9.89777
ㅊㅗㄴ	-9.89981
ㅎㅐㅈㅜㄴ	-9.89997
▁ㄲㅏㄲ	-9.90024
▁ㄱㅗㄹㅍㅡㅈㅏㅇ	-9.90024
▁ㅇㅕㄷㅗㅇㅅㅐㅇ	-9.90024
▁ㅇㅣㅈㅣㅂㅌㅡ	-9.90024
▁ㄱㅝㄴㅎㅏㄴㄷㅐㅎㅐㅇㅇ	-9.90025
▁ㅎㅕㄱㅁㅕㅇㅇ	-9.90025
▁ㄷㅐㄹㅣㄱㅣㅅㅏ	-9.90026
▁ㄷㅗㅂㄴㅡㄴ	-9.90029
▁ㅎㅢㄴㅅㅐㄱ	-9.90029
▁ㄱㅖㅅㅏㄴㅎㅏ	-9.90034
▁ㄱㅣㄷㅏㄹㅣ	-9.90034
▁ㅇㅕㄹㅇㅏㄱㅎㅏ	-9.90044
▁ㅎㅏㄱㅅㅡㅂ	-9.90048
▁ㅁㅝㄴㄱㅏ	-9.90057
▁ㅎㅓㄴ	-9.90058
▁ㄱㅡㅂㅈㅡㅇ	-9.90083
▁ㄴㅜㄹㅣ	-9.90087
▁ㅊㅏㅁㅅㅓㄱ	-9.90088
▁ㅇㅗㄹㄹㅣㄴ	-9.90091
▁ㅊㅏㅇㅇㅓㅂ	-9.90097
▁ㅅㅡㅂㄱㅘㄴ	-9.90115
▁ㄴㅠㅅㅡ	-9.90129
▁ㅎㅕㅇㅅㅓㅇ	-9.90131
ㅈㅣㅂㅏㅇㅈㅏㅊㅣㄷㅏㄴㅊㅔ	-9.90135
ㅂㅓㅂㅇㅣ	-9.90182
▁ㅁㅏㄴㄴㅏㄹ	-9.90275
▁ㄴㅗㅍㅇㅏ	-9.90276
▁ㅂㅐㄱㅕㅇ	-9.9028
▁ㅇㅛㅇㅝㄴ	-9.90305
ㅂㅔㄹㅡ	-9.90338
▁ㅅㅐㅇㅅㅏㄴㄹㅑㅇ	-9.90352
▁ㅅㅣㄹㅅㅜ	-9.90372
▁ㅇㅑㅇㄱㅜㄱ	-9.90384
▁ㅊㅏㅇㅁㅜㄴ	-9.90411
ㅡㅂ	-9.90428
▁ㅇㅗㄹㄹㅏㅆㄷㅏ	-9.90454
▁ㅇㅣㅅㅏㅇㅇㅣ	-9.90497
ㅣㅇ	-9.905
▁ㅅㅏㅇㅎㅏㅇㅣ	-9.90514
▁ㅈㅓㅇㅊㅔ	-9.90519
▁ㄷㅗㅇㅅㅣㄱㅁㅜㄹ	-9.90527
▁ㄷㅏㅂㅎㅐㅆㄷㅏ	-9.90542
▁ㅊㅜㅇㄱㅕㄱㅇㅡㄹ	-9.90616
▁ㅅㅣㄱㄹㅑㅇ	-9.90692
▁ㄱㅡㅇㅔ	-9.907
▁ㅈㅜㅇㄷㅗㅇ	-9.9074
▁ㅁㅏㄹㄱㅗ	-9.90771
ㄱㅕㅂ	-9.90863
▁ㄱㅣㄱㅜ	-9.90881
▁ㅂㅓㅁㅈㅚ	-9.90956
ㅎㅏㅅㅕㅆㅅㅡㅂㄴㅣㄷㅏ	-9.91085
ㄷㅚ	-9.91145
▁ㅅㅏㅇㅛㅇㅎㅏㄴ	-9.91285
▁ㅈㅣㅂㄷㅏㄴ	-9.91286
▁ㄱㅡㄹㅐㅁ	-9.91351
▁ㅎㅜㅇㅝㄴ	-9.91427
▁ㅇㅖㅇㅢ	-9.91429
▁ㄸㅡㄱㅓㅇㅜ	-9.9144
▁ㄷㅐㅎㅚ	-9.91505
▁ㅅㅏㄹㅎㅐ	-9.91579
▁ㅇㅠㄷㅗ	-9.91612
▁ㄱㅜㄱㅁㅣㄴㄷㅡㄹ	-9.91663
▁ㅅㅏㄱㅓㄴㅇㅔ	-9.91721
ㅊㅏㄴ	-9.91783
▁ㅇㅓㄷㅇㅓ	-9.91813
ㅇㅡㅁㅕㄴ	-9.91963
▁ㅈㅡㅇㅇㅓㄴ	-9.91964
▁ㅇㅕㅇㅎㅑㅇ	-9.92087
ㄴㅅㅡㄴ	-9.92104
▁ㅇㅣㅆㄴㅡㄴㅑ	-9.92112
ㅈㅗㅎㅏㅇㅇ	-9.92144
▁ㅂㅓㄹㅇㅣ	-9.92232
▁ㅅㅏㅂㅓㅂ	-9.92237
▁ㅂㅗㄴㅈㅣ	-9.92253
▁ㅁㅜㅅㅣ	-9.92323
▁ㅈㅜㄴㄷㅏ	-9.92358
▁ㅇㅕㅇㅎㅘ	-9.9239
ㅎㅕ	-9.92503
▁ㅂㅡㄹ	-9.92526
▁ㄱㅘㅇㄱㅗ	-9.92559
▁ㅎㅏㅇㅎㅐ	-9.92723
▁ㄱㅐㅅㅓㄴㅎㅏ	-9.92727
ㅁㄱㅘ	-9.9273
ㅌㅡㄹㅣ	-9.92745
▁ㅇㅖㅅㅜㄹ	-9.92805
▁ㄴㅏㅊ	-9.92807
ㄹㄹㅕㅆㄷㅏ	-9.92841
▁ㅎㅘㅈㅔ	-9.92863
ㄱㅕㅇㄱㅣ	-9.92941
▁ㅈㅓㄴㅇㅝㄴ	-9.92968
ㅁㅣㄴㄷㅡㄹ	-9.93031
▁ㅁㅣㅌ	-9.93047
▁ㅁㅏㅊㅣㅁ	-9.93158
ㄱㅗㅅㅇㅔㅅㅓ	-9.93173
▁ㄷㅓㄱㅂㅜㄴㅇ	-9.93284
ㅣㅂㅡ	-9.93305
▁ㅎㅏㄴㅈㅓㄴ	-9.9332
▁ㅎㅡ	-9.93359
ㅊㅔㅇㅠㄱ	-9.93396
ㅁㅏㅈㅏ	-9.93451
ㅂㅏㅇㅇㅡㄹ	-9.93461
▁ㅂㅜㅇㄱㅚ	-9.93472
▁ㅎㅗㅁㅍㅔㅇㅣㅈㅣ	-9.93472
▁ㅋㅐㄴㅏㄷㅏ	-9.93473
▁ㅎㅘㄱㅈㅣㄴㅈㅏ	-9.93473
▁ㅈㅓㄴㅇㅝㄹ	-9.93476
▁ㅇㅟㅇㅏㄴ	-9.93478
▁ㄱㅗㅇㅑㅇㅇㅣ	-9.93478
▁ㅇㅝㄴㄹㅐ	-9.93479
▁ㄹㅓㄴㄷㅓㄴ	-9.93481
▁ㄱㅕㅇㄴㅏㅁㄱㅣㅇㅓㅂ	-9.93482
▁ㅁㅜㄹㄹㅑㅇㅇ	-9.93492
▁ㅊㅜㄹㄱㅡㄴ	-9.93494
▁ㄷㅐㄷㅏㅅㅜ	-9.93501
▁ㅇㅛㅈㅡㅁ	-9.93506
ㄷㅗㄱㅎㅏㄴ	-9.93513
▁ㅅㅛㅍㅣㅇ	-9.93517
▁ㅈㅓㄱㄱㅡㄱ	-9.93543
▁ㅃㅜㄴㅇㅣㄹㅏ	-9.93583
▁ㅈㅜㅇㅅㅣㅎㅏ	-9.93621
ㅡㄷㅗㅇ	-9.93633
▁ㅆㅗㄹㄹㅣ	-9.93655
▁ㅂㅗㅇㅠㅎㅏ	-9.93655
▁ㄱㅕㅇㅈㅜ	-9.93712
▁ㄱㅘㅈㅏㅇ	-9.93746
▁ㅊㅏㅁㄱㅏ	-9.93751
ㅔㄹㅡ	-9.93763
▁ㅎㅏㅇㄱㅗㅇㄱㅣ	-9.93804
▁ㅈㅔㄱㅣㄷㅚㄴ	-9.93813
▁ㄴㅗㄹㅕㄱㅎㅏ	-9.93824
▁ㅇㅏㄷㅗㅇ	-9.93864
▁ㅊㅗㄷㅡㅇㅎㅏㄱㅅㅐㅇ	-9.93901
▁ㅅㅗㅂㅣㅈㅏㄷㅡㄹ	-9.94079
▁ㅅㅓㅇㄱㅘ	-9.94081
▁ㅈㅣㄴㄷㅗ	-9.94147
▁ㅈㅓㄴㅌㅗㅇ	-9.94163
▁ㅎㅣㅁㅇㅣ	-9.94171
▁ㅈㅜㅇㄱㅜㄱㅇㅓ	-9.94218
▁ㄸㅣ	-9.94264
▁ㅌㅗㅇㅊㅣ	-9.94267
▁ㄱㅓㄴㄷㅔ	-9.94308
▁ㅍㅏㅇㅣ	-9.94367
▁ㅈㅜㅈㅏㅇㅇㅣ	-9.94374
ㅅㅣㅁㅇㅡㄹ	-9.94386
▁ㅁㅗㅅㅎㅐㅆ	-9.94395
▁ㄷㅗㅇㅎㅐ	-9.94406
▁ㅈㅜㅇㄱㅕㄴ	-9.9449
▁ㅂㅓㅅㅇㅓㄴㅏㄹ	-9.94505
ㅂㅔㄹ	-9.94514
ㄱㅣㅇㅑ	-9.94517
ㅂㄱㅗ	-9.9473
ㅡㄱㄱㅝㄴ	-9.94772
▁ㅁㅜㄴㅅㅣㄴㅇ	-9.94783
▁ㅍㅓㅅㅔㄴㅌㅡㅇㅔ	-9.94829
ㅎㅏㄹㄲㅏ	-9.94945
▁ㅊㅓㄹ	-9.94968
▁ㅅㅣㄴㅁㅜㄴ	-9.95091
ㅅㅑ	-9.95113
▁ㅎㅏㄹㅕ	-9.95134
▁ㄱㅏㅁㅇㅕㅁ	-9.95223
▁ㄱㅓㄴㅅㅓㄹ	-9.95429
ㅅㅡㅋㅔ	-9.95473
▁ㅎㅐㅇㅂㅗㄱ	-9.95506
▁ㅈㅔㄱㅗㅇㅎㅏ	-9.95568
▁ㄱㅗㅇㅇㅝㄴ	-9.95619
ㄱㅖㅎㅚㄱ	-9.95722
▁ㅂㅔㄹ	-9.95741
▁ㅊㅚㅈㅓ	-9.95811
ㄴㅗㄷㅗㅇㅈㅏ	-9.95862
▁ㅂㅗㅇㅣㄴㅡㄴ	-9.95874
ㅅㅏㄱㅓㄴ	-9.95883
▁ㄱㅓㄹㄹㅕ	-9.95895
▁ㄱㅏㅇㅇㅝㄴㄷㅗ	-9.9591
▁ㅈㅜㅇㄷㅐ	-9.95935
▁ㅈㅓㄷㅗ	-9.95945
ㄹㅣㅁ	-9.96009
▁ㅅㅏㅁㅕㄴ	-9.96038
ㄱㅓㄹㅐ	-9.96039
▁ㅂㅗㄱㅣ	-9.96217
▁ㄴㅏㅂ	-9.96335
ㅁㅣㄴㅈㅜ	-9.96344
▁ㄷㅡㄹㅇㅓㅆㄷㅏ	-9.96371
▁ㅎㅗㄹ	-9.96378
ㅂㅣㄹㅣ	-9.96423
ㅈㅣㅂㄱㅖ	-9.96477
ㅇㅎㅐㅆㄷㅏㅁㅕ	-9.9657
▁ㅎㅕㄴㅈㅏㅇㅇㅔㅅㅓ	-9.96643
ㅋㅣㅇ	-9.96716
▁ㄴㅗㄹㄹㅏㅇㅜ	-9.96719
▁ㅊㅣㅁㅁ	-9.96758
▁ㅎㅢㅅㅐㅇ	-9.96868
ㅇㅣㅍㅡ	-9.9688
▁ㅈㅐㅁㅣ	-9.96887
▁ㅎㅣㅁㄷㅡ	-9.96904
▁ㅂㅗㅇㅣㄹ	-9.96916
▁ㅂㅗㄱㅘㄴ	-9.96984
▁ㅊㅣㄴㅂㅏㄱ	-9.9702
▁ㄱㅘㅇㅎㅘㅁㅜㄴ	-9.97043
▁ㅁㅜㄹㅡㅍ	-9.97043
▁ㅂㅗㄱㅓㄴㄷㅏㅇㄱㅜㄱ	-9.97043
▁ㅇㅏㅍㅡㄹㅣㅋㅏ	-9.97043
▁ㅁㅓㅁㅊㅜ	-9.97044
▁ㅈㅣㅂㅎㅐㅇㅇㅠㅇㅖ	-9.97044
▁ㄱㅣㅁㅇㅕㅇㄹㅏㄴㅂㅓㅂㅇ	-9.97044
▁ㅁㅣㅂㅜㄴㅇㅑㅇ	-9.97044
▁ㅉㅣㄹ	-9.97044
▁ㅋㅡㄹㅔㅇㅣㄴ	-9.97044
▁ㅇㅏㅍㅈㅏㅇㅅㅓ	-9.97044
▁ㅈㅐㅇㅏㅇㅇ	-9.97047
▁ㅈㅓㅇㅇㅠㄹㅏ	-9.97052
▁ㅂㅏㄴㅇㅕㅇㄷㅚ	-9.97056
▁ㅅㅏㅇㅜㅅㅡ	-9.97068
▁ㅎㅗㅂㅏㄱ	-9.9707
▁ㅈㅣㄴㅇㅣㅂ	-9.97073
▁ㅅㅣㅁㅎㅐㅈㅕ	-9.97073
▁ㅇㅕㅎㅗㅇㅘㄲㅔㅅㅓ	-9.97082
ㅚㄱㅏ	-9.97091
▁ㅇㅓㄹㅡㄴㄷㅡㄹ	-9.97092
▁ㄲㅐㄷㅏㄹㅇㅡ	-9.97093
▁ㅅㅓㄹㄹㅣㅂ	-9.97099
▁ㄷㅗㅍㅣ	-9.97107
▁ㅇㅣㅅㄸㅏㄹㅏ	-9.97119
▁ㅇㅖㅂㅏㅇ	-9.97134
▁ㅌㅚㅈㅣㄴ	-9.97152
▁ㅇㅘㄴㅊㅣ	-9.97162
▁ㅇㅕㅅㅓㅇㄷㅡㄹㅇ	-9.97177
▁ㅎㅘㅇㅆㅣ	-9.97188
▁ㄷㅐㅊㅓㅎㅏ	-9.97208
ㅈㅣㄴㅇㅣ	-9.97229
▁ㅅㅜㅇㅣㄱㅇㅡㄹ	-9.97233
▁ㅊㅚㅅㅣㄴ	-9.97256
▁ㄱㅣㄷㅗㅇ	-9.97304
▁ㄱㅕㄴㅎㅐ	-9.97309
▁ㅁㅏㄹㅇㅏ	-9.97399
▁ㄷㅏㅁㄱㅣ	-9.97425
▁ㅁㅏㄹㅎㅏㅈㅏ	-9.97446
▁ㅅㅐㅇㄱㅏㄱㅎㅏㄱㅗ	-9.9746
ㅎㅐㅆㅇㅡㄹ	-9.97486
▁ㅅㅓㅊㅗㄱㅜ	-9.97558
ㅏㄱㅎㅏㅈㅣ	-9.97607
▁ㄱㅓㅅㅇㅣㅂㄴㅣㄲㅏ	-9.97646
▁ㄴㅡㅈ	-9.97648
▁ㄱㅛㅎㅚ	-9.97658
ㅇㅐㄱㅇㅡㄹ	-9.97703
▁ㅋㅏㄹㄹ	-9.97742
▁ㅅㅣㄱㅅㅏ	-9.97808
▁ㅇㅣㅆㅇㅡㄹㄲㅏ	-9.97822
▁ㅈㅣㅇㅕㄱㅇㅡㄹㅗ	-9.97831
▁ㅎㅏㄹㅇㅣㄴ	-9.97836
▁ㄱㅓㅅㅇㅣㄴㄱㅏ	-9.97857
▁ㅈㅓㅇㅈㅓㄱㅇㅣ	-9.97875
▁ㅎㅏㄹㅜㅇㅔ	-9.97909
ㄱㅕㅇㅇㅣ	-9.97953
▁ㄱㅣㄱㅖ	-9.97964
▁ㅇㅣㄴㅐ	-9.98019
▁ㅎㅚㅇㅝㄴ	-9.98025
▁ㅈㅓㅇㅊㅣㅇㅣㄴ	-9.98049
▁ㅅㅏㅇㅏㄴㅇㅡㄹ	-9.98073
▁ㄷㅡㄹㅇㅓㄱㅏㅆㄷㅏ	-9.98082
▁ㅎㅘㄹ	-9.98108
▁ㅈㅚ	-9.98112
ㅂㅏㄲ	-9.9814
▁ㅇㅣㄹㅝㅈㅣㄴ	-9.98195
▁ㅅㅣㄹㄹㅣㄴ	-9.98283
▁ㅂㅜㄹㅇㅣ	-9.98373
▁ㅂㅣㅎㅏㅎㅏ	-9.98388
▁ㅂㅏㅇㅎㅐ	-9.98473
▁ㄷㅡㄹㅁㅕㄴ	-9.98503
ㅅㅏㅇㅎㅏㄱㅔ	-9.98699
ㄱㅏㅁㅎㅐㅆㄷㅏ	-9.98778
▁ㄴㅗㅇㄷㅗ	-9.98848
ㅅㅜㅅㅏㅌㅣㅁ	-9.9924
ㅎㅚㅇㅔ	-9.99262
ㄴㅣㄱ	-9.99305
▁ㅌㅐㅇㅓㄴㅏ	-9.99343
▁ㄴㅜㄴㅊㅣ	-9.99344
ㅂㅏㅇㅅㅗㅇ	-9.99355
ㄱㅔㅆㅇㅓㅇㅛ	-9.99377
ㄱㅅㅡ	-9.99388
▁ㅈㅣㄱㅡㅂㅎㅏ	-9.99401
▁ㅇㅢㅁㅜ	-9.99444
ㅈㅜㅍㅏ	-9.99513
ㄱㅗㅇㄱㅏㄴ	-9.99516
ㅂㅓㅁㅇㅟ	-9.99543
▁ㅍㅣㄹㅇㅛㅎㅏㄷㅏㄱㅗ	-9.99547
▁ㅅㅣㄹㅈㅏㅇ	-9.99588
▁ㅈㅏㄹㅁㅗㅅㅇㅣ	-9.99726
▁ㅇㅣㄹㅂㅗㄴㅇㅔㅅㅓ	-9.99848
▁ㄱㅣㄷㅐㅎㅏ	-9.99876
▁ㅈㅗㄱㅓㄴㅇㅡㄹ	-9.99948
ㅂㅏㄷㄴㅡㄴ	-10
ㅊㅗㅇㄹㅣ	-10.0002
ㅍㅏㄴㅇㅡㄹ	-10.0002
ㅊㅕㅆㄷㅏ	-10.0011
ㄹㄹㅣㄴ	-10.002
ㅈㅣㅇㅕㄱㅇㅔㅅㅓ	-10.0021
▁ㅅㅣㄴㅊㅔㅈㅓㄱ	-10.0033
ㅊㅏㄹㅑㅇ	-10.0043
▁ㅈㅏㅁㅜㄴ	-10.0043
ㅌ	-10.0046
ㅂㅜㅇㅔㅅㅓ	-10.0047
▁ㄱㅓㄹㄹㅣ	-10.0056
▁ㅇㅣㅆㄴㅏ	-10.0057
▁ㄴㅏㄷㅗ	-10.0063
ㅅㅇㅡㄹ	-10.0068
▁ㅊㅏㅁㅅㅓㄱㅎㅐ	-10.0068
▁ㅈㅐㅅㅗㅈㅏㄷㅡㄹ	-10.0075
▁ㅌㅐㄱㅡㄱㄱㅣ	-10.0075
▁ㅎㅏㄴㅁㅏㄷㅣㄹ	-10.0075
▁ㄱㅜㄱㅂㅏㅇㅂㅜ	-10.0075
▁ㅂㅏㄴㅈㅏㅁㅅㅜ	-10.0075
▁ㄷㅏㅂㄷㅏㅂㅎㅏ	-10.0075
▁ㅅㅡㄹㅍㅡ	-10.0075
▁ㅇㅛㄱㅅㅓㄹ	-10.0075
▁ㅁㅕㄴㅊㅐㄱ	-10.0075
ㅈㅣㅎㅟ	-10.0075
▁ㄱㅕㅌ	-10.0075
▁ㅇㅏㄹㅍㅏㄱㅗ	-10.0075
ㅈㅏㅇㅠ	-10.0075
▁ㅅㅣㅁㅎㅐㅈㅣ	-10.0075
▁ㅇㅕㄴㄱㅜㄱㅐㅂㅏㄹ	-10.0076
▁ㅍㅖㅈㅣㄷㅚ	-10.0076
▁ㅊㅚㅅㅗㅎㅘㅎㅏ	-10.0076
▁ㄱㅕㄱㅎㅐㅈㅣ	-10.0078
▁ㅅㅣㄱㅍㅜㅁ	-10.0078
▁ㅌㅐㅍㅜㅇ	-10.0078
▁ㅌㅗㅇㅂㅗ	-10.0079
▁ㄴㅏㄹㄱㅐ	-10.0081
▁ㅈㅗㅇㄹㅠ	-10.0083
▁ㅅㅜㅁㅈㅕㅆ	-10.0085
▁ㄱㅣㅊㅗ	-10.0089
▁ㄱㅏㅇㄱㅕㅇ	-10.0094
▁ㅁㅜㅇㅕㄱ	-10.0098
▁ㅂㅜㅈㅐ	-10.0099
▁ㅊㅏㅁㅇㅕㅎㅏㄴ	-10.0105
▁ㅊㅏㄱㅘㄴ	-10.011
▁ㄱㅣㅅㅗ	-10.0111
▁ㅊㅏㄹ	-10.0112
▁ㅅㅣㄹㅍㅐㅎㅐㅆ	-10.0114
▁ㅁㅗㅇㅕ	-10.0115
▁ㄷㅗㅂㅗ	-10.0115
▁ㅈㅗㅈㅓㅇ	-10.0115
▁ㅇㅠㅇㅣㄹㅎㅏ	-10.0116
▁ㄱㅟㄱㅏ	-10.0116
▁ㅅㅣㅍㅈㅣ	-10.0118
▁ㅍㅖ	-10.012
▁ㅅㅣㄴㅅㅏㅇ	-10.012
▁ㅎㅏㄴㅂㅓㄴ	-10.0121
▁ㄱㅓㅊㅣㄴ	-10.0122
▁ㅈㅜㅇㄱㅜㄱㅇㅔㅅㅓ	-10.0132
▁ㅂㅜㄷㅗ	-10.0134
▁ㅈㅣㅅㅜ	-10.0135
▁ㄱㅗㅇㅎㅏㅇ	-10.0136
▁ㅈㅗㄹ	-10.0137
ㅍㅔㅇㅣ	-10.014
▁ㅅㅣㅁㅍㅏㄴ	-10.0145
▁ㄱㅜㄴㅇㅢ	-10.0145
▁ㅁㅏㄴㄴㅏㅁㅇㅡ	-10.0167
▁ㅈㅏㅁㅅㅣ	-10.0171
▁ㅂㅣㅍㅏㄴㅈㅓㄱ	-10.0173
▁ㅇㅣㄴㄷㅗㅇㅔㅅㅓ	-10.0181
ㅙㅆ	-10.0184
ㅅㅜㅇㅢ	-10.0184
ㅠㄴㅡㄴ	-10.0188
ㅈㅏㅇㅔㄱㅔ	-10.0193
ㄱㅜㄴㅇㅔ	-10.0197
ㅅㅏㅌㅐ	-10.0197
▁ㄸㅐㅁㅜㄴㅇㅣㅇㅓㅆㄷㅏ	-10.0197
▁ㅂㅏㄹㅅㅐㅇㅎㅐ	-10.0198
▁ㅍㅔ	-10.0201
▁ㄱㅜㅊㅜㄱㅎㅏ	-10.0205
▁ㅂㅏㄹㄱㅕㄴㅎㅐㅆ	-10.0214
▁ㅇㅛㄱㅜㅎㅐㅆㄷㅏ	-10.0221
▁ㅅㅏㄹㅍㅕㅂㅗ	-10.0222
▁ㅅㅣㄹㅎㅐㅇ	-10.0239
▁ㄴㅏㅁㅇㅏ	-10.0247
▁ㅊㅓㅂㅜㄴ	-10.0251
▁ㅊㅓㄴㅅㅏ	-10.0256
▁ㅇㅢㅈㅏㅇ	-10.0261
▁ㅈㅡㅇ	-10.0262
▁ㅇㅣㄹㄲㅏㅈㅣ	-10.0266
▁ㅇㅕㄴㄱㅜㅈㅣㄴㅇ	-10.0275
▁ㅂㅜㄱㅡㄴ	-10.0278
▁ㅇㅣㅎㅗㄴ	-10.028
ㅍㅖ	-10.0287
▁ㅂㅓㅈ	-10.0288
▁ㅈㅗㄹㅗ	-10.0291
ㅎㅗㅎㅏㄴ	-10.0297
▁ㄴㅐㅇㅔ	-10.0297
▁ㅇㅢㄷㅗ	-10.0298
ㄱㅓㅁ	-10.0299
▁ㅎㅘㄹㅇㅛㅇ	-10.03
▁ㅇㅕㅁㄷ	-10.0302
▁ㄱㅡㅂㅅㅣㄱ	-10.0305
ㅏㄴㄱㅘ	-10.032
ㅇㅗㄴㄹㅏㅇㅣㄴ	-10.0328
▁ㅊㅗㄱ	-10.0329
ㅇㅕㄴㄱㅡㅁ	-10.0335
▁ㅁㅓㄱㅇㅡㅁㅕ	-10.0336
ㅎㅏㄴㅡㄴㄷㅔ	-10.0344
ㄱㅡㅂㅇㅕ	-10.0346
ㄹㅣㅇㅏ	-10.0356
ㅂㅗㅁㅕ	-10.0363
ㅇㅣㅂ	-10.0366
▁ㅅㅜㅁㅈㅣ	-10.038
▁ㅂㅗㅈㅏㅇㅎㅏ	-10.0391
▁ㄴㅏㄱㅏㄴㅡㄴ	-10.0396
▁ㅂㅜㅈㅗㄱㅎㅏ	-10.0412
▁ㅇㅜㅁㅈㅣㄱㅇㅣㅁㅇ	-10.0415
▁ㅂㅏㄴㅎㅐ	-10.0421
▁ㅇㅓㄹㅣㄴㅇㅣㄷㅡㄹㅇ	-10.0422
ㅕㅇㅊㅏㄹㅅㅓ	-10.043
ㄱㅕㅈㅕ	-10.044
▁ㅈㅜㄷㅗ	-10.0443
▁ㅇㅝㄴㅇㅣㄴㅇㅣ	-10.0449
▁ㄲㅗㅂ	-10.0453
ㅅㅐㅇㅎㅘㄹ	-10.0454
▁ㅇㅓㄷㅣㅇㅔ	-10.0455
▁ㄷㅐㄱㅠㅁㅗ	-10.0459
▁ㅂㅏㅇㅎㅘㅂㅗㄱㅇㅣ	-10.0459
▁ㅆㅗㄴㅏㅌㅏ	-10.0459
▁ㅈㅓㅊㅜㄹㅅㅏㄴ	-10.0459
▁ㅌㅡㄱㅎㅖ	-10.0459
ㅕㄹㄴㅔㅌㅡㅇㅝㅋㅡㅅㅓㅂㅣㅅㅡ	-10.0459
▁ㅃㅗㅂ	-10.0459
▁ㅇㅣㄴㄱㅗㅇㅈㅣㄴㅡㅇ	-10.0459
▁ㅅㅏㅂㅓㅂㅊㅓㄹㅣ	-10.0459
▁ㄷㅡㄹㅇㅕㄷㅏㅂㅗ	-10.0459
▁ㅌㅏㄴㅎㅐㄱㅅㅣㅁㅍㅏㄴ	-10.0459
▁ㅂㅏㄹㄱㅜㄹ	-10.0459
▁ㅇㅣㅅㅠ	-10.0459
▁ㅍㅕㄴㅇㅢㅈㅓㅁ	-10.046
ㅇㅣㅇㅛㅇㄱ	-10.046
▁ㅍㅡㄹㅣ	-10.046
▁ㄲㅏㄷㅏ	-10.0461
▁ㄷㅡㄹㅇㅓㄱㅏㄴㄷㅏ	-10.0462
▁ㅈㅘㅈㅓㄹ	-10.0463
▁ㅊㅓㄹㅈㅓㅎ	-10.0463
▁ㅇㅑㅇㄱㅡㄱ	-10.0463
▁ㅍㅗㅁㅏㄹ	-10.0465
▁ㅈㅏㄱㅕㄱ	-10.0465
▁ㄱㅣㅎㅜ	-10.0466
▁ㄱㅜㄷㅇㅓ	-10.0466
▁ㅊㅜㅅㅓㄱ	-10.0466
▁ㅂㅜㅊㅏㄱ	-10.0467
▁ㄱㅣㄱㅏㄱ	-10.0468
▁ㄴㅏㅁㅎㅏㄴ	-10.0469
ㅅㅣㅁㅅㅏ	-10.0469
▁ㄷㅡㄹㄹㅕㅇㅗ	-10.047
▁ㅁㅕㅇㅇㅖ	-10.0474
▁ㅇㅠㄴㅆㅣ	-10.0475
▁ㅂㅏㄺㅎㅕ	-10.0475
▁ㅎㅘㄱㄷㅐㅎㅏ	-10.0476
▁ㅇㅛㄱㅡㅁ	-10.0477
▁ㄷㅡㄹㅓㄴㅐ	-10.048
▁ㅍㅕㄴㅅㅓㅇ	-10.0481
▁ㅈㅓㅇㅊㅣㅇㅣㄴㄷㅡㄹ	-10.0481
▁ㄱㅓㅍㅜㅁ	-10.0482
▁ㅊㅜㄹㄱㅜㄱ	-10.0483
▁ㅇㅟㄹㅗ	-10.0486
▁ㅇㅣㄹㄷㅐ	-10.0488
ㄺㅇㅡ	-10.0489
ㅊㅣㄱ	-10.049
▁ㄲㅜㄹㅣ	-10.049
▁ㄱㅣㅁㅁㅗㅆㅣ	-10.0491
▁ㄱㅕㅇㅅㅓㄴ	-10.0492
▁ㅈㅗㅎㄱㅔㅆ	-10.0493
ㅂㅕㄱ	-10.0493
▁ㅅㅏㅇㅛㅇㅎㅏㅇㅕ	-10.0494
▁ㄱㅠ	-10.0495
▁ㅅㅓㅇㅁㅕㅇ	-10.0495
▁ㅎㅏㅅㅣㄴ	-10.0495
ㄴㅅㅔㄷㅐ	-10.0499
▁ㅂㅏㅋㅟ	-10.0499
▁ㅎㅘㄴㅂㅜㄹ	-10.0501
ㅁㅓㄹㅣ	-10.0502
▁ㅈㅗㅅㅏㅎㅏ	-10.0503
▁ㅈㅓㄴㅂㅜㄱ	-10.0509
▁ㅋㅐㄹ	-10.0515
ㅅㅡㅋㅡ	-10.0518
▁ㅁㅜㅈㅏㅇ	-10.052
▁ㅊㅏㅁㅇㅕㅎㅏ	-10.0527
ㄴㅏㅁㅜ	-10.0529
▁ㅈㅔㅇㅚㅎㅏㄱㅗ	-10.053
▁ㅇㅣㅇㅣㄱ	-10.0532
▁ㄴㅗㅇㅇㅓㅂ	-10.0533
▁ㅇㅠㄱㅇㅏ	-10.0534
▁ㄷㅗㄹㅇㅏㄱㅏㄹ	-10.0539
▁ㅇㅕㄴㅎㅠ	-10.0543
▁ㅂㅏㄹㅈㅓㄴ	-10.0546
▁ㄷㅏㅊㅣ	-10.0548
ㅇㅓㅂㅇㅡㄹ	-10.055
▁ㄱㅗㅇㅂㅜ	-10.0552
ㅊㅟㅅㅗ	-10.0555
▁ㅎㅗㅅㅓㄴ	-10.0559
▁ㅌㅗㅇㄱㅖ	-10.0566
▁ㅇㅕㄷㅏㅇ	-10.0573
▁ㅈㅣㅅㅣㄱ	-10.0577
▁ㅅㅓㄹㄱㅖ	-10.0577
ㅈㅔㅎㅏㄴ	-10.0579
▁ㅇㅕㄱㅝㄴㅇㅣ	-10.058
▁ㅈㅓㅎㅢ	-10.0581
▁ㄱㅡㄹㅣㅁ	-10.0585
▁ㅈㅜㅂㅏㅇ	-10.0589
▁ㄷㅗㄱㅈㅏ	-10.0593
▁ㄷㅐㄱㅓ	-10.0595
▁ㄱㅕㅇㄹㅕㄱ	-10.0598
▁ㄱㅟㄱㅜㄱㅎㅐ	-10.0599
ㅏㅌ	-10.06
▁ㅅㅜㅈㅜㄴㅇㅡㄹㅗ	-10.0601
▁ㅈㅓㅁㅇㅔ	-10.0601
▁ㅈㅓㄱㅇㅛㅇㄷㅚ	-10.0615
▁ㄱㅏㅈㅕㅇㅗㄴ	-10.0615
ㅠㅊㅣ	-10.0616
ㄷㅚㄱㅣ	-10.0618
▁ㅈㅔㄱㅣㅎㅐㅆ	-10.0625
▁ㅁㅐㅈ	-10.0626
▁ㄱㅓㄱㅣ	-10.0628
ㅎㅘㄹㄷㅗㅇ	-10.0631
▁ㄴㅏㅎㅇㅏㅆ	-10.0638
▁ㅅㅏㅎㅚㅈㅓㄱ	-10.0638
▁ㄱㅏㄱㄷㅗ	-10.0639
▁ㅅㅣㄴㄱㅣ	-10.0646
▁ㅇㅣㄹㅇㅓㄴㅏㄹ	-10.065
▁ㅈㅣㅂㅜㄴ	-10.0665
▁ㄴㅐㅇㅣㄹ	-10.0667
▁ㅂㅣㅅ	-10.0669
▁ㅁㅣㄷㄱㅔ	-10.0689
▁ㅈㅐㄱㅗ	-10.0689
▁ㅈㅓㄴㅂㅜㅌㅓ	-10.0694
▁ㅁㅏㄱㄱ	-10.0701
ㅋㅓ	-10.0704
▁ㅈㅓㄴㅊㅔㄱㅏ	-10.0708
▁ㅎㅞㅅㅗㄴㅎㅏ	-10.0725
ㅏㄹㅗ	-10.0728
▁ㅈㅟ	-10.0728
▁ㅊㅐㄱㅇㅣㅁㅇㅣ	-10.0728
ㅇㅓㅄㄴㅡㄴ	-10.0729
ㄴㅌㅗ	-10.0729
▁ㄱㅗㅇㅣㄴㅇ	-10.0733
▁ㅂㅏㄹㅡㄴ	-10.0738
▁ㄷㅡㄴ	-10.0739
▁ㅈㅓㅎㅢㄷㅡㄹ	-10.0742
ㅅㅓㄴㄱㅓ	-10.0752
▁ㅂㅜㅈㅗ	-10.0754
ㅂㅜㄹㅗ	-10.0754
ㅁㅏㄱㅇㅡㄹ	-10.0765
ㄹㅣㅅㅡ	-10.0766
ㅡㅁㅕㄴ	-10.0768
▁ㄱㅣㅂㅜ	-10.0768
▁ㅈㅔㅅㅣㅎㅏㄴ	-10.0768
ㄷㅗㄹㅂㅗㅁ	-10.0775
▁ㅂㅜㄴㅇㅑ	-10.0776
ㅅㅓㅇㄱㅘ	-10.0778
ㅇㅜㅈㅜ	-10.078
ㅆㄱㅣ	-10.0784
▁ㅅㅓㅇㄱㅗㅇㅎㅏㄴ	-10.0784
▁ㅊㅚㅈㅣ	-10.0798
▁ㅈㅗㅅㅓㅇ	-10.0813
▁ㅇㅏㄱㅎㅘ	-10.0814
▁ㅇㅣㄹㅇㅛㅇ	-10.082
▁ㅂㅜㅅㅓ	-10.082
▁ㅃㅏㄹㄹㅏㅈ	-10.0822
▁ㅅㅜㅇㅛㅇ	-10.0835
▁ㅇㅞ	-10.0847
▁ㅇㅝㄴㅁㅏㄴ	-10.0853
ㄷㅜㄴ	-10.0856
▁ㅈㅗㅈㅣㄱㅇㅡㄹ	-10.0857
ㅈㅏㅂㅎㅕ	-10.0857
ㅓㄷㅣ	-10.0858
▁ㄸㅏㄸㅡㅅㅎㅏ	-10.0859
▁ㅅㅡㅍㅗㅊㅡ	-10.0859
▁ㅎㅏㄴㅈㅣㄴㅎㅐㅇㅜㄴ	-10.0859
▁ㄱㅗㅇㄹㅗㄴㅎㅘ	-10.0859
▁ㅇㅣㄹㅇㅡㅋㅣ	-10.0859
▁ㅍㅣㄹㄹㅣㅍㅣㄴ	-10.0859
▁ㄴㅔㄷㅓㄹㄹㅏㄴㄷㅡ	-10.0859
▁ㅇㅓㄹㄱㅜㄹ	-10.0859
ㅇㄷㅜㅇㅇㅣ	-10.0859
▁ㅅㅣㄹㅇㅓㅈㅜ	-10.0859
▁ㅎㅕㅂㅂㅏㄱ	-10.086
▁ㅊㅗㄱㅣㄴㅈㅏㅇ	-10.086
▁ㅇㅕㄹㅗㄴㅈㅗㅅㅏㅇㅔㅅㅓ	-10.086
▁ㄱㅖㄱㅗㄱ	-10.086
▁ㅈㅓㄹㄷㅏㄴ	-10.0861
▁ㅇㅐㄱㅅㅜ	-10.0861
▁ㅂㅏㄴㅏㄴㅏ	-10.0861
ㅕㅇㅌㅐ	-10.0861
▁ㅇㅏㅂㄷㅗ	-10.0861
▁ㅍㅣㄱㅗㄴㅎㅏ	-10.0861
▁ㄱㅏㅇㅎㅘㅎㅏㄱㅔㅆㄷㅏ	-10.0862
▁ㅊㅏㄴㅂㅏㄴ	-10.0862
▁ㅈㅗㄴㅈㅜㅇ	-10.0862
▁ㄱㅕㅁ	-10.0862
▁ㅇㅣㄴㄹㅠ	-10.0864
▁ㅊㅜㄱㅅㅏ	-10.0866
▁ㅎㅕㄴㄷㅐㅊㅏ	-10.0866
▁ㄱㅓㄷㅝㅆㄷㅏ	-10.0868
▁ㅅㅜㄴㅇㅟ	-10.087
▁ㅂㅏㅇㅅㅣㄱㅇㅡㄹ	-10.0871
ㅇㅏㅂ	-10.0871
▁ㅌㅜㅇㅣㅂ	-10.0874
▁ㅇㅑㅇㅅㅣㅁㅈㅓㄱ	-10.0883
ㅈㅣㄱㅇㅡㄹ	-10.0885
▁ㅎㅏㄱㅔ	-10.0885
▁ㅇㅣㄹㅇㅓㄴㅏㄴ	-10.0886
▁ㅁㅣㅇㅛㅇ	-10.0887
▁ㄱㅡㄴㅕ	-10.089
▁ㅈㅏㄱㅈㅓㄴ	-10.0891
ㅌㅏㄹ	-10.0893
▁ㅇㅠㅅㅏ	-10.0893
ㄴㄷㅔㅇㅛ	-10.0896
▁ㅎㅐㄷㅏㅇㅎㅏ	-10.09
▁ㄱㅜㄱㅅㅏㄴ	-10.09
▁ㅅㅣㅉㅡㅁ	-10.0908
▁ㅈㅏㅁㅜㄴㅇㅟㅇㅝㄴ	-10.0911
▁ㅅㅓㅇㅈㅏㅇㄹㅠㄹ	-10.0911
▁ㄴㅓㅁㄱㅕ	-10.0914
ㅁㅐㄱㅈㅜ	-10.0916
▁ㄱㅗㅇㅛㅇ	-10.0919
▁ㅇㅣㅆㅇㅡㅁ	-10.092
▁ㅎㅏㄴㅊㅏㅇ	-10.0923
▁ㄱㅖㅍㅏ	-10.0924
▁ㅊㅏㄷㅏㄴ	-10.0924
▁ㅇㅏㄴㅅㅏㄴ	-10.0926
▁ㅇㅓㅂㅈㅗㅇ	-10.093
ㅇㄱㅛㅇ	-10.093
▁ㅍㅡㄹㄹㅐ	-10.0931
▁ㅊㅗㄱㅣㅇㅔ	-10.0932
ㅏㅇㅜㅁㅇㅡㄹ	-10.0933
ㅁㅏㅅ	-10.0939
▁ㅌㅚㅈㅣㄱ	-10.0945
▁ㄱㅣㄹㅠ	-10.0949
▁ㅇㅚㅁㅕㄴㅎㅏ	-10.095
▁ㅈㅔㄱㅣㄷㅙㅆㄷ	-10.0957
▁ㅈㅓㄴㄷㅏㅁ	-10.0959
▁ㄴㅏㄹㅇㅣ	-10.0959
▁ㅂㅏㅇㅅㅏㄴ	-10.0974
▁ㅈㅡㅇㄱㅏㅎㅏ	-10.0975
ㄱㅡㅂㅎㅏㄴ	-10.0985
▁ㅅㅣㄹㅈㅓㄱ	-10.0988
▁ㅇㅏㄴㅐㅇㅘ	-10.0991
▁ㅂㅜㄷㅏㅇㅎㅏ	-10.0997
▁ㅈㅣㄱㅇㅝㄴㄷㅡㄹㅇㅣ	-10.0998
▁ㄷㅣ	-10.1003
▁ㄱㅜㄱㅎㅚㅇㅔ	-10.1012
▁ㅅㅗㄴㅕ	-10.1026
▁ㅌㅓㄹ	-10.1026
▁ㅅㅔㅇㅜ	-10.1032
▁ㅁㅏㄹㅎㅏㅈㅣ	-10.1034
▁ㅇㅓㅄㄱㅔ	-10.1043
▁ㅈㅏㄱㄱㅏ	-10.1051
▁ㅅㅜㅅㅡㅂ	-10.1052
▁ㅎㅏㄴㅍㅕㄴㅇㅡㄹㅗㄴ	-10.1053
▁ㅅㅓㅁㅕㄴ	-10.1055
▁ㅊㅓㄴㅁㅏㄴ	-10.1056
ㅈㅚ	-10.1059
▁ㄹㅗㅂ	-10.1063
▁ㄱㅣㅁㅅㅏㅇ	-10.1065
ㄱㅗㅇㄷㅏㄴ	-10.1077
▁ㅎㅞㅅㅗㄴ	-10.1081
▁ㅈㅝㅆ	-10.1084
▁ㄱㅓㅁㅌㅗ	-10.1091
ㄹㅛㅇ	-10.1103
▁ㅇㅣㄴㅁㅜㄹㅇㅣ	-10.1105
ㅅㅣㄱㅇㅔ	-10.1105
▁ㄱㅜㄷㅗㄱ	-10.1116
▁ㅅㅣㅅㅓㄹ	-10.1119
ㅣㄹㅏㄴㅡㄴ	-10.1122
ㅓㄴㅇㅔ	-10.1123
▁ㄱㅓㅇㅐㄱ	-10.1134
▁ㅎㅘㄱㅅㅏㄴ	-10.1139
ㄱㅛㄱㅘㅅㅓ	-10.1142
▁ㄴㅗㄹ	-10.1142
ㅂㅏㄷㅇㅡㄹ	-10.1146
▁ㄷㅗㄹㅇㅏㅇㅗ	-10.1151
▁ㄱㅗㅇㅂㅐㄱ	-10.1153
▁ㄱㅓㄷㅐ	-10.1154
ㅈㅡㅇㄱㅝㄴ	-10.1156
ㄷㅐㅊㅜㄹ	-10.1162
▁ㄱㅓㅁㅅㅐㄱ	-10.1163
▁ㅂㅏㄹㅅㅐㅇㅎㅏ	-10.117
▁ㅅㅏㅁㅏㅇㅎㅏ	-10.1175
ㅓㅅ	-10.1177
ㄱㅘㄴㄱㅘㅇ	-10.1185
ㅇㅕㅆㄴㅡㄴㄷㅔ	-10.1185
ㅘㅆㄷㅏ	-10.1193
ㅍㅜㄹㅇㅣ	-10.1207
▁ㅇㅏㅇㅣㄷㅗ	-10.1213
▁ㅅㅓㅇㄱㅕㅇ	-10.1226
▁ㅇㅠㅇㅣㄱ	-10.1226
ㅐㅆㅅㅡㅂㄴㅣㄷㅏ	-10.1227
▁ㅅㅣㅈㅏㄱㄷㅙㅆ	-10.1229
ㅅㅓㅇㅅㅏ	-10.1237
▁ㄷㅗㄴㅇㅣ	-10.124
ㄹㅑㄱ	-10.1246
▁ㅅㅔㄱㅏㄴㅇ	-10.1256
ㄱㅣㅈㅜㄴ	-10.1261
▁ㄱㅏㅍ	-10.1265
▁ㅅㅏㅇㅅㅏㅇㄹㅕㄱㅇ	-10.1266
▁ㅅㅜㅇㅣㄱ	-10.1266
▁ㅈㅓㅇㅊㅐㄱㅇㅣ	-10.1266
▁ㅈㅜㄱㅗㅂㅏㄷ	-10.1267
ㅅㅣㅁㅅㅡㄹㅓ	-10.1275
▁ㅅㅜㄱㄹㅕㄴ	-10.1276
▁ㅇㅓㄸㅓㄹㄲㅏㅇㅛ	-10.1276
▁ㄷㅐㅎㅕㅇㅁㅏㅌㅡ	-10.1276
▁ㅁㅏㅋㅔㅌㅣㅇ	-10.1276
▁ㅋㅐㄹㄹㅣㅍㅗㄴㅣㅇㅏ	-10.1276
▁ㅍㅕㄹㅊㅣ	-10.1276
▁ㅁㅣㅅㅜㅅㅡㅂㅈㅏ	-10.1276
▁ㅍㅕㄴㄱㅕㄴ	-10.1276
ㄱㅖㅇㅕㄹㅅㅏㄷㅡㄹ	-10.1276
ㅈㅡㅇㅎㅜㄱㅜㄴ	-10.1276
▁ㅇㅏㅂㅂㅏㄱ	-10.1276
▁ㄴㅏㄱㅊㅏㄹ	-10.1276
▁ㄱㅗㅇㅎㅘㄱㅜㄱ	-10.1276
▁ㄴㅗㅂㅜㅂㅜ	-10.1276
▁ㅇㅐㄱㅊㅔ	-10.1276
▁ㅌㅡㄱㅈㅣㅇㅇㅣ	-10.1276
▁ㅇㅛㅇㅅㅏㄴ	-10.1276
▁ㅁㅜㅅㅜㄷㅏㄴ	-10.1276
▁ㄱㅡㄹㅣㅅㅡㄷㅗㅇㅣㄴ	-10.1276
▁ㅊㅣㄴㄴㅗ	-10.1276
▁ㄷㅏㅊㅕㅆ	-10.1277
ㄴㅕㅁ	-10.1277
▁ㄱㅕㄱㄹㅣ	-10.1278
▁ㅈㅣㅌ	-10.128
▁ㅂㅜㄱㅉㅗㄱ	-10.1282
▁ㄷㅏㅁㄱㅕ	-10.1282
▁ㅁㅓㄹㄹㅣ	-10.1282
▁ㅅㅏㅇㅈㅣㅇ	-10.1283
ㅇㅣㄴㅌㅐㄱㅅㅣ	-10.1286
▁ㅅㅣㅍㅇㅓㅇㅛ	-10.1286
▁ㅂㅘㅈㅜ	-10.1288
ㅂㅣㅊㅣㄴ	-10.1289
ㅈㅣㅅㅏ	-10.1292
ㄹㅆㅓ	-10.1292
▁ㄱㅣㅁㄱㅣㅊ	-10.1292
ㅅㅏㅇㅎㅘㅇ	-10.1293
▁ㄱㅣㅈㅐ	-10.1293
▁ㅁㅣㅅㅡ	-10.1293
ㄱㅗㅇㅎㅓㄴ	-10.1296
▁ㅂㅗㄱㅈㅔ	-10.1297
▁ㅈㅣㄴㅅㅣㄹ	-10.1297
▁ㅁㅕㅇㄱㅏㄹㅑㅇ	-10.1299
▁ㅇㅠㅌㅗㅇ	-10.1299
▁ㅇㅣㄴㅇㅑㅇ	-10.1301
▁ㅇㅣㄴㅈㅓㄱ	-10.1306
▁ㄷㅐㄱㅗㅇ	-10.1306
▁ㅈㅣㅍㅛ	-10.1311
▁ㅊㅣㅁㄷㅐ	-10.1315
ㅅㅏㅈㅚ	-10.1319
▁ㅁㅏㅌ	-10.1321
▁ㅇㅕㄱㅣㄲㅏㅈㅣ	-10.1322
ㅡㅁㅕㄴㅅㅓ	-10.1323
▁ㅇㅑㅇㅅㅓㅇ	-10.1323
▁ㄱㅜㄱㄱㅏㅁ	-10.1323
▁ㅈㅜㅁㅗㄱ	-10.1324
▁ㅎㅐㅈㅜㅅㅣ	-10.1325
▁ㅎㅕㅂㄹㅕㄱ	-10.1325
ㅇㅓㅂㄱㅖ	-10.133
▁ㅈㅓㄴㅎㅏㄹㅕ	-10.1331
ㅋㅣㅅ	-10.1332
▁ㄱㅏㄷㅗㅇ	-10.1337
▁ㄱㅏㄴㅏㄴ	-10.1344
▁ㅎㅐㄱㅁㅜ	-10.1353
▁ㅇㅏㅈㅜ	-10.1353
▁ㅇㅏㄴㅅㅣㅁ	-10.1354
ㅁㅕㅇㅎㅏ	-10.1355
▁ㅅㅓㄴㅇㅣㅁ	-10.1357
▁ㅂㅓㄴㅅㅣㄱ	-10.1362
ㄱㅡㄴㅁㅜ	-10.1363
▁ㅈㅜㄱㅔㅆㄷㅏ	-10.1367
ㅍㅏㅋㅡ	-10.1368
▁ㅅㅜㄷㅗㄱㅝㄴㅇㅔㅅㅓ	-10.137
▁ㅂㅣㅈㅓㄴ	-10.138
▁ㄷㅐㄱㅜㄱ	-10.1381
▁ㄷㅏㅇㅅㅏ	-10.1388
▁ㅍㅏㅁㅕㄴ	-10.1392
ㅁㅇㅛㅇ	-10.1405
▁ㅈㅜㄱㅇㅣ	-10.1405
▁ㅈㅓㅇㄱㅣ	-10.1418
▁ㅊㅣㅁㅎㅐ	-10.1419
ㅍㅜㅁㅇㅡㄹ	-10.142
▁ㅈㅜㅇㅇㅔㅅㅓ	-10.1426
▁ㅇㅚㅂㅜ	-10.1431
▁ㅅㅓㄹㅁㅕㅇㅇㅣ	-10.1437
▁ㅅㅓㅇㅜㄹㄷㅐ	-10.144
▁ㄱㅘㄴㄹㅕㄴㅈㅏ	-10.1451
ㄹㅓㄴㅣ	-10.1455
▁ㅎㅐㅇㅜㄴ	-10.146
▁ㅁㅜㅅㅓㅇ	-10.1461
ㅅㅣㄴㅇㅡㄹ	-10.1461
ㅐㄱㅇㅡㄹㅗ	-10.1462
ㅈㅜㅇㅇㅣ	-10.1463
▁ㄱㅗㄱㅣ	-10.1465
▁ㄴㅏㅈㅊㅜ	-10.1467
ㄴㅗㄷㅗㅇ	-10.1471
▁ㄱㅕㅇㄱㅣㄷㅗ	-10.1472
▁ㄴㅏㅅㅓㄴ	-10.1472
ㅂㅜㅈㅏㅇ	-10.1475
▁ㅈㅜㅇㄷㅏㄴㅎㅐ	-10.1477
ㅂㅣㅊㅇㅡㄹ	-10.148
ㅁㅜㄹㄷㅡㄹ	-10.1483
▁ㅈㅣㄴㅎㅐㅇㄷㅚ	-10.1493
▁ㅈㅏㅂㅈㅣ	-10.1494
▁ㅌㅣㅁ	-10.15
▁ㅋㅗㅅ	-10.1512
▁ㄱㅜㅁㅐ	-10.1514
ㄴㄹㅛ	-10.1518
▁ㄱㅓㅊㅣ	-10.1518
▁ㄷㅗㅇㄹㅛ	-10.1519
▁ㅇㅕㄹㅈㅓㅇ	-10.1519
▁ㅂㅕㅇㅇㅝㄴㅇㅡㄹ	-10.153
▁ㅇㅕㄴㄱㅣ	-10.1533
▁ㅉㅏㄼ	-10.1535
ㅇㅓㅈㅣㄴ	-10.1537
▁ㅌㅏㄹㄹㅏㄱㅎㅏ	-10.1538
▁ㅋㅣㅇㅜ	-10.154
▁ㅈㅓㄴㄱㅜㄱㅈㅓㄱ	-10.1553
ㅇㅈㅓㅇ	-10.156
ㅇㅠㄱㅣ	-10.1561
ㅁㅜㄱ	-10.1562
▁ㅌㅔㄴㅣ	-10.1564
ㅈㅗㅇㅅㅏ	-10.1564
▁ㅌㅗㄹㅗㄴ	-10.1569
▁ㄷㅐㄱㅏㅇ	-10.1582
ㄱㅇㅛㄱ	-10.1584
▁ㄱㅓㄹㄹㅣㄴ	-10.1596
ㄷㅗㅇㅇㅡㄹㅗ	-10.1609
ㅂㅓㄹ	-10.1611
▁ㅇㅐㅊ	-10.1613
▁ㅌㅗㅇㅎㅐㅅㅓ	-10.1619
ㄹㅕㅇㅇㅡㄹ	-10.1621
▁ㅈㅏㄴㅕㄷㅡㄹ	-10.1625
ㅎㅗㄹㄷ	-10.1627
▁ㅈㅣㅇㅝㄴㅎㅏ	-10.1634
▁ㅍㅛㅅㅣ	-10.164
▁ㅆㅓㅆ	-10.1657
ㅅㅗㅅ	-10.1659
ㅅㅣㄱㅏㄴㅇㅡㄹ	-10.1659
▁ㅅㅏㅇㅏㄴㅇ	-10.1661
ㅇㅟㄹㅗ	-10.1666
▁ㅈㅡㅇㅇㅣㄴㅇㅣ	-10.1683
▁ㅈㅣㄱㅈㅓㅂㅈㅓㄱㅇㅣ	-10.1688
▁ㅎㅟ	-10.1689
▁ㅈㅓㅁㅇㅔㅅㅓ	-10.1692
▁ㅇㅏㄴㅍㅏㄲㅇ	-10.1692
▁ㄱㅗㄷㅡㅇ	-10.1699
▁ㅍㅣㅂㅜ	-10.1704
▁ㅁㅓㅅ	-10.1707
▁ㅎㅓㅇㅟㅅㅏㅅㅣㄹ	-10.1711
▁ㄱㅘㅌㅐㄹㅛ	-10.1711
▁ㅌㅡㅇㅟㅌㅓ	-10.1711
▁ㄱㅡㄹㄹㅗㅂㅓㄹ	-10.1711
▁ㅈㅣㅈㅜㅎㅚㅅㅏ	-10.1711
▁ㄷㅏㄴㅇㅣㄹㅎㅘ	-10.1711
▁ㅇㅣㄴㅌㅓㄴ	-10.1711
▁ㅇㅚㄹㅐ	-10.1711
▁ㅇㅣㄹㅂㅏㄴㅇㅣㄴㄷㅡㄹ	-10.1711
▁ㄴㅏㄹㅇㅏㄱㅏ	-10.1711
▁ㅂㅓㄹㅇㅓㄷㅡㄹㅇ	-10.1711
▁ㅇㅡㅁㅇㅏㄱ	-10.1712
▁ㅅㅗㅎㅗㄹㅎ	-10.1712
▁ㅇㅜㄴㅁㅕㅇ	-10.1712
▁ㅍㅗㄱㅘㄹ	-10.1712
▁ㄷㅜㄷㅡㄹㅓㅈㅣㄴ	-10.1712
▁ㅈㅓㄱㅂㅏㄹㄷㅚ	-10.1713
▁ㅈㅓㅇㄷㅏㅇㅇㅣ	-10.1713
▁ㄴㅏㄴㅝ	-10.1714
▁ㅂㅜㄹㅊㅏㅁ	-10.1715
▁ㅅㅏㄹㄱㅠㄴㅈㅔ	-10.1715
▁ㅎㅕㄴㅁㅕㅇㅎㅏ	-10.1715
▁ㅂㅐㅅㅗㅇ	-10.1716
▁ㅅㅏㅁㄱㅜㄱ	-10.1716
▁ㅊㅐㅌㅐㄱ	-10.1717
▁ㅇㅘㄴㅅㅓㅇ	-10.172
▁ㅇㅖㅇㅚ	-10.1722
▁ㅅㅜㄷㅏㅇ	-10.1724
▁ㄱㅡㄴㅏㄹ	-10.1726
▁ㅍㅗㄱㅎㅐㅇㅎㅐ	-10.1727
▁ㄱㅡㄱㅓㄴ	-10.1727
▁ㅁㅕㅇㄹㅕㅇㅇㅡㄹ	-10.1727
ㅣㄱㅇㅢ	-10.1728
▁ㅇㅣㄹㄷㅏㅇㅇ	-10.1729
▁ㅂㅏㄲㅟㅇㅓㅆㄷㅏ	-10.173
▁ㅈㅓㄴㅇㅕㅁ	-10.1733
▁ㅂㅏㄲㅝ	-10.1736
▁ㄱㅣㅊㅏ	-10.1737
▁ㅅㅏㅇㅎㅗ	-10.1739
▁ㅇㅏㄹㄹㅣ	-10.174
▁ㅍㅕㄴㅈㅣ	-10.1746
▁ㅅㅡㅇㅇㅣㄴ	-10.1749
▁ㅂㅐㄹㅓㄹ	-10.175
▁ㅂㅗㅇㅕㅈㅝ	-10.1754
▁ㅇㅕㅈㅣ	-10.1754
▁ㅇㅣㄹㅂㅏㅇㅈㅓㄱ	-10.1754
▁ㅇㅕㅇㅢㄷㅗ	-10.1755
▁ㅅㅓㅂㅜ	-10.1755
▁ㅅㅓㄹㅅㅏ	-10.1761
ㅁㅜㄴㅇㅔ	-10.1763
▁ㄱㅐㄴㅕㅁㅇ	-10.1765
▁ㅅㅣㄹㄹㅕㄱ	-10.1765
▁ㄲㅗㅁ	-10.1768
▁ㄱㅘㄴㄱㅘㅇㄱㅐㄱ	-10.1769
ㅎㅡㄹㅡㅁ	-10.1779
▁ㅈㅓㄴㅌㅜ	-10.1787
▁ㄱㅣㄹㅇㅓㅈㅣ	-10.1791
▁ㅂㅏㄴㄷㅐㅎㅏㄴㄷㅏ	-10.1794
▁ㅅㅣㄹㅕㄱ	-10.1796
▁ㄱㅗㅌㅗㅇ	-10.1796
▁ㅈㅔㄱㅣㅎㅏㄴ	-10.1799
ㅈㅏㅇㄱㅘ	-10.1808
▁ㅇㅣㅁㄴㅏ	-10.1808
▁ㅇㅢㅁㅜㄴㅇ	-10.1811
▁ㅇㅏㄶㄱㅔㅆㄷㅏ	-10.1812
▁ㅈㅣㄴㄷㅗㅇ	-10.1818
▁ㅈㅓㄱㅇㅛㅇㅎㅐ	-10.182
▁ㅎㅐㅅㅗ	-10.182
▁ㅅㅜㅎㅐㅇㅎㅏ	-10.1821
▁ㅊㅏㄱㅏ	-10.1825
▁ㅈㅣㅇㅕㄱㄱㅜ	-10.1838
▁ㄱㅣㅇㅓㄱ	-10.1841
▁ㅅㅓㅇㅂㅣ	-10.1845
▁ㅂㅜㄹㅇㅏㄴㅎㅏㄴ	-10.1849
ㅋㅣㄹㅗ	-10.1852
▁ㅇㅣㄴㅅㅣㄱ	-10.1854
ㄴㅣㅁㄲㅔㅅㅓ	-10.1856
▁ㄴㅏㅁㅇㅏㅇㅣㅆ	-10.1866
ㅈㅗㅅㅏㅇㅔ	-10.187
▁ㅂㅓㅁㅇㅟ	-10.1873
▁ㅎㅏㄱㅇㅝㄴ	-10.1874
▁ㅇㅕㅅㅜ	-10.1874
▁ㅈㅏㅇㅇㅐㅇㅣㄴ	-10.1877
▁ㅊㅜㄹㅇㅣㅂ	-10.1879
▁ㅈㅣㅈㅓㅇㅎㅐㅆ	-10.189
▁ㅇㅣㄲㅡㄹ	-10.1895
▁ㄱㅣㅇㅓㅂㅇㅣ	-10.1897
▁ㅎㅘㄹㅅㅓㅇㅎㅘ	-10.1913
▁ㅇㅟㅎㅓㅁㅎㅏ	-10.192
▁ㄷㅏㅇㅂㅜㄴ	-10.1923
▁ㅇㅠㅈㅣㅎㅏ	-10.1929
ㅅㅗㄱㅇㅔㅅㅓ	-10.1931
ㅂㅓㄹㅣㄴ	-10.1931
▁ㅂㅜㄱㅏ	-10.1933
▁ㅇㅘㄴ	-10.1941
ㅎㅜㄴ	-10.1949
▁ㅍㅏㄴㄷㅏㄴㅎㅐ	-10.1952
▁ㅂㅜㅌㅈㅏㅂ	-10.1957
ㅅㅏㅇㅇㅔㅅㅓ	-10.1959
ㄹㅔㅇㅣ	-10.196
▁ㅅㅡㅂ	-10.1968
▁ㄴㅏㅁㅈㅏ	-10.197
ㅇㅈㅣㄴ	-10.1984
▁ㄱㅏㄱㅣ	-10.1985
▁ㅂㅗㄴㅐㄴ	-10.1987
ㄷㅏㅇㅎㅏㄴㄷㅏ	-10.2007
ㄱㅡㅁㅇㅣ	-10.2015
▁ㄱㅡㅁㅇㅠㅇㅅㅣ	-10.2017
▁ㅂㅗㄴㄷㅏ	-10.2032
ㅅㅓㅇㄷㅗㅇ	-10.2034
▁ㅈㅜㅇㅇㅣㄹㅏ	-10.2035
▁ㄷㅡㄹㅇㅓㅇㅗ	-10.2037
ㄷㅏㄴㅅㅗㄱ	-10.2039
▁ㅌㅏㅁ	-10.2043
▁ㄱㅕㄹㅈㅔ	-10.2049
ㄱㅣㄱㅏㄴㅇㅡ	-10.205
▁ㅇㅕㄴㅂㅏㅇ	-10.2054
ㅍㅕㄴ	-10.2055
▁ㅈㅏㄱㅇㅛㅇㅎㅏ	-10.2057
▁ㅍㅛㅁㅕㅇㅎㅏ	-10.2057
▁ㄴㅐㅅㅔㅇㅝ	-10.2058
ㅁㅜㄹㅇㅡㄴ	-10.2064
▁ㅈㅜㅇㅇㅣㅇㅓㅆ	-10.2074
▁ㅈㅔㄱㅗㅇ	-10.2076
▁ㅈㅜㅈㅏㅇㅎㅏㄴ	-10.2079
ㅍ	-10.2085
▁ㄴㅡㄹㄹㅣ	-10.209
ㅎㅐㅂㅗㄱㅔㅆㄷㅏ	-10.2092
▁ㅎㅕㄴㅅㅣㄹㅇㅣ	-10.2095
▁ㅅㅣㄹㄹㅣ	-10.2101
▁ㅇㅓㅄㅇㅓㅆ	-10.2102
▁ㅅㅐㅇㄱㅏㄱㅎㅏ	-10.2103
ㅎㅘㄷㅚ	-10.211
▁ㅎㅚㅅㅏㅇㅔ	-10.2111
▁ㄱㅜㄷ	-10.2111
ㄷㅏㄴㅣ	-10.2111
ㅂㅏㅇㅅㅣㄱ	-10.2112
▁ㅇㅣㄴㅌㅓㄴㅔㅅㅇㅔ	-10.2112
▁ㅈㅔㅊㅜㄹ	-10.2121
▁ㅊㅓ	-10.2125
ㅜㄹㅣ	-10.2127
ㅅㅏㄹㅗ	-10.2129
ㄹㅣㅎㅏㄱ	-10.2129
▁ㅇㅕㄱㅝㄴ	-10.2129
▁ㅋㅐㅁㅍ	-10.2142
▁ㅍㅗㄱㅍㅜㅇㅇ	-10.2142
▁ㅇㅣㅂㅇㅝㄴ	-10.2146
ㅂㅣㄹㅗ	-10.2146
▁ㄴㅏㅅㅓㄹ	-10.2149
▁ㅈㅣㅇㅣㄴ	-10.2153
ㅈㅏㅇㄱㅘㄴㅇ	-10.2154
ㅇㅟㅇㅝㄴㄷㅡㄹ	-10.2155
▁ㅊㅟㄷㅡㄱ	-10.216
▁ㅅㅠ	-10.2161
▁ㅍㅗㄱㅎㅐㅇ	-10.2161
▁ㅎㅓㄹㅣㅋㅔㅇㅣㄴ	-10.2165
▁ㄱㅏㄴㄷㅏㅁㅎㅚ	-10.2165
▁ㄱㅓㄴㄱㅏㅇㅎㅏㅅㅣㄱㅣ	-10.2165
▁ㅂㅣㄹㅖㄷㅐㅍㅛ	-10.2165
▁ㅅㅏㄴㅇㅓㅂㅎㅕㄱㅁㅕㅇ	-10.2165
▁ㅇㅏㅁㅁㅐㅈㅏㅇ	-10.2165
▁ㅈㅏㅁㅅㅜㅎㅏㅁ	-10.2165
▁ㄱㅜㄱㄱㅏㅇㅏㄴㅂㅗ	-10.2165
▁ㅂㅏㅇㅊㅓㅇㄱㅐㄱㅇ	-10.2165
▁ㅊㅏㅁㅁㅗㄷㅡㄹ	-10.2165
ㅈㅐㄴㅏㄴㅇㅏㄴㅈㅓㄴ	-10.2165
▁ㅂㅔㅇㅣㅈㅣㅇ	-10.2165
▁ㅅㅜㅋㅓㅅ	-10.2165
▁ㄷㅏㅅㅅㅐ	-10.2165
▁ㅂㅐㄱㅎㅘㅈㅓㅁ	-10.2165
▁ㅊㅗㅇㅇㅏㄹㅇ	-10.2166
▁ㅋㅡㄹㅐ	-10.2166
▁ㅎㅕㄴㅇㅏㄴ	-10.2166
▁ㅊㅐㄱㄱㅏㅂㅏㅇ	-10.2166
ㅈㅓㅇㅇㅕㄴㅎㅠ	-10.2166
▁ㅅㅜㅇㅛㅇㅣㄹ	-10.2166
▁ㅇㅐㅆㅡ	-10.2166
▁ㅎㅕㄴㄷㅐㅈㅜㅇㄱㅗㅇㅇㅓㅂ	-10.2166
▁ㄱㅛㅈㅣㄱㅇㅝㄴ	-10.2167
ㅋㅠ	-10.2167
▁ㅅㅜㅁㄱㅣ	-10.2167
▁ㅇㅣㄹㅂㅔ	-10.2167
▁ㅊㅡㄱㅁㅕㄴㅇㅔㅅㅓ	-10.2168
ㅅㅜㅅㅏ	-10.2169
▁ㅇㅡㅁㄹㅛ	-10.2169
▁ㅈㅓㄴㄹㅕㄱㅅㅜ	-10.2169
▁ㅎㅗㅎㅘㅇㅇㅡㄹ	-10.2169
▁ㄱㅓㅁㅈㅓㅇ	-10.217
▁ㅂㅜㄴㄴㅗ	-10.217
▁ㄹㅔㅇㅣㄷㅓㅇ	-10.2171
▁ㅅㅗㅇㅆㅣ	-10.2172
ㅣㄷㅡ	-10.2173
ㅇㅠㄹㅇㅣ	-10.2173
▁ㅂㅏㄹㅁㅕㅇ	-10.2173
▁ㅁ	-10.2174
▁ㅌㅗㅇㄱㅖㅊㅓㅇㅇ	-10.2174
▁ㅎㅚㅈㅜㅇㅇㅔ	-10.2174
▁ㅎㅑㅇㅅㅏㅇ	-10.2174
▁ㅅㅓㄴㅂㅏㄱ	-10.2176
▁ㅎㅚㄱㅖ	-10.2176
▁ㅅㅜㅊㅏㄹㅖ	-10.2178
▁ㅊㅜㅇㅈㅓㄴ	-10.2178
ㅅㅣㅇㅢ	-10.2179
▁ㅂㅏㄴㅁㅜㄴ	-10.218
▁ㄱㅏㅁㄱㅡㅁ	-10.2181
▁ㄱㅛㅇㅠㄱㄱㅏㅁ	-10.2181
▁ㅌㅗㅇㅇㅣㄹ	-10.2181
▁ㅁㅏㅅㅕㅆ	-10.2183
▁ㅇㅠㅇㅖ	-10.2183
▁ㅅㅣㅅㅡㅌㅔㅁㅇ	-10.2185
▁ㅁㅜㄷㅇㅓ	-10.2187
▁ㅅㅗㅊㅓㅇ	-10.2187
▁ㅂㅗㅌㅗㅇ	-10.2188
▁ㄴㅐㄹㅕㅈㅣ	-10.2189
▁ㅂㅗㅇㅅㅏㅈㅏ	-10.219
▁ㅅㅣㄴㄴㅕㅁ	-10.2191
▁ㅎㅜㅅㅗㄱ	-10.2198
▁ㅇㅣㅅㅏㅈㅣㄱ	-10.2199
▁ㅊㅐㄱㅝㄴ	-10.2199
▁ㅇㅣㅈ	-10.2202
ㅁㅣㄹㄹㅣ	-10.2205
▁ㅇㅣㄹㅝㅈㅣㄱㅣ	-10.2206
▁ㄴㅡㅈㅊㅜ	-10.2209
▁ㅇㅏㄱㅎㅘㄷㅚ	-10.2218
▁ㅅㅐㄱ	-10.2218
▁ㅍㅐㄹ	-10.222
▁ㅁㅏㄴㅇㅣㄴ	-10.2221
▁ㅋㅏㅌ	-10.2223
▁ㄱㅗㅁ	-10.2231
▁ㄸㅜㄲㅓㅇㅇ	-10.2231
▁ㅇㅞㅇㅣ	-10.2231
ㅂㅓㅂㅈㅓㄱ	-10.2236
▁ㅅㅏㅅㅏㅇ	-10.2237
▁ㅎㅘㅎㅏㅂ	-10.2237
ㅈㅡㅇㅁㅕㅇ	-10.224
▁ㄱㅡㅁㅏㅈㅓ	-10.2245
ㅅㅓㅇㅜㄹ	-10.2248
▁ㄱㅗㅇㄱㅜㄴ	-10.225
▁ㄱㅏㄷㅡㄱㅎㅏ	-10.2251
▁ㅈㅗㅇㅅㅏㅎㅏ	-10.2261
▁ㅊㅏㅂㅕㄹ	-10.2261
▁ㅅㅣㄴㅂㅜㄴ	-10.2262
ㄱㅖㅇㅕㄹ	-10.2262
▁ㄸㅏㅈㅣ	-10.2263
ㄱㅏㅁㅎㅏㄴㄷㅏ	-10.2269
▁ㅎㅡㄹㄹㅓㄱㅏ	-10.2272
ㅈㅓㅇㅊㅣ	-10.2278
ㄱㅘㅈㅓㅇ	-10.2284
▁ㅅㅏㅇㅅㅏㅇ	-10.2288
▁ㅇㅓㄹㅕ	-10.2291
▁ㅎㅏㄴㄱㅜㄱㅇㅔ	-10.2294
▁ㄱㅜㄴㅇㅣㄴㄷㅡㄹ	-10.2295
ㅇㅣㅂㅎㅐㅆㄷㅏ	-10.2297
▁ㅎㅛ	-10.2297
ㄷㅔㄷㅏ	-10.2298
▁ㅁㅕㄴㅂㅏㄹㅇ	-10.23
▁ㅁㅏㅇㅡㅁㅇㅔ	-10.23
▁ㅎㅑㅇㅎㅏ	-10.2301
▁ㅍㅣㄹㅈㅏ	-10.2303
▁ㅈㅜㄹㅈㅣ	-10.2307
▁ㄱㅕㅇㅂㅣ	-10.2307
ㅋㅏㅇ	-10.231
ㄹㅗㄱㅜ	-10.2311
▁ㅅㅏㄹㅗㅈㅏㅂㅎㅣ	-10.2312
▁ㅂㅗㄴㅐㅈ	-10.2312
▁ㅂㅗㄴㅈㅣㄹㅇ	-10.2315
▁ㅎㅔㅇㅓㅈㅣ	-10.2326
▁ㅈㅔㅇㅏㄴㅎㅐㅆㄷㅏ	-10.2326
ㄱㅡㅂㅇㅡㄹ	-10.2337
▁ㅈㅏㄹㅛㅇㅔ	-10.2337
▁ㅊㅓㅇㄱㅜ	-10.2337
▁ㄱㅜㄱㅡㄹ	-10.234
▁ㅁㅏㄴㄷㅡㄹㅇㅓㅆ	-10.2347
ㄹㅠㄹㅗ	-10.2348
▁ㄷㅡㄹㅇㅓㄱㅏㄹ	-10.2353
▁ㅈㅓㅂㅎㅏ	-10.2354
ㅍㅗㅅㅡㅌㅡ	-10.2367
▁ㅈㅓㄴㅅㅗㄱ	-10.237
▁ㅇㅗㄹㄹㅣㄱㅗ	-10.2371
▁ㅇㅏㅇ	-10.2372
ㅋㅗㄴㅓ	-10.2384
▁ㄱㅏㅁㅅㅗㅎㅐ	-10.2385
▁ㄴㅗㄹㅐ	-10.2402
▁ㅁㅏㄹㅆㅡㅁㅇㅣㄴ	-10.2405
▁ㅈㅓㄴㅈㅜ	-10.2409
▁ㄴㅗㄴㅇㅢㅎㅏ	-10.241
▁ㄷㅡㄹㅇㅣㅂㅏㄷ	-10.242
▁ㄷㅙㅇㅑ	-10.2423
▁ㅂㅜㄴㄱㅏㄴ	-10.2424
▁ㅈㅜㄹㅇㅓㄷㅡ	-10.2431
▁ㅇㅣㅁㄱㅣ	-10.2432
▁ㅌㅗㅌ	-10.2432
▁ㅅㅜㄴㅊㅏ	-10.2438
▁ㅊㅏㄹㅣㅁ	-10.2441
▁ㅈㅐㄱㅐㅎㅏ	-10.2443
▁ㅂㅕㅇㅇㅡㄹ	-10.2444
▁ㅇㅕㄹㄹㅕㅆ	-10.2445
▁ㅌㅜㅇㅣㅂㅎㅏㄴ	-10.2451
▁ㄱㅐㅅㅓㄴㄷㅚ	-10.2453
▁ㅈㅔㅊㅜㄹㅎㅐㅆ	-10.2455
▁ㅁㅏㄹㅇㅔ	-10.2457
▁ㅇㅣㄲㅡㄹㅇㅓ	-10.2466
▁ㅈㅓㅇㅎ	-10.2491
▁ㅇㅠㄹㅣ	-10.2493
▁ㅈㅓㅇㅊㅏㄱ	-10.2493
ㅕㄴㅗㅎ	-10.2495
▁ㅇㅏㄹㄹ	-10.2499
▁ㅇㅏㄴㅂㅗㅇ	-10.2503
ㅎㅖㅌㅐㄱ	-10.2509
ㅎㅕㅁㅇㅢ	-10.251
ㅂㅓㅁㅈㅚ	-10.2511
ㅇㅖㅅㅏㄴ	-10.2514
ㄱㅛㅌㅗㅇ	-10.2521
▁ㅅㅣㅁㅅㅏ	-10.2532
▁ㅅㅓㅇㅅㅓㅇㅔㅅㅓ	-10.2534
▁ㅈㅜㅈㅏㅇㅎㅏ	-10.2536
ㄱㅜㅁㅐ	-10.2537
▁ㄴㅐㄱㅔ	-10.2537
▁ㅇㅣㅂㅏㄲㅇㅔ	-10.2537
▁ㄴㅡㄲㅕ	-10.2538
▁ㅊㅓㅇㅡㅁㅇㅣ	-10.254
ㅈㅓㄴㅎㅏㄴ	-10.2543
▁ㄱㅏㄱㅗ	-10.2548
▁ㄷㅗㄹㄹㅕ	-10.2549
ㅊㅏㅁ	-10.2553
▁ㅂㅏㅈㅣ	-10.2553
▁ㅈㅜㅇㅓㅆ	-10.2553
ㅈㅓㅇㅈㅣ	-10.2558
▁ㅂㅜㄷㅡㄹ	-10.2559
▁ㅇㅕㄹㅇㅓㅆㄷㅏ	-10.256
▁ㅁㅏㅅㅇㅣ	-10.2565
▁ㄷㅡㄹㅇㅓㅅㅓ	-10.2565
ㅕㅇ	-10.2565
▁ㄷㅡㄹㅣ	-10.2572
▁ㅂㅏㅇㅅㅏ	-10.2578
▁ㅇㅛㅇㅅㅓ	-10.258
▁ㅂㅜㄴㄷㅡㄹㅇㅣ	-10.2583
▁ㄴㅗㄹㅣ	-10.2585
▁ㅈㅣㅁ	-10.2587
▁ㄱㅜㄱㅁㅣㄴㄱㅘ	-10.2588
▁ㅈㅣㅊㅜㄹ	-10.2589
ㅇㅠㅈㅣ	-10.2589
▁ㄱㅡㅂㅗㄷㅏ	-10.2591
ㅌㅣㅁㅈㅏㅇㅇㅡ	-10.2591
▁ㅍㅏㄹㄹㅣ	-10.2601
▁ㄱㅗㅇㅇㅠ	-10.2601
▁ㄱㅏㅁㅕㄴ	-10.2602
▁ㅅㅏㅈㅏ	-10.2608
▁ㄱㅡㄴㅁㅜㅎㅏ	-10.2616
▁ㅂㅏㄴㅅㅓㅇㅎㅏ	-10.262
▁ㅇㅣㄱ	-10.2626
▁ㅇㅏㅂㅅㅜㅅㅜㅅㅐㄱ	-10.2641
▁ㅋㅡㄹㅣㅅㅡㅁㅏㅅㅡ	-10.2641
ㄲㅗㄹㅇㅣ	-10.2642
▁ㄱㅗㅇㄱㅛㄹㅗㅂㄱㅔ	-10.2642
▁ㅇㅏㄴㄷㅡㄹㅔㅇㅏ	-10.2642
▁ㅇㅘㅇㄱㅜㄱㅎㅚㄱㅘㄴ	-10.2642
ㅅㄱㅏㅄ	-10.2642
ㅆㅢㅇㅝㅈ	-10.2642
ㅈㅓㅇㅎㅗㅇㅂㅗㅂㅣㅅㅓㄱㅘㄴㅇ	-10.2642
▁ㄱㅐㅂㅏㄹㄷㅗㅅㅏㅇㄱㅜㄱ	-10.2642
▁ㅈㅣㄱㅁㅜ	-10.2642
▁ㅊㅓㅇㄹㅕㅁ	-10.2642
▁ㅎㅜㄹㄹㅠㅇㅎㅏ	-10.2642
▁ㅅㅣㅇㄱㅡㄹ	-10.2642
▁ㅎㅡㄹㄹㅣㄱㅗ	-10.2642
▁ㅈㅗㄴㄱㅕㅇㅎㅏ	-10.2642
▁ㅋㅓㄴㅂㅔ	-10.2642
▁ㄱㅕㅇㅎㅑㅇ	-10.2642
▁ㅎㅔㅁㅐ	-10.2642
ㅇㅁㅕㅇㄹㅕㅇ	-10.2642
▁ㅇㅠㅎㅗㄱ	-10.2642
▁ㅇㅏㄹㅇㅏㄷㅡㄷ	-10.2642
▁ㅈㅓㅇㅎㅐㅈㅣㅈㅣ	-10.2642
▁ㄷㅏㄱㅊㅕㅆ	-10.2642
▁ㄴㅠㅇㅛㄱㅌㅏㅇㅣㅁㅅㅡ	-10.2642
▁ㅇㅢㄹㅛㄱㅣㄱㅘㄴ	-10.2643
▁ㄴㅓㅎㅢ	-10.2643
▁ㄴㅏㅇㅏㄱㅏ	-10.2643
▁ㅊㅜㄱㅕㄱ	-10.2644
▁ㄱㅜㄱㅈㅓㅇㄱㅛㄱㅘㅅㅓ	-10.2644
▁ㄱㅜㄱㅈㅔㅅㅏㅎㅚ	-10.2644
▁ㅈㅏㅇㄹㅕㅎㅏㄴㅡㄴ	-10.2644
▁ㅊㅜㄱㅂㅗㄱ	-10.2644
▁ㄸㅟㅇㅓㄷㅡㄹㅇㅓ	-10.2645
▁ㅈㅓㄹㅕㅁㅎ	-10.2645
▁ㄴㅚㅁㅜㄹ	-10.2646
▁ㄱㅜㄱㄹㅣㅂ	-10.2647
▁ㅇㅕㅇㅇㅣㅂ	-10.2647
▁ㄱㅏㅌㅇㅏㅇㅛ	-10.2648
▁ㅇㅙㄴㅑ	-10.2648
ㅣㅇㅓ	-10.2649
▁ㅊㅗㅂㅏㄴ	-10.265
▁ㅎㅡㄴㅈㅓㄱ	-10.2651
▁ㅁㅣㄱㅜㄴ	-10.2652
▁ㅈㅓㄴㅅㅔㄱㅖ	-10.2653
▁ㅊㅓㄹㅎㅏㄱㅇ	-10.2654
▁ㅎㅏㄹㅏㄱㅅㅔ	-10.2654
▁ㄱㅣㅍㅇㅓ	-10.2658
▁ㅊㅜㄹㄱㅏㄴ	-10.2659
▁ㅎㅘㅎㅏㄱ	-10.2659
▁ㅅㅏㄴㅇㅓㅂㅂㅜ	-10.266
▁ㅅㅏㅇㅇㅣㅁ	-10.266
▁ㅋㅓㄴ	-10.2661
▁ㅈㅣㅇㅣㄴㄷㅡㄹ	-10.2662
▁ㅂㅜㅈㅗㄱㅎㅏㅁㅇㅡㄹ	-10.2663
▁ㄷㅗㄹㄹㅕㅈㅜ	-10.2663
▁ㄱㅜㄱㅈㅓㅇㅎㅘ	-10.2665
▁ㅈㅣㄱㅈㅓㄴ	-10.2667
▁ㄱㅣㅅㅏㅇㅔ	-10.2673
▁ㅅㅣㄹㅈㅓㄴ	-10.2673
▁ㅇㅜㅎㅚ	-10.2674
▁ㅇㅚㅁㅕㄴ	-10.2675
▁ㅁㅏㅌㅡ	-10.2675
▁ㅊㅟㅇㅓㅂ	-10.2678
ㅅㅔㅌㅡ	-10.2679
▁ㅈㅜㄹㅇㅓㅆㄷㅏ	-10.2684
▁ㅁㅓㅁㅜㄹ	-10.2685
▁ㅎㅏㅂㅕㄴ	-10.2686
ㄴㅁㅏㅇㅡㄹ	-10.2688
ㄱㅕㅇㅊㅏㄹㅅㅓ	-10.2689
▁ㅁㅣㄴㄱㅏㄴㅇㅣㄴ	-10.2689
▁ㅂㅗㅈㅗㄴ	-10.2691
▁ㅇㅖㅈㅓㄴ	-10.2694
▁ㄱㅗㅇㅟ	-10.2698
▁ㅇㅟㅅ	-10.2703
▁ㅊㅣㅁㅊㅔ	-10.2705
▁ㅅㅣㄱㅡㅂ	-10.2706
▁ㅁㅗㄹㄹㅣ	-10.2707
▁ㄷㅏㄴㅕㅆㄷㅏ	-10.2707
▁ㅅㅣㄹㅈㅣㄹ	-10.2711
▁ㅈㅗㅎㅇㅡㄹ	-10.2713
▁ㄷㅐㄷㅐㅈㅓㄱㅇ	-10.2714
▁ㅍㅜㄴ	-10.2715
▁ㅈㅏㄱㅇㅛㅇㅎㅐㅆㄷㅏ	-10.2716
▁ㄴㅓㅁㅇㅓㅆㄷㅏ	-10.2716
▁ㅁㅏㅋㅡ	-10.2719
▁ㅎㅐㅂㅓㅂㅇㅡㄹ	-10.2723
▁ㄹㅗㅂㅣ	-10.2725
▁ㅊㅜㄹㅁㅏㅎㅏ	-10.273
▁ㅎㅐㅅㅜㅇㅛㄱㅈㅏㅇ	-10.2731
▁ㄷㅗㄷㅓㄱㅈㅓㄱ	-10.2734
▁ㅃㅜㄴㅇㅣㄷㅏ	-10.2735
▁ㅇㅠㅊㅣ	-10.2737
▁ㅂㅗㅈㅡㅇ	-10.2737
▁ㅂㅜㄹㄱㅜㅅㅗㄱ	-10.2737
▁ㅂㅜㄹㅍㅕㄴ	-10.2738
▁ㄱㅗㅅㅣㅁ	-10.2744
▁ㄴㅏㄱㅏㅆㄷㅏ	-10.2749
▁ㄷㅐㅈㅜㅇ	-10.2749
▁ㅎㅘㄹㅇㅛㅇㅎㅐ	-10.2751
▁ㄷㅏㄹㅇㅏ	-10.2753
ㅇㅎㅏㄴ	-10.2754
▁ㄱㅏㅁㅊㅜ	-10.2758
▁ㅅㅗㅅㅗㄱ	-10.2758
▁ㅅㅣㅅㅣㄴㅇㅡㄹ	-10.2763
▁ㄷㅗㅂㅏㄹㅇㅔ	-10.2765
▁ㄱㅕㅇㅎㅓㅁㅇㅡㄹ	-10.2766
▁ㅅㅡㅁㅏㅌㅡㅍ	-10.2767
▁ㅎㅏㅇㅟ	-10.2772
▁ㅁㅜㄹㅈㅣㄹ	-10.2773
▁ㅈㅣㄴㅏㄴㅈㅜ	-10.2775
▁ㄴㅗㅊㅜㄹ	-10.2778
ㅇㅠㄱㅏ	-10.2779
▁ㅇㅕㅈㅜ	-10.2781
ㅊㅓㅇㅇㅑㄱ	-10.2786
▁ㄷㅏㄺㅇ	-10.2786
▁ㅅㅣㄹㅎㅕㄴ	-10.2787
ㅚㅇㅢ	-10.2788
▁ㅍㅡㄹㄹㅏ	-10.2795
▁ㄱㅛㄱㅘㅅㅓ	-10.2797
▁ㅅㅐㄴㅜㄹㅣㄷㅏㅇㅇㅔ	-10.2798
▁ㅁㅣㄴㅣㅇ	-10.2807
ㅅㅜㅁㅕㅇㅇㅣ	-10.281
▁ㅈㅔㅇㅚ	-10.2811
ㅊㅐ	-10.2812
ㅍㅏㄴㅇㅔ	-10.2812
▁ㅅ	-10.2833
ㅇㅎㅜㄴ	-10.2842
ㅈㅜㄴㅎㅗ	-10.2843
▁ㅈㅏㄱㅡㅁㅇㅡㄹ	-10.2847
▁ㄷㅏㄴㄱㅖㅇㅔㅅㅓ	-10.2849
▁ㅅㅣㄱㅇㅣ	-10.2856
ㄱㅣㅅㅏ	-10.2858
▁ㄱㅕㅇㅊㅏㄹㄷㅡㄹ	-10.2858
ㅅㅣㄴㅇㅛㅇ	-10.2877
ㅈㅡㅇㅇㅡㄹ	-10.2879
ㅈㅏㅂㅗㄴ	-10.2882
▁ㅎㅏㄴㅇㅜ	-10.2883
ㅅㅣㄱㅏㄴㄷㅐ	-10.2891
ㅕㄱㅇㅣ	-10.2901
▁ㅇㅝㄴㅇㅣㄴㅇㅡㄹㅗ	-10.2902
ㅋㅜㄹ	-10.2914
▁ㅋㅓㅆㄷㅏ	-10.2915
▁ㅎㅘㄱㅇㅣㄴㅎㅏㄹ	-10.2917
▁ㅍㅏㄹㅇㅏ	-10.2921
▁ㄱㅡㄱㅂㅗㄱ	-10.2923
▁ㅅㅜㅎㅏㄱ	-10.2925
ㅂㅗㅇㅘ	-10.2939
▁ㄱㅗㄷㅐ	-10.2945
▁ㅍㅐ	-10.2946
▁ㅎㅏㄷㅓ	-10.2952
ㅂㅓㅂㅇㅡㄹ	-10.2955
▁ㅂㅓㄴㅈㅣ	-10.2958
▁ㅇㅏㄴㄹㅏㄱ	-10.2972
ㅇㅓㅁ	-10.2989
▁ㄷㅙㅈㅣ	-10.2989
▁ㅂㅜㅊㅓ	-10.2996
▁ㅈㅓㄴㄱㅣ	-10.2999
▁ㄴㅐㄷㅏ	-10.3002
▁ㅂㅏㅁㅇㅔ	-10.3004
ㅈㅏㄱㅇㅓㅂ	-10.3011
ㄸㅏㄱ	-10.3014
▁ㅊㅜㄱ	-10.3015
▁ㄴㅏㅁㅉㅗㄱ	-10.3015
ㅍㅗㄱㄹㅕㄱ	-10.3017
▁ㅈㅣㅂㅜ	-10.3017
▁ㅇㅜㄹㅕㅎㅏㄴ	-10.3024
▁ㅅㅜㅍ	-10.3024
ㄱㅕㅇㅂㅣ	-10.3025
▁ㅅㅜㅅㅏㅇ	-10.3026
▁ㅎㅐㅇ	-10.3032
▁ㅈㅗㅇㅓㄴ	-10.3033
ㅓㅅㅓ	-10.3041
ㅂㅜㄴㅇㅑ	-10.3045
ㅌㅡㄱ	-10.3053
ㅅㅏㄱㅓㄴㅇㅣ	-10.3053
ㅈㅜㅇㄹㅣㅂ	-10.3056
ㅈㅓㅇㅇㅝㄴ	-10.3057
▁ㅅㅡㅌㅏㅌ	-10.306
▁ㅎㅜㅂㅗㄹㅗ	-10.3061
ㄱㅕㅇㅇㅚ	-10.3068
ㅔㅅㅓㄴ	-10.3075
ㅂㅗㄴㄱㅘㄴ	-10.3075
ㄴㅡㅈㄱ	-10.3077
ㅇㅜㄴㅈㅓㄴ	-10.3079
▁ㅂㅜㅂㅜㄱㅏ	-10.3091
▁ㅇㅣㅁㅅㅣ	-10.3095
▁ㅁㅏㄹㅎㅏㅁㅕㄴ	-10.3101
ㅁㅜㄴㅅㅜ	-10.3103
▁ㅇㅣㄹㅜㅇㅓㅈㅣ	-10.3104
ㄷㅗㅅㅣ	-10.3112
ㅈㅣㄴㅇㅕㅇ	-10.3121
▁ㄱㅏㅌㅇㅏㅆ	-10.3121
▁ㄹㅔㅇㅣ	-10.3131
▁ㅇㅑㅇㅅㅣㅁ	-10.3135
▁ㅎㅏㄴㄱㅜㄱㅅㅏ	-10.3135
ㅅㅣㄱㅔㅆ	-10.3138
ㅍㅐㅅ	-10.314
▁ㅅㅑㅇㅗ	-10.3141
▁ㄲㅡㄹㅇㅓㅇㅗㄹㄹㅣㄱ	-10.3142
▁ㅅㅣㄹㅅㅗㄴㅂㅗㅎㅓㅁ	-10.3142
▁ㄷㅏㅇㄴㅛㅂㅕㅇㅇ	-10.3142
▁ㅁㅗㄹㄷㅏㅂㅣㅇㅏ	-10.3142
▁ㅂㅡㄹㅓㄴㅊㅣ	-10.3142
▁ㅅㅓㅇㅜㄹㅅㅜㅍㅇ	-10.3142
▁ㅇㅗㅁㅏㅇㅣㄴㅠㅅㅡ	-10.3142
▁ㅇㅜㄴㅈㅓㄴㅁㅕㄴㅎㅓ	-10.3142
▁ㅋㅓㄴㅌㅔㅇㅣㄴㅓ	-10.3142
▁ㅍㅔㅁㅣㄴㅣㅈㅡㅁㅇ	-10.3142
▁ㄱㅓㅁㅣㅈㅜㄹ	-10.3142
▁ㅅㅔㅇㅐㄱㄱㅗㅇㅈㅔㄹ	-10.3142
▁ㅁㅏㅇㅅㅓㄹㅇㅣ	-10.3142
▁ㄱㅗㄴㅊㅜㅇ	-10.3142
▁ㅊㅐㅁㅜ	-10.3142
▁ㅁㅏㅇㅣㅁㅜ	-10.3142
▁ㄱㅛㄷㅗㄱㅘㄴ	-10.3142
▁ㅇㅏㅁㅏㅈㅗㄴ	-10.3142
ㅅㅓㅇㅎㅑㅇ	-10.3142
ㅠㅇㅓㄹ	-10.3142
▁ㅍㅏㄱㅕㄴㄷㅙㅆ	-10.3142
▁ㅅㅏㅇㅜㄷㅣ	-10.3142
▁ㅇㅣㅅㅡㄹㄹㅏㅁㄱㅜㄱㄱㅏ	-10.3142
▁ㅇㅣㅂㅈㅜㅁㅜㄹㄹㅑㅇㅇ	-10.3142
▁ㅈㅏㅊㅣㅅ	-10.3142
▁ㅇㅏㄶㄱㅔㅆㄴㅡㄴㅑ	-10.3142
ㅁㅜㄴㅎㅘㅇㅠㅅㅏㄴ	-10.3142
▁ㅇㅣㅈㅓㅇㅎㅕㄴ	-10.3142
▁ㄱㅕㅇㅜㄹㅊㅓㄹ	-10.3143
▁ㅅㅣㅎㅡㅇ	-10.3143
▁ㅇㅕㅎㅐㅇㄱㅐㄱ	-10.3144
▁ㅂㅔㄴㅔㅅ	-10.3144
ㅊㅏㅇㅣㄴㅏㅁㅗ	-10.3144
ㅇㅣㅅㅕㄴ	-10.3144
▁ㅁㅏㄴㄱㅏㄱㅜ	-10.3144
▁ㅍㅛㅈㅓㅇㅇㅣ	-10.3144
ㄹㅡㅁㅗㄴ	-10.3145
ㅁㅜㅈㅗㄱㅓㄴ	-10.3145
▁ㅅㅜㄱㅈㅜ	-10.3145
▁ㅇㅣㅇㅚㅇㅔ	-10.3146
▁ㅂㅗㄴㅎㅚㅇㅢ	-10.3146
▁ㄷㅏㅁㅇㅏ	-10.3146
▁ㅁㅜㅇㅓㅅㅇㅣㄴㄱㅏ	-10.3146
▁ㄱㅜㄱㅂㅏㅇㅇㅟ	-10.3146
ㅂㅏㄹㅂㅕㅇㄹㅠㄹㅇ	-10.3147
▁ㅎㅘㄴㄱㅡㅂ	-10.3147
▁ㅊㅜㅇㅊㅓㅇ	-10.3148
▁ㄴㅡㅇㄹㅕㄱㅈㅜㅇㅢ	-10.3148
▁ㅈㅡㅇㅇㅕ	-10.3149
▁ㅇㅕㄴㅂㅗㅇ	-10.3149
▁ㄴㅓㅁㄱㅣㄴ	-10.315
▁ㅌㅚㅊㅣ	-10.3151
▁ㄱㅓㄹㅇㅡㅁ	-10.3151
▁ㄱㅗㅇㄷㅗㅇㅊㅔ	-10.3151
▁ㄱㅏㅈㅏ	-10.3151
ㅍㅡㄹㅏㄴ	-10.3151
▁ㄴㅗㅎㅇㅏ	-10.3153
▁ㅈㅔㅇㅏㅂ	-10.3153
▁ㅇㅣㄹㅝㅈㅕㅆㄷㅏ	-10.3153
▁ㅇㅜㅅㄷㅗㄴㅇ	-10.3153
▁ㄷㅏㅇㅂㅓㄴ	-10.3154
▁ㅎㅣㄹ	-10.3155
▁ㅁㅗㅈㅣㅂ	-10.3155
▁ㅁㅐㄹㅕㄱ	-10.3157
ㅎㅕㄴㅆㅣ	-10.3157
▁ㅍㅏㄷㅗㅇ	-10.3157
ㅅㅓㅇㅎㅏㄱㅔㅆㄷㅏ	-10.3157
▁ㅇㅣㄴㅅㅏㄱㅝㄴ	-10.3158
▁ㅍㅣㅎㅏ	-10.316
▁ㅊㅜㅈㅗㅇ	-10.316
▁ㅇㅠㄹㅕㄱㅎㅏ	-10.3161
▁ㅆㅡㅇㅣ	-10.3161
▁ㅂㅏㄱㅊㅏㅇ	-10.3162
▁ㅇㅘㅇㅅㅣㄹ	-10.3162
▁ㅂㅐㅈㅔㅎㅏ	-10.3164
▁ㅍㅜㄹㄹㅕㄴㅏ	-10.3165
▁ㄲㅗㅊㅇㅣ	-10.3166
▁ㄱㅕㅇㄱㅖ	-10.3166
▁ㅂㅓㄹㅕㅈ	-10.3168
▁ㄲㅐㅇㅑ	-10.317
▁ㅊㅣㅁㅌㅜㅎ	-10.317
▁ㅇㅜㄴㄷㅗㅇ	-10.3171
▁ㅈㅜㅇㅂㅏㄴ	-10.3172
▁ㄱㅗㅇㅁㅗ	-10.3172
▁ㅈㅓㄱㅎㅏㅂㅎㅏ	-10.3173
ㅂㅕㅇㄷㅐ	-10.3176
▁ㄱㅜㄱㅁㅕㅇ	-10.3179
▁ㅋㅡㄹㅣㅅㅡㅌㅣ	-10.3179
ㅣㅁㅜㄴ	-10.318
ㄷㅎㅕ	-10.3181
▁ㅇㅠㅊㅜㄹ	-10.3184
▁ㄷㅏㅇㄷㅏㅇㅎ	-10.3186
ㄷㅏㄱㅊㅣ	-10.3186
▁ㅁㅜㄹㄱㅓㄴ	-10.3187
▁ㅈㅣㅇㅝㄴㅂㅏㄷ	-10.319
▁ㅈㅜㅇㄷㅗ	-10.3193
▁ㅈㅗㄱㅖㅈㅗㅇ	-10.3194
ㄹㅗㅂㄱㅔ	-10.3195
ㅕㄴㅅㅓㅇ	-10.3195
▁ㅈㅜㅅㅣㄱ	-10.3196
ㄱㅜㅇㅕㄱ	-10.32
▁ㄱㅜㄴㅇㅣㄴ	-10.3202
▁ㄴㅔㅌㅣㅈㅡㄴㅇㅣ	-10.3205
▁ㅈㅜㅅㅓㄱ	-10.3206
▁ㄱㅜㄱㄹㅣㅂㄱㅗㅇㅇㅝㄴ	-10.3207
ㅗㅈㅗ	-10.3209
ㅂㅓㅂㅈㅓㅇㅇㅔㅅㅓ	-10.3212
▁ㄱㅏㅈㅓㄴㅈㅔㅍㅜㅁ	-10.3214
ㅈㅜㅇㄱㅗㅇㅇㅓㅂ	-10.3215
ㅅㅗㅇ	-10.3215
ㅣㅁㅇㅡㄹ	-10.3218
▁ㅅㅗㅈㅏㅇ	-10.3222
▁ㅇㅝㄴㅈㅜㅁㅣㄴ	-10.3229
ㅋㅗㄹㅣㅇㅏ	-10.3243
▁ㄴㅓㅁㅇㅓㄱㅏ	-10.3247
▁ㄷㅐㄹㅣ	-10.3249
▁ㅎㅐㅅㅏㅇㅇㅔㅅㅓ	-10.3249
ㅈㅣㄷㅐ	-10.3254
▁ㅁㅜㄹㅍㅜㅁ	-10.3256
▁ㄱㅜㅂㅜㄴ	-10.3259
ㅂㅜㄷㅐ	-10.3264
▁ㄱㅏㄹㄷㅡㅇㅇㅡㄹ	-10.3266
▁ㄷㅟㅈㅣㅂ	-10.3268
▁ㅇㅏㄹㅇㅏㅆ	-10.3268
▁ㅅㅏㄻㅇ	-10.3284
▁ㅇㅖㅇㅑㄱ	-10.3287
ㅂㅜㅎㅏㄴ	-10.3289
▁ㄱㅗㅇㅈㅜ	-10.329
ㅓㅁㅇㅡㄹ	-10.3291
▁ㄴㅕㄴㅉㅐ	-10.3292
▁ㅈㅡㄱㅅ	-10.3295
▁ㄱㅗㅁㅣㄴㅎㅏ	-10.3295
▁ㅂㅏㅂㅣ	-10.3302
ㅇㄱㅘ	-10.3302
ㄷㅓ	-10.3303
▁ㅇㅣㅂㅈㅡㅇ	-10.3306
▁ㅌㅗㄹㅗ	-10.3307
▁ㅂㅏㄱㅅㅜ	-10.3308
ㅈㅓㅇㅅㅏ	-10.3309
▁ㅇㅗㄴㅈㅓㄴㅎ	-10.3313
▁ㅊㅗㅇㅅㅜ	-10.3315
▁ㅁㅏㅊㅏㄴㄱㅏㅈㅣㅇㅣ	-10.3317
ㄴㅐㅆㄷㅏ	-10.3322
▁ㅈㅔㅅㅣㅎㅏ	-10.3343
ㅂㅗㅇㅕㅆ	-10.3347
▁ㄸㅓㄹㄹㅣ	-10.3351
▁ㅁㅗㄱㅣ	-10.3353
▁ㅂㅏㄴㄱㅜㄴㅇ	-10.3358
▁ㄱㅓㅅㅇㅣㅁ	-10.3363
▁ㅊㅚㅈㅓㄴ	-10.3363
▁ㅈㅗㅎㅇㅏ	-10.3371
ㅇㅟㅇㅝㄴㅎㅚㅇㅔㅅㅓ	-10.3375
▁ㅈㅏㅇㅂㅗ	-10.3382
▁ㅎㅗㅈㅜ	-10.3383
ㅓㅇㅇㅐ	-10.339
ㄱㅡ	-10.3393
▁ㅂㅏㅇㅈ	-10.3397
▁ㄱㅣㅁㅈㅣㄴ	-10.3406
ㅂㅡㄹㅏ	-10.3409
▁ㅊㅣㄴㄱㅜㄷㅡㄹ	-10.3425
ㄹㄹㅣㄴㅡㄴ	-10.3445
▁ㄷㅏㄴㅅㅜㄴ	-10.3447
▁ㄴㅓㅁㅇㅓ	-10.3451
▁ㅇㅗㅋㅡ	-10.3453
ㅖㄹㅣ	-10.3455
▁ㄴㅓㄴ	-10.3457
ㅈㅏㅇㅈㅜ	-10.3461
▁ㄱㅗㅇㄱㅐㅎㅐㅆ	-10.3461
▁ㅈㅗㅎㅏㅇㅇ	-10.3462
ㄲㅓㅂ	-10.347
ㄷㅏㄴㅇㅝㄴㄱ	-10.3473
▁ㄱㅣㄴㅡㅇㅇㅣ	-10.3477
▁ㅇㅠㅂㅏㄹㅎ	-10.3479
ㅌㅡㄱㅇㅟ	-10.3486
▁ㅈㅜㅈㅏㅇㅎㅐ	-10.3487
▁ㄱㅗㅎㅑㅇ	-10.3492
▁ㅈㅓㅇㄹㅣ	-10.3515
▁ㅇㅙㄱㅗㄱㄷㅚ	-10.3516
▁ㅈㅓㄴㅂㅜ	-10.352
▁ㅂㅓㅂㅇㅡㄹ	-10.3528
ㅊㅐㄱㅇㅣ	-10.3531
ㅂㅏㅇㅣㄹㅓㅅㅡ	-10.3536
ㅇㅏㄴㅈㅓㄴ	-10.3537
▁ㄷㅗㅇㄴㅔㅇㅢ	-10.3541
ㅅㅓㄹㄱㅖ	-10.3546
▁ㅁㅗㅇㅣㄴ	-10.3548
ㅈㅜㅌㅐㄱ	-10.3548
ㅂㅜㄷㅏㅁ	-10.3552
▁ㄷㅗㅂㅏㄹ	-10.3552
ㅋㅗㅁ	-10.356
ㅇㅣㅆㄴㅡㄴ	-10.3571
▁ㅈㅜㅅㅣㄴ	-10.3572
▁ㄷㅗㄷㅓㄱ	-10.3574
▁ㄱㅏㅇㄹㅕㄱㅎ	-10.3578
ㅈㅜㅁㅣㄴ	-10.358
▁ㅅㅣㅁㄱㅏㄱ	-10.3583
ㅌㅡㄴ	-10.3606
▁ㅂㅗㅇㅕㅆㄷㅏ	-10.361
▁ㅂㅜㅈㅓㅇ	-10.361
▁ㄴㅐㅇ	-10.3611
▁ㄱㅏㅁㅏ	-10.3612
ㅎㅛㄱㅘ	-10.3614
ㅅㅏㅇㅌㅐㅇㅔ	-10.3616
▁ㄱㅗㅌㅗㅇㅇㅣ	-10.3616
▁ㅃㅜㄴㅇㅣ	-10.3619
▁ㅈㅣㄴㅎㅐㅇㄷㅙ	-10.362
▁ㅊㅜㅁㅗ	-10.362
▁ㅂㅜㅅㅏㅇㅎㅏ	-10.3625
▁ㅈㅔㅊㅜㄹㅎㅏ	-10.3627
ㅏㅇㅑ	-10.3627
▁ㅇㅕㄹㅓㅂㅜㄴㄷㅡㄹㅇ	-10.3634
ㅈㅏㄶㅇㅏㅇㅛ	-10.3638
▁ㅅㅐㅇㄱㅕ	-10.3638
▁ㅅㅣㄴㄷㅗㅇ	-10.3641
▁ㄱㅗㅇㄱㅐㅎㅏ	-10.3647
ㅈㅓㅇㄷㅚㄴ	-10.3649
ㅂㅗㅅㅜ	-10.3653
ㅂㅜㄱㅕㅇㅊㅏㄹㅅㅓ	-10.3654
▁ㅂㅕㄱ	-10.3656
▁ㄴㅏㅂㄷㅡㄱ	-10.366
▁ㅁㅕㅇㅍㅜㅁ	-10.3661
▁ㅈㅗㄴㅈㅐ	-10.3665
▁ㄴㅗㅊㅜㄹㄷㅚ	-10.3667
▁ㄴㅏㅃㅏㅈㅣ	-10.3668
▁ㄸㅔㅇㅓㄴㅐ	-10.3668
▁ㅂㅕㅇㅇㅕㄱㅂㅣㄹㅣ	-10.3668
▁ㅂㅜㅈㅏㅇㅍㅏㄴㅅㅏ	-10.3668
▁ㅇㅔㄱㅅㅔㄹ	-10.3668
▁ㅈㅐㄱㅜㅊㅜㄱ	-10.3668
▁ㅊㅓㅅㅂㅓㄴㅉㅐ	-10.3668
▁ㅍㅏㅊㅜㄹㅅㅗ	-10.3668
ㅌㅓㅁㅣㄴㅓㄹ	-10.3668
▁ㄱㅜㄱㅈㅓㅇㄱㅏㅁㅅㅏ	-10.3668
▁ㅅㅜㅇㅂㅐ	-10.3668
▁ㅇㅏㄲㅣ	-10.3668
▁ㅈㅣㄴㅅㅏㅇㄱㅠㅁㅕㅇ	-10.3668
ㄲㅣㄹㅣ	-10.3668
ㅁㄱㅏㅄ	-10.3668
▁ㅇㅏㅅㅇㅏ	-10.3668
ㅎㅟㅎㅏㄴㅡㄴㅑ	-10.3668
ㅅㅏㄱㅗ	-10.3668
▁ㅁㅗㄹㄷㅗㅂㅏ	-10.3668
▁ㅈㅐㅇㅣㅁㅇㅛㅇ	-10.3668
▁ㄱㅏㅈㅕㄱㅏㄹ	-10.3668
▁ㅈㅣㅈㅏㅊㅔ	-10.3668
ㅋㅐㅁㅍㅓㅅㅡ	-10.3668
▁ㅂㅜㅊㅜㄱㅣ	-10.3668
▁ㅁㅣㅎㅗㄴ	-10.3668
▁ㄷㅏㅅㅔㄷㅐ	-10.3668
▁ㅈㅗㅈㅏㄱ	-10.3668
▁ㅋㅗㄴㅌㅔㄴㅊㅡ	-10.3668
▁ㅊㅜㄱㅇㅢㄱㅡㅁ	-10.3668
▁ㅋㅗㄹㅔ	-10.3668
▁ㄷㅣㅍㅡㄹㄹㅔ	-10.3668
▁ㅁㅣㅇㅝㅎㅏ	-10.3668
▁ㅁㅣㅇㅗㄴㅈㅓㄱㅇㅣ	-10.3668
▁ㅅㅓㅂㅊㅟ	-10.3668
▁ㅂㅏㄴㅎㅏㅇㅇ	-10.3669
ㅅㅡㄹㅓㅇㅝ	-10.3669
▁ㅎㅏㄴㅂㅏㄴㄷㅗ	-10.3669
▁ㅍㅖㅇㅓㅂ	-10.3669
▁ㅂㅐㅍㅗㅎㅐ	-10.3669
▁ㅌㅓㅋㅣ	-10.367
▁ㅎㅡㅇㅁㅣ	-10.367
▁ㄱㅓㄴㄴㅓ	-10.367
▁ㄷㅐㅂㅕㄴㅇㅣㄴㅇㅡ	-10.367
▁ㅂㅣㄷㅣㅇㅗ	-10.367
▁ㄱㅘㄴㄹㅏㅁ	-10.367
▁ㄱㅏㄹㅏㅇㅏㄵㅇ	-10.367
▁ㅎㅡㄱㅇㅣㄴㅇㅣㄴ	-10.367
ㅎㅐㅈㅜㄱㅗ	-10.3671
▁ㅅㅣㄴㅈㅔㅍㅜㅁ	-10.3671
▁ㅈㅏㅁㅈㅐ	-10.3672
▁ㅌㅗㄹㅗㄴㅎㅚ	-10.3672
ㅇㅝㄴㅈㅏㅈㅐ	-10.3672
ㅌㅜㅁ	-10.3673
ㅏㅂㅇㅔ	-10.3674
▁ㅇㅣㄴㄱㅝㄴㅇㅟ	-10.3674
▁ㅈㅏㄷㅗㅇㅎㅘ	-10.3674
▁ㄷㅗㄱㅈㅐ	-10.3674
▁ㅍㅛㅈㅓㅇㅇㅡㄹ	-10.3676
▁ㅊㅏㅂㅜㄴㅎㅏ	-10.3676
▁ㄱㅕㄹㅅㅣㅁㅎㅏ	-10.3676
▁ㅂㅏㅇㄱㅗㅇ	-10.3676
ㅂㅜㄱㅕ	-10.3676
▁ㅌㅓㄹㅇㅓ	-10.3676
▁ㄷㅗㅇㅍㅗ	-10.3681
ㅅㅏㅈㅣㄴ	-10.3682
▁ㄱㅡㅂㅅㅗㄱ	-10.3683
▁ㅊㅗㅇㅣㅁ	-10.3683
▁ㅈㅗㄱㅜㄱㅇㅣ	-10.3684
▁ㅎㅕㅇㅈㅔ	-10.3684
ㄱㅜㅁㅓ	-10.3685
▁ㄴㅜㅈㅓㄱ	-10.3686
▁ㄱㅛㄷㅗㅅㅗㅇㅔㅅㅓ	-10.3687
ㅎㅢㅆㅣ	-10.3688
▁ㅎㅘㄱㅅㅣㄹㅎ	-10.3689
▁ㅇㅗㅇㅎㅗㅎ	-10.369
ㅣㅌㅣ	-10.3691
▁ㅂㅏㄴㅂㅏㄱ	-10.3692
▁ㅇㅡㄴㅎㅏ	-10.3693
ㅎㅏㄱㅣㅂㅗㄷㅏ	-10.3693
ㅅㅡㅇㅎㅢ	-10.3696
▁ㅅㅣㄱㅗㄹ	-10.3696
▁ㄱㅏㅇㅇㅕㄴ	-10.3697
▁ㅈㅣㄱㅏㄱ	-10.3698
▁ㅂㅗㅎㅗㅎㅏㄱ	-10.3698
▁ㄱㅣㅇㅗㄴ	-10.3698
ㅌㅜㅈㅏㅈㅏ	-10.3699
▁ㅍㅖㄱㅣ	-10.37
▁ㄱㅏㄱㅎㅏ	-10.3701
▁ㄱㅘㄴㅇㅕㅎㅏㄴ	-10.3703
▁ㅂㅏㄲㅝㅆ	-10.3703
▁ㄱㅏㄴㅎㅗㅅㅏ	-10.3707
ㅅㅏㄴㅎㅘ	-10.3709
▁ㅂㅏㄴㄹㅕ	-10.371
▁ㅍㅗㄴ	-10.3711
▁ㄱㅘㄴㅎㅐㅇ	-10.3712
ㅘㄴㅎㅏㄱㅣ	-10.3712
▁ㅎㅏㄴㄱㅜㄱㅇㅡㄴㅎㅐㅇㅇ	-10.3714
▁ㄱㅓㅅㅇㅣㄴㅈㅣ	-10.3714
▁ㅂㅜㅅㅏㄴㅅㅣ	-10.3715
▁ㅇㅕㄴㄱㅣㅎㅏㄴㄷㅏ	-10.3715
▁ㄷㅐㅇㅜ	-10.3719
▁ㅌㅐㅇ	-10.3726
▁ㅂㅣㅅㅓㄴ	-10.3726
▁ㅎㅏㅅㅣㄷㅓ	-10.3727
▁ㅇㅖㄹㅗ	-10.3728
▁ㄱㅘㅁㅇㅡㄹ	-10.3731
▁ㅂㅏㅇㅈㅣ	-10.3731
▁ㄱㅣㅈㅣ	-10.3732
▁ㄴㅏㅈㅣ	-10.3733
▁ㅎㅐㄱㅕㅇ	-10.3734
▁ㄷㅗㅇㅘㅈㅜ	-10.3738
ㅜㅅㅏ	-10.3742
▁ㅇㅠㅇㅣㄱㅎㅏㄴ	-10.3742
▁ㄱㅏㅁㅕㅇ	-10.3742
▁ㄷㅔㅇㅣㅌㅓ	-10.3745
ㄱㅜㅅㅡㄹ	-10.3746
▁ㅇㅠㅎㅕㅇ	-10.3747
▁ㄱㅘㄱㅓㅇㅘ	-10.3752
▁ㅇㅣㅂㅂㅓㅂ	-10.3752
▁ㅅㅓㅇㄱㅗㅇㅎㅐㅆㄷㅏ	-10.3753
▁ㅋㅓㅈㅕㅆ	-10.3753
▁ㄷㅏㅇㅅㅏㅈㅏ	-10.3753
ㅇㅣㅁㅏㅌㅡ	-10.3755
ㅏㅌㅡ	-10.3756
▁ㅁㅏㅅㅇㅣㅆ	-10.3757
▁ㅈㅏㅅㅏㄴㅇㅡㄹ	-10.376
▁ㅎㅕㅇㅈㅔㄷㅡㄹ	-10.3763
ㅎㅚㅇ	-10.3767
▁ㅎㅚㄷㅏㅁ	-10.377
ㄴㅅㅣㄱㄱ	-10.3771
ㅇㅇㅔ	-10.3773
▁ㅈㅜㄹㅇㅕ	-10.3774
▁ㅈㅣㅂㅇㅣ	-10.378
▁ㅍㅛㅁㅕㄴ	-10.3785
ㅁㅐㅅㅜㅈㅏ	-10.3789
▁ㅊㅐㄱㅇㅣㅁㅈㅏ	-10.3795
▁ㅎㅐㅇㅅㅏㅎㅏ	-10.3803
ㅈㅓㅁㅇㅣㄴ	-10.3811
ㄷㅓㅁ	-10.3814
▁ㅈㅣㅍ	-10.3816
▁ㅌㅜㅈㅏㄱㅡㅁㅇ	-10.3817
▁ㅇㅔㄴ	-10.382
▁ㅈㅣㄱㅡㅂㅎㅏㄹㅏ	-10.3821
▁ㅍㅕㄹㅊㅕ	-10.3825
▁ㅇㅓㅉㅣ	-10.3826
ㅊㅔㅈㅓㄱ	-10.383
▁ㅈㅓㄱㅇㅛㅇㅎㅏㄴ	-10.3831
ㅁㅗㅎㅏ	-10.3834
▁ㅅㅔㅍㅗ	-10.3838
▁ㄱㅛㅎㅘ	-10.3838
▁ㅁㅣㅁㅏㄴ	-10.3841
▁ㄱㅓㅁㅣ	-10.3841
▁ㅎㅏㅇㄱㅗㅇㅅㅏ	-10.3845
ㅍㅏㄴㅈㅓㅇㅇㅡㄹ	-10.3848
▁ㄴㅡㄹㅇㅓㄴㅏㄴㅡㄴ	-10.3849
▁ㅅㅜㄴㅊㅓㄴ	-10.385
▁ㅇㅐㄴ	-10.3852
ㄷㅡㅇㅇㅔㅅㅓ	-10.3854
▁ㅍㅣㅎㅐㅇㅑ	-10.3859
▁ㄷㅗㅇㅣㅂㅎㅐ	-10.3863
▁ㄷㅜㄹㅕ	-10.3866
ㅈㅓㄹㅎㅏㄴ	-10.3868
▁ㄷㅡㄹㅇㅣㅂㅏㄷㅇㅡ	-10.387
▁ㅇㅓㄹㅕㅇㅝㅈㅣ	-10.3875
▁ㅈㅗㅇㅠ	-10.3883
ㅕㅇㅇㅓ	-10.3886
▁ㅂㅏㅇㅅㅗㅇㅅㅏ	-10.3886
▁ㅇㅣㄹㄷㅏㄴㄹㅏㄱㄷ	-10.3891
ㅡㄱㅔ	-10.3894
▁ㅈㅓㅇㅎㅏㄴ	-10.3899
ㄷㅏㄴㅈㅏㅇㅇㅡ	-10.39
▁ㅎㅐㅇㅅㅏㅈㅏㅇ	-10.3904
▁ㅈㅐㄱㅐ	-10.3911
▁ㅆㅏㄹ	-10.3913
▁ㅂㅏㅇㅁㅜㄴㅎㅏㄴ	-10.3915
▁ㄱㅓㄱㅈㅓㅇㅇㅣ	-10.3915
▁ㅂㅓㅌ	-10.3916
ㅅㅏㄴㅁㅜㄹㅇㅣ	-10.3918
▁ㅇㅖㄹ	-10.3931
▁ㄱㅏㅌㅇㅏ	-10.394
▁ㅎㅏㄹㅈㅣ	-10.3954
▁ㄱㅜㅅㅗㄱㅎㅏ	-10.3956
ㅇㅘㅆㄴㅡㄴㄷㅔ	-10.3957
▁ㄷㅐㅎㅏㄱㅅㅐㅇ	-10.3958
▁ㄸㅟㅇㅓㅆ	-10.396
▁ㅁㅜㄱㅘㄴㅎㅏㄷㅏ	-10.3965
ㅊㅓㄴㄱㅜㄴ	-10.3975
▁ㅊㅟㅎㅐ	-10.3976
▁ㄷㅗㅇㅇㅏ	-10.3977
▁ㄱㅣㄱㅡㅁ	-10.3979
▁ㅅㅐㅇㅎㅘㄹㄱㅗ	-10.3984
▁ㅂㅜㄱㅘ	-10.3994
ㅕㅆㅇㅡㅁㅕ	-10.3996
ㅎㅐㅊㅣ	-10.3996
▁ㅇㅏㄴㄷㅚ	-10.3997
ㅈㅏㅁㅅㅣㄱ	-10.4002
ㅅㅏㄱㅘㄴ	-10.4005
ㅏㅁㅇㅣㄹㅏ	-10.4008
▁ㄱㅕㅇㅇㅜㅇㅔㄴ	-10.4009
ㅆㄴㅏ	-10.4011
ㅐㅅㅓ	-10.4012
ㅈㅏㅂㅇㅏ	-10.4013
ㅜㄹㄹㅓ	-10.4013
ㄹㅏㄱㅎㅏㄴ	-10.4014
▁ㅂㅏㄹㅂㅜ	-10.4015
▁ㅎㅘㄹㄷㅗㅇㅇㅡㄹㅗ	-10.4025
ㅎㅐㅇㅇㅡㄹ	-10.4027
▁ㅈㅣㅊㅣ	-10.4033
▁ㄴㅏㅇㅣㅇㅔ	-10.4048
ㄱㅖㅇㅔ	-10.4048
▁ㅎㅏㄱㅈㅏㄷㅡㄹㅇ	-10.4049
▁ㄱㅗㅇㅅㅣ	-10.4053
▁ㅈㅓㄱㅎ	-10.4075
▁ㅍㅗㄹㅗ	-10.4076
▁ㄷㅡㄹㅇㅓㅆ	-10.408
▁ㅇㅜㅅㅇㅓㅆㄷ	-10.4084
ㅃㅕ	-10.4091
ㅅㅓㅂㅣㅅㅡ	-10.4092
ㅂㅜㅈㅗㄱ	-10.41
ㅇㅢㅇㅝㄴㄴㅣㅁ	-10.4104
▁ㅈㅓㅇㄷㅗㅇㅕㅆ	-10.4105
▁ㄷㅐㅇㅚ	-10.4108
ㅅㅡㅌㅏ	-10.4108
ㅅㅐㅇㅁㅕㅇ	-10.4108
ㅎㅕㅂㅅㅏㅇ	-10.4109
ㅅㅔㅍㅗ	-10.411
▁ㅅㅣㄹㅎㅕㄴㄷㅚ	-10.4115
ㅈㅣㄱㅇㅝㄴ	-10.4121
▁ㅇㅓㄹ	-10.4126
▁ㅂㅜㅂㅜㄴㅇㅔ	-10.4128
▁ㄴㅜㅈㅣㄴㅈㅔ	-10.413
ㅎㅏㄱㅇㅝㄴ	-10.4133
ㄱㅣㅈㅓ	-10.4143
▁ㄲㅗㅂㅎㅣ	-10.4147
▁ㅁㅜㄴㅅㅓ	-10.4156
ㅌㅗㅇㄱㅖ	-10.416
▁ㅍㅏㄴㅁㅐㅎㅏ	-10.4161
▁ㅇㅓㅁㅁㅏㄷㅡㄹ	-10.4162
▁ㅇㅕㄹㅗㄴㅇㅣ	-10.4164
ㄸㅗ	-10.4167
ㅈㅏㅇㅅㅗ	-10.4167
▁ㄱㅜㄱㅁㅜ	-10.4169
ㅎㅘㄱㅘㄴ	-10.4169
▁ㄷㅗㅇㅢ	-10.4172
ㅇㅝㅆㄷㅏ	-10.4172
▁ㅈㅓㅈㅣㄹㄹㅓ	-10.4176
▁ㅇㅗㄻㄱㅕㅈㅕ	-10.4182
▁ㅇㅓㄷㄱㅔ	-10.4188
ㅈㅓㄱㅎㅏㅂ	-10.419
▁ㄱㅏㄴㅡㅇㅎㅏㅈㅣ	-10.4196
ㄱㅛㅅㅣㄹ	-10.4199
ㄱㅕㄹㄱㅘ	-10.4209
▁ㅈㅣㅇㅕㄱㅂㅕㄹ	-10.421
▁ㅊㅏㅁㄱㅗ	-10.4211
▁ㅌㅐㅈ	-10.4215
▁ㄷㅡㄹㄹㅣ	-10.4219
▁ㅁㅏㅈㄷㅏ	-10.4221
ㅅㅟ	-10.4223
ㄷㅐㅈㅓㄴ	-10.4223
▁ㅁㅣㅆㅡㅂㅣㅅㅣ	-10.4223
▁ㄱㅗㅇㄱㅗㅇㅅㅏㄴㅎㅜㅈㅗㄹㅣ	-10.4223
▁ㄱㅡㄹㄹㅜㅌㅔㄴ	-10.4223
▁ㄴㅏㅃㅏㅈㅕ	-10.4223
▁ㄷㅐㄱㅓㅁㅊㅏㄹㅊㅓㅇ	-10.4223
▁ㄷㅔㅇㅣㅂㅣㄷㅡ	-10.4223
▁ㄷㅗㄹㅈㅏㄴㅊㅣ	-10.4223
▁ㄸㅓㅇㅗㄹㄹㅏㅆ	-10.4223
▁ㅁㅏㄹㅈㅏㅇㄴㅏㄴ	-10.4223
▁ㅁㅗㄳㅇㅣ	-10.4223
▁ㅂㅏㄴㄹㅕㄷㅗㅇㅁㅜㄹ	-10.4223
▁ㅂㅐㅌㅓㄹㅣ	-10.4223
▁ㅂㅡㄹㅣㅍㅣㅇㅇ	-10.4223
▁ㅃㅜㄹㅕ	-10.4223
▁ㅅㅏㄴㅇㅠㄱㅜㄱ	-10.4223
▁ㅅㅏㄴㅎㅜㅈㅗㄹㅣㅂㅣ	-10.4223
▁ㅅㅣㅁㄱㅡㄴㄱㅕㅇㅅㅐㄱ	-10.4223
▁ㅈㅣㄹㅇㅢㅇㅡㅇㄷㅏㅂ	-10.4223
▁ㅈㅣㅂㄱㅏㅄㅇ	-10.4223
▁ㅋㅓㅁㅍㅠㅌㅓ	-10.4223
▁ㅍㅡㄹㄹㅓㅅㅡ	-10.4223
▁ㅎㅏㄴㄴㅏㄹㅏㄷㅏㅇ	-10.4223
ㄲㅙㄱ	-10.4223
▁ㄱㅏㅈㅊㅝ	-10.4223
▁ㄷㅗㅋㅛ	-10.4223
▁ㅅㅡㅌㅣㅋㅓ	-10.4223
▁ㅇㅣㄴㅅㅜㅇㅓㅂㅊㅔ	-10.4223
▁ㅎㅜㅋㅜㅅㅣㅁㅏ	-10.4223
▁ㄱㅣㄷㅏㄹㅕㅇㅑ	-10.4223
▁ㅂㅜㄹㅊㅜㄹㅁㅏ	-10.4223
▁ㅂㅡㄹㅏㅈㅣㄹ	-10.4223
▁ㅇㅏㅇㅕㅇㅆㅣ	-10.4223
▁ㅇㅖㅂㅣㄱㅜㄴ	-10.4223
▁ㅇㅣㅌㅏㄹㄹㅣㅇㅏ	-10.4223
▁ㅈㅜㅇㅅㅏㄴㅊㅡㅇ	-10.4223
▁ㅊㅏㅈㅏㅇㄱㅓㅁㅅㅏ	-10.4223
▁ㅈㅗㅇㅅㅏㅈㅏㄷㅡㄹㅇㅣ	-10.4223
▁ㅊㅟㅎㅑㅇ	-10.4223
▁ㄷㅏㄴㅋㅏㄴㅂㅏㅇㅇ	-10.4223
▁ㅊㅏㄱㄱㅗㅇ	-10.4223
ㄱㅘㅇㅎㅘㅁㅜㄴㄱㅘㅇㅈㅏㅇㅇㅔ	-10.4223
▁ㅌㅔㄴㅌㅡ	-10.4223
▁ㅌㅓㄹㅇㅓㄴㅗㅎ	-10.4224
▁ㄱㅗㅇㅇㅣㄱㅅㅏ	-10.4224
▁ㅁㅏㄷㅣ	-10.4224
▁ㄱㅐㄹㄹㅓㄱㅅㅣ	-10.4224
▁ㅊㅔㄹㅅㅣ	-10.4224
▁ㄷㅏㅇㅟㅅ	-10.4224
▁ㄷㅜㄹㅕㅇㅝㅎㅏㄴ	-10.4224
ㄱㅓㅂㅈㅣ	-10.4224
▁ㄴㅐㅇㄷㅏㅁㅎㅏ	-10.4224
▁ㅁㅏㄹㄷㅏㅌㅜㅁㅇ	-10.4224
▁ㅊㅏㄱㅅㅜㅎㅐ	-10.4224
▁ㅂㅣㅅㅓㄱㅘㄴㅇ	-10.4224
▁ㅈㅓㄴㅎㅜㅎㅐ	-10.4224
▁ㄱㅡㅁㅇㅛㅇㅣㄹ	-10.4224
▁ㅎㅗㅎㅘㅇㅇㅣ	-10.4224
▁ㅇㅏㅂㅔ	-10.4224
▁ㄲㅗㅂㅎㅕㅆ	-10.4224
▁ㄷㅟㅅㅂㅏㄷㅊㅣㅁㅎㅏ	-10.4224
▁ㅊㅜㄱㅜㅎㅏ	-10.4225
▁ㄹㅣㅁㅍㅡ	-10.4225
▁ㄷㅐㄷㅏㅂ	-10.4225
▁ㅍㅡㄹㄹㅐㅋㅏㄷㅡ	-10.4225
ㅅㅏㅎㅏㅇㅇㅣ	-10.4225
ㄱㅝㄴㅎㅜㅂㅗ	-10.4225
▁ㅅㅡㅇㅂㅗㄱㅎㅏ	-10.4225
▁ㅊㅚㅌㅐㅁㅣㄴㅆㅣ	-10.4225
▁ㅈㅗㅎㅕㄴㅇ	-10.4226
▁ㅇㅓㅁㅈㅓㅇㅎㅏㄱ	-10.4226
ㄷㅐㅁㅜㄴㄱㅜ	-10.4226
▁ㅊㅣㅁㅁㅗㄹ	-10.4226
▁ㅈㅏㅇㄴㅏㄴ	-10.4227
▁ㅎㅡㅇ	-10.4227
▁ㅊㅏㅇㅈㅗㄱㅕㅇㅈㅔ	-10.4227
▁ㅊㅗㅇㄱㅕㄱ	-10.4227
▁ㄱㅏㅇㅇㅏㅈㅣ	-10.4227
▁ㅍㅔㅇㅣㅈㅣ	-10.4228
▁ㄱㅜㄱㅎㅚㅇㅢㅈㅏㅇ	-10.4228
▁ㅂㅣㅇㅐ	-10.4229
▁ㄱㅕㅇㅂㅜㄱ	-10.4229
▁ㅅㅗㅇㅍㅏ	-10.4229
▁ㅁㅗㄹㅇㅏ	-10.4229
▁ㄱㅣㅇㅜㄹㅇㅕ	-10.423
▁ㄱㅕㄹㅅㅣㅁㅎㅐㅆ	-10.423
▁ㅈㅣㅂㅍㅣㄹ	-10.423
ㅅㅜㅅㅏㄱㅜㄱ	-10.4231
▁ㅈㅓㅇㅠㄱㅏ	-10.4231
▁ㅁㅐㅇㅣㅂ	-10.4232
▁ㅎㅏㅁㅇㅠ	-10.4232
▁ㅊㅓㅁ	-10.4233
ㅇㅕㄹㅆㅣ	-10.4234
▁ㄱㅓㅅㅡㄹㅡㄴ	-10.4234
▁ㅈㅔㅈㅗㅇㅓㅂ	-10.4235
▁ㅅㅜㅅㅏㅂㅗㄴㅂㅜ	-10.4235
▁ㅈㅝㅅㅓ	-10.4236
▁ㅊㅗㅇㄹㅣㅅㅣㄹ	-10.4236
▁ㅈㅜㄹㄱㅓㄹㅣ	-10.4236
▁ㄱㅣㅂㅏㄴ	-10.4237
ㅅㅜㅊㅜㄹㄱㅜㄱㅇㅣ	-10.4238
▁ㅅㅏㅇㅇㅓㅂ	-10.4239
▁ㅂㅜㄴㅇㅑㅇㅅㅣㅈㅏㅇㅇ	-10.4241
▁ㄱㅗㄹㅕㅇ	-10.4241
▁ㅅㅔㅌㅏㄱ	-10.4242
ㅇㅈㅓㅇㅎㅘ	-10.4243
▁ㅍㅗㄱㄱㅕㄱㄱㅣ	-10.4243
▁ㅂㅗㅎㅓㅁㄹㅛ	-10.4244
▁ㅇㅣㅂㅈㅡㅇㅎㅏ	-10.4244
▁ㅈㅣㄴㅎㅏㄱ	-10.4246
▁ㅇㅏㄴㅍㅏㄲㅇㅔㅅㅓ	-10.4247
▁ㅌㅏㄹㅊㅜㄹㅎ	-10.4248
ㅂㅅㅜㅎㅏㄴ	-10.4254
▁ㅂㅣㅈㅓㅇ	-10.4257
▁ㄴㅗㅍㅇ	-10.4258
▁ㅁㅓㄱㅇㅓ	-10.4259
▁ㅇㅏㄶㄱㅔ	-10.4259
ㅂㅓㄹㄹㅔ	-10.4261
▁ㅈㅏㅇㅂㅣ	-10.4261
▁ㄷㅗㄱㄹㅣㅂ	-10.4261
▁ㅅㅜㅅㅓㅇㄱ	-10.4263
▁ㅅㅓㅇㅆㅣ	-10.4263
▁ㄱㅏㅊㅜㄱ	-10.4265
ㅊㅣㄱㅗ	-10.4274
ㅇㅣㄴㅍㅗㅁ	-10.4276
▁ㄱㅜㄴㅅㅜ	-10.4278
▁ㅂㅜㄴㄹㅣ	-10.4279
ㅅㅜㄹㅑㅇ	-10.4281
▁ㅇㅓㅂㅈㅜ	-10.4281
▁ㅅㅏㅅㅐㅇㅎㅘㄹ	-10.4284
▁ㅇㅕㄴㅎㅏㅂ	-10.4285
ㅁㅣㅇㅘ	-10.4286
▁ㅂㅔㅍㅜ	-10.4288
▁ㅊㅜㄹㅍㅏㄴㅁㅜㄹ	-10.4289
▁ㅈㅓㄴㅅㅣ	-10.4289
▁ㅇㅠㅊㅣㅇㅝㄴ	-10.429
ㅎㅏㄱㅂㅜ	-10.4292
▁ㅂㅏㄴㅇㅕㅇㅎㅏ	-10.4297
▁ㅇㅓㄹㅕㅂㄷㅏㅁㅕ	-10.4299
▁ㄷㅜㅁㅗㄱ	-10.4302
▁ㅈㅕㅆ	-10.4304
▁ㄴㅏㅁㅜㅇㅘ	-10.4304
▁ㅂㅗㅇㅕㄷㅡㄹ	-10.4305
▁ㄷㅐㅅ	-10.4305
▁ㄱㅓㅅㅇㅣㄴㅑ	-10.4306
ㅁㅕㅇㅂㅏ	-10.4308
ㄱㅘㅇ	-10.4312
▁ㅇㅣㅁㅆㅣ	-10.4316
ㅇㅝㄴㅇㅔㅅㅓ	-10.4316
ㅐㅇㅓㅂㅈㅏ	-10.4318
▁ㄱㅖㅈㅓㅇㅇ	-10.432
ㅊㅗㄴㅇㅔㅅㅓ	-10.432
▁ㅁㅗㄱㅅㅏ	-10.4325
▁ㅁㅗㄷㅗㄱ	-10.4325
ㅇㅕㅅㅓㅇㅇㅡ	-10.4326
▁ㅈㅐㄷㅏㄴㅇㅔㅅㅓ	-10.4331
ㄱㅌㅏㅇㅣ	-10.4332
▁ㄹㅏㅁ	-10.4337
ㅅㅜㄴㅈㅗㅇㅎㅏ	-10.4338
ㅊㅓㄹㅇㅣ	-10.4338
▁ㅈㅣㄴㅈㅓㄴ	-10.4338
ㅈㅔㅍㅜㅁㅇㅡㄹ	-10.4339
▁ㅈㅡㅇㄱㅣ	-10.4341
▁ㅈㅔㅅㅣㅎㅐㅆㄷㅏ	-10.4342
▁ㄷㅗㅇㅈㅓㄴ	-10.4343
▁ㄴㅏㅁㅅㅓㅇㄷㅡㄹㅇㅣ	-10.4343
▁ㅈㅜㅊㅔ	-10.4343
▁ㄴㅗㄹㅕㄱㅎㅐㅆㄷㅏ	-10.4344
▁ㅎㅏㅇㅎㅐㅎㅏㄷ	-10.4347
▁ㅈㅣㄴㅏㄱㅏㅆ	-10.435
▁ㄷㅏㄹㅜ	-10.4352
▁ㅂㅜㅈㅓㄱ	-10.4355
ㅅㅁㅜㄹ	-10.4355
ㅍㅜㅁㅈㅣㄹ	-10.4359
ㅇㅕㅁㅏㄴㅇㅝㄴㅇ	-10.436
▁ㅍㅕㅇㅇㅑㅇㅇㅔ	-10.4362
▁ㅍㅕㅇㄱㅏㅎㅏㄴ	-10.4363
ㅊㅟㅎㅏㄴ	-10.437
ㅂㅏㅇㄴㅗㄷㅗㅇ	-10.4373
▁ㄱㅕㄹㄹㅗㄴㅇㅣ	-10.4375
▁ㅌㅡㄱㅅㅓㅇㅇㅣ	-10.4376
▁ㄴㅏㅁㅉㅗㄱㅇㅔ	-10.4376
▁ㄱㅏㅁㅅㅣ	-10.4377
▁ㄴㅡㅇ	-10.4384
▁ㅂㅏㄷㅇㅏㄷㅡㄹㅇㅣㄴㄷㅏ	-10.4384
ㅎㅏㅅㅣㅂㄴㅣㄲㅏ	-10.4388
▁ㅎㅘㄱㅅㅣㄴ	-10.4388
▁ㄷㅡㅇㅈㅏㅇㅎㅐㅆ	-10.439
▁ㅊㅚㅅㅗㅎㅏㄴ	-10.4394
▁ㅇㅠㅂ	-10.4396
▁ㅁㅗㅇㅣㅁㅇㅣ	-10.4398
▁ㅁㅜㄷㅐ	-10.4402
▁ㅈㅐㅁㅜ	-10.4408
▁ㅇㅗㅊㅏ	-10.4416
ㅊㅔㅂㅜ	-10.4424
▁ㅂㅓㅅ	-10.4438
▁ㄱㅏㅅㅣㄴ	-10.4441
▁ㅊㅔㅇㅠㄱ	-10.4443
ㅇㅎㅣ	-10.4445
▁ㅇㅕㄱㅣㅇㅔㄷㅏ	-10.4447
▁ㅋㅏㄹㄹㅗ	-10.4447
▁ㅈㅜㄴㅂㅣㅎㅏ	-10.4451
ㅅㅟㅂㄱ	-10.4452
▁ㄱㅝㄴㄱㅗ	-10.4453
▁ㄱㅕㅇㅈㅏㅇㅇㅡ	-10.4456
▁ㅇㅣㅁㅁ	-10.4462
▁ㄴㅡ	-10.4467
▁ㅊㅣㅇ	-10.4472
▁ㅍㅏㅇㅏㄱㄷㅚ	-10.4481
▁ㅅㅜㄴㅎㅏ	-10.4482
▁ㄱㅏㅁㅅㅏㅇㅝㄴㅇ	-10.4483
▁ㅇㅣㄴㅊㅓㄴ	-10.4486
▁ㅊㅓㅎㅏㄴ	-10.4488
▁ㅎㅜㅂㅗㄷㅡㄹㅇㅡ	-10.4489
▁ㅅㅏㅇㅛㅇㅎㅐㅆㄷㅏ	-10.4493
▁ㅍㅏㅇㅏㄱㅎㅏㄴ	-10.4496
▁ㅇㅕㄴㄱㅜㅇㅟㅇㅝㄴ	-10.4498
▁ㄷㅡㄹㄲㅗㅊㅇㅣ	-10.4499
▁ㅅㅏㅇㅌㅐㅇㅣ	-10.4502
▁ㄷㅗㄱㅅㅓ	-10.4505
ㅊㅓㅇㅇㅡㄹ	-10.4506
▁ㅂㅏㅇㅣㅇ	-10.4511
▁ㄸㅐㄹㅕ	-10.4516
ㅋㅡㄹㅣㅁ	-10.4516
ㅂㅗㄴㅂㅜㅈㅏㅇㅇ	-10.4518
▁ㅅㅐㅇㄱㅣㄱㅣ	-10.4519
▁ㅈㅐㅈㅣ	-10.4519
ㅓㅂㅇㅡㄹㅗ	-10.4521
▁ㅇㅛㅇㅇㅢ	-10.4523
ㅅㅣㅁㅇㅔ	-10.453
▁ㅊㅜㄱㅅㅗ	-10.4533
▁ㄴㅏㅆ	-10.4539
▁ㅈㅣㄴㅏㅆ	-10.454
ㅈㅜㅇㅢㅂㅗ	-10.4547
▁ㅌㅏㄴㅅ	-10.4551
▁ㅊㅡㄱㄱㅡㄴ	-10.4557
▁ㅈㅔㄱㅔ	-10.456
▁ㅅㅐㅁ	-10.4567
▁ㅈㅏㄴ	-10.4568
▁ㅂㅣㄹㄹㅣ	-10.457
ㅏㅊㅡㅁ	-10.4573
▁ㄷㅐㄱㅝㄴ	-10.4575
ㄱㅏㄴㅈㅓㅂ	-10.459
▁ㅇㅏㄶㅇㅏㅆㄱㅣ	-10.4592
ㅎㅘㄹㅇㅛㅇ	-10.4596
▁ㅊㅏㅇㅇㅝㄴㅅㅣㅇ	-10.4603
▁ㅂㅏㄹㄷㅏㄹ	-10.4604
▁ㅁㅗㅅㅎㅏㄴㄷㅏ	-10.4604
▁ㅈㅗㅅㅓㄴㅇㅓㅂ	-10.4605
▁ㄱㅗㅅㅏ	-10.4607
ㅊㅔㄹㅗ	-10.4607
ㅇㅣㅅ	-10.4609
ㄹㅗㅅㅓㄴ	-10.4629
▁ㅅㅏㄹㅇㅣㄴㅈ	-10.4641
▁ㅅㅏㄹㅇㅏㅆ	-10.4644
▁ㅁㅏㄹㄹㅕㅆ	-10.4645
▁ㅎㅘㄱㅅㅣㄴㅎㅏ	-10.4652
ㅠㄱ	-10.4652
ㅍㅡㅌㅡ	-10.4654
▁ㅎㅡㄹㄹㅓ	-10.4656
▁ㅇㅖㄱㅕ	-10.4657
ㅅㅓㄴㄹㅑㅇ	-10.4664
▁ㄱㅣㅁㅇ	-10.4665
▁ㅅㅓㄴㅇㅓㄴㅎㅏ	-10.4671
ㄴㅁㅣㅎㅐ	-10.4673
▁ㅅㅣㄹㅊㅔ	-10.4674
ㅎㅞㅅㅗㄴ	-10.4679
ㄷㅡㅇㄹㅗㄱ	-10.4679
▁ㄷㅗㅇㅇㅢㅎㅏㄴ	-10.468
ㅎㅜㄴㄹㅕㄴ	-10.468
ㅁㅏㄶㅇㅡㄴ	-10.4681
ㅁㅜㄹㅈㅣㄹ	-10.4695
ㅎㅘㅎㅏㄴ	-10.4715
▁ㅅㅜㅈㅜ	-10.4717
▁ㅅㅜㅇㅠ	-10.4718
▁ㄷㅟㅈㅣㅂㅇㅓ	-10.472
▁ㅎㅏㅇㄱㅗㅇ	-10.4727
▁ㄱㅗㅇㅇㅣㄴㅇ	-10.4735
▁ㅅㅣㄷㅗㅎㅏ	-10.4737
▁ㅂㅏㄱㅎㅐ	-10.4741
▁ㅇㅛㅊㅓㅇㅎㅏㄴ	-10.4746
▁ㄱㅣㄹㅇㅓ	-10.4754
ㅇㅑㄱㅇㅡㄹ	-10.4757
▁ㅂㅓㅅㄱ	-10.4759
ㅇㅕㅁ	-10.476
▁ㄴㅗㅅㅏㅈㅓㅇㅇㅟㅇㅝㄴ	-10.4761
ㅈㅣㄴㅈㅓㅇ	-10.4763
ㅎㅏㄱㅔㅆ	-10.4765
▁ㅂㅏㄴㄱ	-10.4767
▁ㄱㅜㅊㅜㄱ	-10.4768
▁ㄱㅣㄹㅗㄱㅇㅣ	-10.4784
▁ㅈㅜㅇㅈㅣㄴ	-10.4786
▁ㄷㅏㄱㅏ	-10.4795
ㅇㅁㅜㅇㅝㄴ	-10.4799
ㅁㅗㄷㅔㄹㄹ	-10.4801
▁ㅇㅖㄱㅗㅎㅏㄴ	-10.4801
ㄱㅘㅎㅏㄱㅅㅜㅅㅏ	-10.4803
▁ㅂㅏㄴㅂㅏㄱㅎㅏ	-10.4803
▁ㅁㅜㄲㅇ	-10.481
ㅇㅅㅓㅇ	-10.4811
▁ㅁㅗㅇㅡㄱㅣ	-10.4812
▁ㅃㅏㄹㄱㅐ	-10.4812
▁ㅅㅙ	-10.4812
▁ㅍㅗㄱㄷㅡㅇ	-10.4812
▁ㄱㅏㄲㅡㅁ	-10.4812
▁ㄱㅜㄱㅁㅣㄴㅌㅜㅍㅛㅇㅔ	-10.4812
▁ㄴㅡㄱㅡㅅㅎㅏ	-10.4812
▁ㅅㅣㄴㅂㅣㅇㅅㅓㅇ	-10.4812
▁ㅇㅐㅇㅘㄴㄷㅗㅇㅁㅜㄹ	-10.4812
▁ㅇㅣㄴㄱㅗㅇㅈㅣㅈㅣㄴ	-10.4812
▁ㅈㅓㄴㄹㅖ	-10.4812
▁ㅋㅗㅍㅔㄹㅡㄴㅣㅋㅜㅅㅡㅇ	-10.4812
▁ㅍㅐㅌㅓㅅㅡㄴ	-10.4812
▁ㅍㅡㄹㅏㅇㅅㅡ	-10.4812
▁ㅎㅓㄴㅂㅓㅂㅈㅐㅍㅏㄴㅅㅗㅇ	-10.4812
ㅇㅗㅅㅡㅌㅡㄹㅔㅇㅣㄹㄹㅣㅇㅏ	-10.4812
▁ㄷㅗㅇㅚㅅㅣㅎㅏ	-10.4812
▁ㅁㅣㄲㅡㄹㅓㅈ	-10.4812
▁ㅅㅓㄹㅇㅏㄱㅅㅏㄴ	-10.4812
▁ㅅㅗㄴㅁㅗㄱㅅㅣㄱㅖ	-10.4812
▁ㅌㅏㅇㅣㅁㅓ	-10.4812
▁ㅌㅡㄱㄱㅗㅇㄷㅐ	-10.4812
▁ㅌㅡㄱㅂㅕㄹㅈㅏㅊㅣㄱㅜ	-10.4812
▁ㅍㅏㄱㅚㅎ	-10.4812
▁ㅎㅟㅁㅏㄹㄹㅣ	-10.4812
ㅏㄹㅇㅏㅇㅗㄹㅡ	-10.4812
▁ㅅㅏㄱㄱㅏㅁㅎㅐㅆ	-10.4812
▁ㄱㅏㅈㅕㅇㅘ	-10.4812
▁ㄱㅕㄴㄷㅣ	-10.4812
▁ㄴㅏㄱㄷㅗㅇㄱㅏㅇㅇ	-10.4812
▁ㄱㅓㅁㅈㅡㅇㅇㅣ	-10.4812
▁ㄸㅏㅇㅋㅗㅇ	-10.4812
▁ㄴㅠㅇㅛㄱ	-10.4812
▁ㄱㅓㅌㅇㅡㄹㅗ	-10.4812
▁ㅂㅣㅁㅣㄹ	-10.4812
▁ㅇㅛㄱㄱㅜ	-10.4812
ㅅㅜㅇㅣㄱㄹㅠㄹ	-10.4812
▁ㅅㅏㄴㅌㅏㅋ	-10.4812
▁ㅆㅏㅎㅇㅏㄴㅗㅎ	-10.4812
▁ㅅㅐㅇㅁㅕㅇㅂㅗㅎㅓㅁㅅㅏ	-10.4812
▁ㅁㅏㄸㅏㅇㅎ	-10.4812
▁ㅇㅓㄹㅣㄴㅇㅏㅇㅣ	-10.4812
▁ㅈㅓㄴㄱㅣㅇㅛㄱㅡㅁㅇ	-10.4812
▁ㄷㅏㄴㅂㅐㄱㅈㅣㄹㅇ	-10.4812
▁ㄷㅝㅆ	-10.4812
▁ㅆㅡㄹㅓㅈㅣ	-10.4812
▁ㅎㅐㄱㅅㅣㄹㅎㅓㅁ	-10.4812
▁ㄱㅏㄹㅡㅊㅕ	-10.4812
▁ㅇㅜㄴㅂㅏㄴ	-10.4812
▁ㅍㅏㅇㅜㄴㄷㅡ	-10.4812
▁ㅎㅠㅇㄱㅣㄹ	-10.4812
▁ㅎㅡㅌ	-10.4812
▁ㅁㅣㄱㅜㅇㅇ	-10.4812
ㄷㅡㄹㅇㅕㅆㄷㅏ	-10.4812
ㅂㅗㄴㅣ	-10.4813
▁ㄹㅣㅅㅡㅋㅡ	-10.4813
▁ㅎㅡㄴㄷㅡㄹ	-10.4813
ㅇㅏㄴㄴㅕㅇ	-10.4813
▁ㅇㅡㅇㅈㅣㅇ	-10.4813
▁ㅈㅣㄹㅈㅜㅎㅏ	-10.4813
▁ㅇㅣㄹㅂㅏㄴㅇㅣㄴㅇㅡㄴ	-10.4814
▁ㄱㅖㅅㅏㄴㅎㅐ	-10.4814
ㅌㅗㅇㅅㅣㄴㅁㅏㅇ	-10.4814
▁ㅇㅡㅁㅅㅣㄱㅈㅓㅁㅇㅓㅂ	-10.4814
▁ㅇㅟㅌㅐㄹㅗ	-10.4814
▁ㅂㅓㅁㅇㅣㄴ	-10.4814
▁ㄱㅕㄱㅊㅏ	-10.4814
▁ㄱㅡㄱㅇㅜ	-10.4814
▁ㅂㅕㅇㅎㅐㅇㅎㅏ	-10.4814
▁ㅊㅓㄱㅊㅜ	-10.4815
ㅡㅁㅈㅣ	-10.4815
▁ㅌㅔㅅㅡㅌㅡ	-10.4815
▁ㅇㅣㄴㄱㅕㄱ	-10.4815
▁ㅅㅐㅇㄱㅏㄱㅎㅏㄴㄷㅏ	-10.4815
▁ㅅㅓㅅ	-10.4815
ㅚㄹㅗㅇㅜㅁㅇ	-10.4816
ㅇㅎㅏㅂ	-10.4817
▁ㅍㅣㅅㅏㄹ	-10.4817
▁ㅁㅣㄷㅇㅡㅁ	-10.4817
▁ㄱㅓㅁㅊㅏㄹㅅㅜㅅㅏ	-10.4817
ㅈㅔㅇㅘㅇ	-10.4817
▁ㅅㅜㄴㅂㅏㅇ	-10.4817
▁ㅂㅗㄴㅐㅈㅝ	-10.4818
▁ㅇㅢㅇㅑㄱ	-10.4819
▁ㅁㅐㄷㅏㄹ	-10.4819
▁ㄱㅏㅁㄷㅗㅇㅎㅏ	-10.4819
▁ㄱㅘㅂㅏㄴ	-10.482
ㅎㅏㄷㅡㅅ	-10.482
▁ㅂㅏㄺㅎㅕㄴㅐ	-10.482
▁ㄴㅏㅂㄷㅡㄱㅎㅏ	-10.482
▁ㅁㅕㅇㄷㅏㄴㅇㅔ	-10.4821
▁ㄹㅗㅅㅡ	-10.4823
▁ㅅㅗㅊㅗㅇ	-10.4823
▁ㅈㅐㅈㅣㄱㅎㅏ	-10.4823
ㅇㅝㅂㅗㄹㅕ	-10.4825
ㄴㅅㅕ	-10.4825
▁ㅇㅕㄱㅐㄱ	-10.4826
▁ㅅㅓㄱㅇㅠ	-10.4827
▁ㅇㅕㄴㅅㅓㄹㅁㅜㄴ	-10.4827
▁ㅇㅣㅆㅇㅡㄴㅣㄲㅏ	-10.4828
▁ㅁㅏㄹㅎㅐ	-10.4828
▁ㅅㅏㅁㅜㅈㅏㅇ	-10.4828
▁ㅂㅐㅇㅝ	-10.4831
▁ㄷㅚㅇㅓㅆㄷㅏ	-10.4832
▁ㄱㅜㅅㅓㅇㅇㅝㄴ	-10.4835
▁ㅇㅗㄹㄹㅏㅇㅘ	-10.4836
▁ㅂㅗㄹㅡ	-10.4837
▁ㅈㅓㅁㅇㅠㅇㅠㄹ	-10.4841
▁ㅈㅣㅋㅏ	-10.4841
▁ㅅㅡㅁㅕ	-10.4841
▁ㅂㅗㅇㅑㅇ	-10.4841
ㅂㅅㅡㅂㄴㅣㄷㅏ	-10.4841
ㄱㅌㅓ	-10.4842
▁ㅁㅜㅈㅚㄹ	-10.4842
▁ㅂㅐㄷㅏㄹ	-10.4843
▁ㅈㅓㄱㅎㅕ	-10.4844
▁ㅎㅡㄴㄷㅡㄹㄹㅣ	-10.4844
▁ㅎㅟㄷㅜ	-10.4844
▁ㅇㅟㅎㅕㅂ	-10.4845
▁ㄱㅜㅈㅔ	-10.4846
▁ㅇㅚㅂㅜㅇㅣㄴ	-10.4848
▁ㅁㅏㄹㅣㅇㅏ	-10.4851
▁ㅅㅐㅇㄱㅖ	-10.4852
▁ㅇㅏㄹㄱㅔㅆ	-10.4853
▁ㅇㅛㅇㅇㅣㄴㅎㅏ	-10.4853
▁ㅎㅘㅇㅈㅔ	-10.4853
▁ㅅㅓㅇㄱㅜㅇㅔ	-10.4853
▁ㅅㅗㅁㅏㅇ	-10.4854
▁ㄱㅕㄹㅎㅏ	-10.4855
▁ㅂㅜㅂㅜㅇㅔㄱㅔ	-10.4857
ㅅㅡㅍㅡㄹ	-10.4859
▁ㅇㅠㄹㅕㄱ	-10.4861
▁ㅇㅣㄴㅈㅓㅇㅂㅏㄷ	-10.4864
▁ㅋㅐㄴ	-10.4865
▁ㅈㅗㄴ	-10.4865
▁ㅍㅏㅇㅓㅂㅇ	-10.4868
▁ㅎㅏㅇㅁㅗㄱ	-10.4869
▁ㅊㅜㅈㅣㄴㅎㅏㄴ	-10.4872
▁ㄱㅓㄴㄴㅔㄴ	-10.4872
▁ㅇㅕㄴㅕㄴ	-10.4873
▁ㅅㅐㅇㅁㅜㄹ	-10.4873
▁ㄱㅕㅇㅊㅏㄹㄱㅘㄴ	-10.4875
▁ㅂㅜㄴㄱㅐㅎ	-10.4879
▁ㄱㅓㄴㅂㅗ	-10.4879
ㅎㅏㄴㄱㅜㄱㄷㅏㅇ	-10.4882
▁ㅅㅓㄴㄱㅛ	-10.4883
▁ㄱㅓㅁㅌㅗㅎㅐ	-10.4883
▁ㄴㅜㄱㅜㅇㅔㄱㅔ	-10.4886
▁ㅆㅣㄹㅡㅁㅎ	-10.4887
▁ㅇㅟㅌㅡ	-10.4887
▁ㅍㅗㄷㅐ	-10.4887
▁ㅇㅣㅂㅎㅣ	-10.4887
▁ㅌㅜㅈㅐㅇ	-10.4888
▁ㅊㅏㅊㅔ	-10.4888
▁ㄹㅣㅂㅔ	-10.4889
ㅎㅕㄴㄷㅚ	-10.4889
ㅜㄴㅅㅓㄱ	-10.4897
▁ㅅㅣㅅㅓㄹㄹㅗ	-10.4898
▁ㄱㅕㅇㅇㅕㅇㄱㅝㄴ	-10.4898
▁ㄱㅗㅊㅣ	-10.4898
ㅡㄴㄷㅔ	-10.49
▁ㅁㅗㄹㅐ	-10.4903
ㅈㅡㅇㅈㅏ	-10.491
▁ㄴㅜㅈㅣㄴㅈㅔㄷㅗ	-10.4912
▁ㅂㅜㅊㅐ	-10.4914
ㅏㄴㅣㅇㅏ	-10.4914
▁ㄷㅐㅇㅡㅇㅎㅏㄴㅡㄴ	-10.4919
▁ㄱㅏㄴㅅㅏㅇㅣ	-10.4919
▁ㅅㅓㅇㅈㅜㄱ	-10.4923
▁ㅎㅏㅇㅑㅎㅏㄹ	-10.4926
▁ㅈㅜㅇㅅㅏㅇ	-10.4928
▁ㅈㅣㄱㅈㅏㅇㅇㅣㄴ	-10.4928
▁ㄷㅏㅁㄷㅏㅇ	-10.4932
▁ㄱㅗㅇㅅㅔ	-10.4933
▁ㄱㅣㅇㅜㄹㅇㅣ	-10.4934
▁ㅈㅏㅇㅅㅣㄱ	-10.4936
ㅇㅕㅇㅅㅓㄱ	-10.4937
▁ㅊㅜㅈㅓㄱㅎ	-10.4937
▁ㅅㅣㄹㄹㅏㅇ	-10.4939
▁ㄴㅜㄴㅂㅣ	-10.4951
▁ㄱㅘㄴㄱㅖㅈㅏㄷㅡㄹㅇ	-10.4952
▁ㄲㅡㄶㅇㅡㄹ	-10.4957
▁ㅇㅝㄹㄷㅡ	-10.496
▁ㄸㅐㄹㅣ	-10.4961
▁ㄴㅏㅁㅅㅓㅇㄷㅡㄹㅇ	-10.4964
▁ㅈㅜㅇㅂㅜ	-10.4964
▁ㅅㅓㄴㅅㅜㄱㅡㅁㅇ	-10.4964
▁ㅅㅓㄴㅇㅓㄴㅎㅏㄴ	-10.4969
ㅏㄴㄷㅏ	-10.4969
▁ㅍㅐㄴ	-10.4971
▁ㅇㅣㅂㅇㅝㄴㅎㅐ	-10.4974
▁ㅇㅣㄹㅜㅇㅓㅈㅣㄴ	-10.4974
▁ㅇㅣㄴㅈㅓㅇ	-10.4975
▁ㄷㅐㅎㅐㅇ	-10.4978
▁ㅁㅕㄴㅈㅓㄱ	-10.4978
▁ㅇㅕㄴㅊㅏ	-10.4982
▁ㄷㅓㄱㅜㄴ	-10.4984
▁ㅅㅏㅇㅅㅡㅇㅎㅐㅆㄷㅏ	-10.4986
▁ㅇㅕㄱㄱㅕㅇ	-10.4987
▁ㄱㅛㅅㅜㄷㅡㄹ	-10.4989
▁ㅇㅏㅍㅏ	-10.4992
ㅜㅅㅡ	-10.4995
ㅂㅓㅂㅈㅗ	-10.5002
▁ㅊㅗㅇㄱㅣ	-10.5002
▁ㅁㅜㅅㅏ	-10.5003
ㄹㅕㄴㅗㅎㅇㅡ	-10.5004
▁ㅂㅏㄱㅇㅣㄴ	-10.5005
▁ㄷㅗㄹㅇㅏㅇㅗㄴ	-10.5006
▁ㅈㅣㅅㅣㅎㅐㅆㄷㅏ	-10.5009
▁ㅍㅗㄱㅍㅜㅇㅇㅣ	-10.5011
▁ㅎㅐㅈㅜ	-10.5012
▁ㄱㅗㅇㅁㅜㅇㅝㄴㄷㅡㄹㅇ	-10.5013
▁ㄱㅕㄱ	-10.5018
▁ㅁㅗㅅㅎㅏㄱㅔ	-10.5028
▁ㄱㅗㅇㄱㅗㅎㅏ	-10.5029
▁ㅇㅏㄹㄹㅕㅈㅜ	-10.5034
ㅕㅁㅎㅏ	-10.5035
▁ㅂㅗㄷㅏ	-10.5035
▁ㄹㅣㅁ	-10.5046
▁ㅈㅓㄴㅁㅜㄴㅅㅓㅇ	-10.5046
▁ㅌㅐㅇㅓㄴㅏㄴ	-10.5049
▁ㅈㅏㅇㄱㅣ	-10.505
ㄱㅛㄹㅠ	-10.5051
▁ㅅㅐㅇㄱㅏㄱㅎㅐㅆㄷㅏ	-10.5055
▁ㅈㅗㄹㅣ	-10.5067
▁ㄷㅗㅇㅎㅐㅇㅎ	-10.5071
ㅇㅜㄴㄷㅗㅇㄱㅝㄴ	-10.5075
ㄴㅏㅁㅏ	-10.5078
▁ㅌㅏㄹㄹㅏㄱㅎ	-10.508
ㅔㅅㅡ	-10.5083
▁ㅎㅓㄹㅣ	-10.5084
▁ㅅㅔㅅ	-10.5087
▁ㄱㅣㅁㅅㅜ	-10.5087
▁ㅇㅟㅎㅐㅅㅓㄹㅏ	-10.5089
▁ㅂㅜㅁㅜㄴㅇㅔㅅㅓ	-10.5091
▁ㅇㅣㅎㅗㄴㅎㅏ	-10.5107
ㄱㅣㄱㅣ	-10.5111
▁ㅅㅜㅎㅐㅇ	-10.5111
ㅅㅏㄴㅇㅔ	-10.5112
▁ㅁㅜㄹㄹㅓㄴㅏ	-10.5115
▁ㅇㅣㄹㅡ	-10.5117
▁ㅇㅡㄴㅌㅚ	-10.5122
ㅡㄹㅣㄱㅗ	-10.5124
▁ㅈㅗㅅ	-10.513
▁ㄱㅏㅂ	-10.5131
▁ㅇㅣㄹㅝㅈㅣㄴㄷㅏ	-10.5143
ㄹㅣㄷㅗ	-10.5151
ㅅㅣㅁㅔㄴㅌㅡ	-10.5152
ㅅㅔㄹㅕㄱㅎㅘ	-10.5159
▁ㄱㅓㄹㅗㄴ	-10.5172
ㄹㅁㅓㄹㅣㄹ	-10.5172
ㄱㅘㄴㅇㅕ	-10.5173
▁ㄷㅡㅇㄱㅡㅂㅇ	-10.5176
▁ㅈㅗㅎㅇㅏㅎㅏ	-10.5176
▁ㅎㅏㅂㅅ	-10.518
▁ㅈㅜㅇㄷㅏㄴ	-10.5181
ㅡㅁㅏㄴㄷㅜ	-10.5185
▁ㄱㅏㅈㅕㅇㅗ	-10.5186
▁ㅂㅜㅁㅜㄴㅇㅔㅅㅓㄴ	-10.5196
▁ㅂㅏㅇㅇㅏㄴㅇㅣ	-10.5197
▁ㅈㅜㅊㅚ	-10.52
ㅕㅂ	-10.5205
▁ㅊㅜㄹㅏㄱㅎㅐ	-10.5211
ㅈㅓㅇㅂㅜ	-10.5213
▁ㅊㅚㄱㅗㅇㅟㅇㅝㄴㄷㅡㄹㅇ	-10.5215
▁ㅈㅗㅈㅓㄹㅎ	-10.5218
▁ㅈㅗㅇㅓㅂ	-10.5218
▁ㄱㅘㄱㅓㅇㅔ	-10.5221
▁ㅅㅓㄹㅊㅣㅎㅏ	-10.5221
▁ㅊㅓㅇㅈㅏㅇ	-10.5228
▁ㅈㅏㅅ	-10.5234
▁ㅎㅏㅇㄱㅗㅇㅅㅏㄷㅡㄹ	-10.5236
ㅅㅓㅇㄱㅣ	-10.5239
▁ㅅㅜㄷㅏㄴ	-10.5242
▁ㄷㅐㅅㅏㅇㅈㅏ	-10.5249
▁ㅁㅏㄹㅡ	-10.5249
▁ㅎㅏㄴㅏㅇㅕ	-10.525
▁ㅍㅕㄹㅊㅕㅈㅣ	-10.5252
▁ㄴㅡㄹㄹㅣㄱㅣ	-10.5252
▁ㄴㅗㅇㄱㅏ	-10.5265
ㅊㅜㄹㄷㅜ	-10.5282
ㅈㅜㅈㅜ	-10.5288
▁ㅅㅏㅅㅓㄹ	-10.5288
ㅇㅓㅆㄱㅗ	-10.53
ㅇㅣㄹㄱㅏㄱㅇㅔㅅㅓ	-10.5305
ㅈㅣㅂㄷㅏㄴ	-10.5307
ㄱㅓㄱㅈㅓㅇ	-10.5309
▁ㅌㅔㅁ	-10.5319
▁ㄷㅗㅈㅓ	-10.532
▁ㄱㅡㅁㅈㅣ	-10.5323
ㅅㅜㅎㅐㅇ	-10.5325
ㅅㅣㄱㅖ	-10.5327
▁ㅎㅐㅇㄷㅗㅇㅎㅏ	-10.5328
▁ㅅㅗㄴㅕㄷㅡㄹㅇ	-10.5329
ㄴㅣㅇㅏ	-10.5331
▁ㄱㅏㅅㅡ	-10.5331
▁ㄴㅗㅍㅇㅏㅆ	-10.5333
ㄱㅖㄹㅗ	-10.5333
ㅍㅕㄴㅇㅡㄹㅗ	-10.5336
▁ㅁㅏㅈㅊㅜㅁ	-10.5338
ㄷㅏㅁㅂㅏㄴ	-10.5339
▁ㅊㅏㅁㅅㅓㄱㅎㅏㄴ	-10.5344
ㅆㄱㅔ	-10.5347
▁ㅎㅏㄹㅜㅁㅏㄴ	-10.5351
ㅇㅜㄴㅇㅕㅇ	-10.5352
ㅇㅝㄴㅎㅏㄴㄷㅏㅁㅕ	-10.5355
▁ㄱㅕㅇㅈㅐㅇㄹㅕㄱㅇ	-10.5359
ㅂㅕㅇㅇㅡㄹ	-10.536
ㅇㅅㅐㅇ	-10.5365
▁ㅇㅣㅇㅑㄱㅣㄷㅏ	-10.5374
ㅇㅑㅇㅎㅗ	-10.5375
ㄱㅜㄱㅁㅜㅎㅚㅇㅢ	-10.5378
ㅡㅁㅎㅏㄴ	-10.5378
ㅅㅣㅍㅣ	-10.5379
ㅕㅇㅗㄴ	-10.5383
ㅈㅜㅂㅜㄹ	-10.5383
▁ㅊㅓㄹㅣㅎㅐ	-10.5396
ㄷㅏㄱ	-10.5401
▁ㄱㅏㅅㅜ	-10.5406
▁ㅈㅜㅈㅏ	-10.5419
▁ㅁㅓㅁㅜ	-10.5429
ㄱㅗㅅㅗㄱㄷㅗㄹㅗ	-10.543
▁ㅈㅓㅇㅎㅘㄱㅎ	-10.5434
▁ㅇㅗㄹㄹㅕ	-10.5434
▁ㅆㅡㅇㅣㄴ	-10.5435
▁ㅇㅏㅇㅣㅌㅔㅁㅇ	-10.5437
▁ㅇㅠㄴㅣㅂㅓㅅㅡ	-10.5437
ㅍㅕㄴㅎㅑㅇ	-10.5437
▁ㄱㅗㅇㅈㅣㄱㅅㅓㄴㄱㅓㅂㅓㅂ	-10.5437
▁ㄲㅗㅇㅊㅣㄹ	-10.5437
▁ㅂㅔㅇㅣㅋㅓㄹㅣ	-10.5437
▁ㅃㅐㅇㅏㅅㅇㅏ	-10.5437
▁ㅇㅔㅅㅡㅌㅗㄴㅣㅇㅏ	-10.5437
▁ㅇㅔㅇㅓㅋㅓㄴㅇ	-10.5437
▁ㅇㅣㅌㅡㄷㄴㅏㄹ	-10.5437
▁ㅈㅡㄹㄱㅓㅇㅝ	-10.5437
▁ㅍㅏㅁㅕㄹㅅㅣㅋㅣ	-10.5437
▁ㅎㅕㅇㅅㅏㅈㅐㅍㅏㄴㅇ	-10.5437
▁ㄴㅗㅅㅛ	-10.5437
▁ㄷㅜㅂㅓㄴㅉㅐ	-10.5437
▁ㅁㅣㅇㅏㄴㅎㅏㄷㅏ	-10.5437
▁ㅂㅏㅁㅅㅐ	-10.5437
▁ㅂㅣㅂㅏㄱㄱㅖ	-10.5437
▁ㅈㅜㄱㅇㅕㅂㅓㄹㅣ	-10.5437
▁ㅌㅡㄹㄹㅣㅁㅇㅓㅄ	-10.5437
ㅍㅓㄷㅡ	-10.5437
▁ㅂㅏㄴㄹㅕㄱㅕㄴㅇㅡ	-10.5437
▁ㅅㅠㅍㅓ	-10.5437
▁ㅇㅣㄴㅈㅗㅇㅊㅏㅂㅕㄹㅇ	-10.5437
ㅍㅗㄱㅅㅡㅂㅏㄱㅔㄴ	-10.5437
ㅎㅔㄹㅓㄹㄷㅡ	-10.5437
▁ㅎㅕㄹㅇㅠㄱㅇ	-10.5437
▁ㄷㅗㄷㅜㄱ	-10.5437
▁ㄱㅣㅅㅏㅇㅊㅓㅇㅇ	-10.5437
▁ㅇㅠㅌㅗㅇㄱㅣㅎㅏㄴ	-10.5437
▁ㅅㅓㅇㄱㅘㅅㅏㅇㅇㅕㄱㅡㅁ	-10.5437
▁ㄷㅔㄹㅕㄷㅏ	-10.5437
▁ㅇㅚㄱㅛㅈㅓㄱ	-10.5437
▁ㅈㅔㅇㅑㄱㅇㅣ	-10.5437
▁ㄹㅔㄴㅊㅣ	-10.5437
ㄴㅗㅊㅗㅇ	-10.5437
▁ㅋㅗㄹㅡㅋㅡ	-10.5438
▁ㅊㅗㅇㅎㅏㄱㅅㅐㅇㅎㅚ	-10.5438
▁ㄱㅕㄹㅈㅣㅂㅅㅣㅋㅣㄴ	-10.5438
▁ㅈㅓㄹㅅㅣㄹㅎㅏ	-10.5438
▁ㅅㅓㄴㅈㅣㄴㄱㅜㄱㅇ	-10.5438
▁ㅎㅏㅇㄹㅗ	-10.5438
▁ㅅㅜㄴㅈㅏㅅㅏㄴ	-10.5438
▁ㅁㅕㅇㅁㅜㄴㄷㅐ	-10.5438
▁ㅇㅕㄴㅎㅏㅂㄴㅠㅅㅡ	-10.5438
▁ㅈㅗㅇㅎㅏㅂㅈㅓㄱ	-10.5438
ㄲㅜㅈ	-10.5439
▁ㄴㅠ	-10.5439
▁ㅅㅣㄷㅏㄹㄹㅣ	-10.5439
▁ㄴㅏㅇㅏㅈㅣ	-10.5439
ㅅㅜㅈㅓㄷㅡㄹㅇ	-10.5439
ㅎㅗㅅㅜ	-10.5439
ㅡㄹㅏㅇㅣㄴㅇㅡㄹ	-10.544
ㄹㅔㅇㅣㅌㅓ	-10.544
▁ㅌㅜㅍㅛ	-10.5441
▁ㅎㅢㄴ	-10.5441
▁ㅊㅔㄹㅠ	-10.5441
ㅎㅗㄹㅏㅇㅇㅣ	-10.5441
▁ㅌㅚㅇㅣㅁ	-10.5442
▁ㅍㅗㅈㅡ	-10.5442
▁ㅊㅣㄴㅂㅏㄱㄱㅖ	-10.5442
▁ㅅㅓㅇㅇㅏㄱ	-10.5442
▁ㄱㅓㅁㄱㅓ	-10.5443
▁ㅇㅏㄴㅣㅈㅏㄶㅇㅏㅇㅛ	-10.5443
▁ㅁㅣㄴㅅㅐㅇ	-10.5443
▁ㅎㅡㅂㅅㅜㅎ	-10.5444
▁ㅇㅣㄴㅈㅓㅇㅂㅏㄷㅇ	-10.5444
▁ㄱㅜㄷㅎㅣ	-10.5444
▁ㄴㅏㄱㅅㅓ	-10.5446
▁ㅇㅕㄱㅅㅓㄹ	-10.5446
▁ㅊㅜㄹㄱㅗㄱㅏ	-10.5446
▁ㅇㅣㄱㅎㅣ	-10.5447
ㅈㅏㄹㅣ	-10.5447
▁ㄷㅐㅂㅓㅂㅇㅝㄴㅇ	-10.5447
▁ㄷㅡㄹㄹㅓ	-10.5447
ㅂㅅㅣㄷㅏ	-10.5448
▁ㅈㅗㅎㄱㅔㅆㅇㅓㅇㅛ	-10.545
▁ㄱㅏㄷㅏㄱㅇㅡㄹ	-10.545
▁ㅌㅗㅇㅈㅡㅇㅇ	-10.5452
▁ㄷㅗㅇㅇㅑㅇ	-10.5452
▁ㅊㅐㅈㅣㅂ	-10.5452
ㅋㅡㄹㄹㅓㅂ	-10.5452
▁ㅁㅜㄴㅎㅘㅈㅐ	-10.5452
▁ㅅㅓㄴㅌㅣㅇ	-10.5453
▁ㄱㅏㅁㅊㅓㅇ	-10.5455
▁ㅁㅕㄹㅊㅣ	-10.5455
▁ㅈㅜㄹㅇㅓㄷㅡㄹㄱㅔ	-10.5456
▁ㅇㅝㄴㅇㅣㅇㅓㅆㄷ	-10.5457
▁ㄷㅓㄴㅈㅣㄴ	-10.5457
▁ㄸㅓㄷㅡ	-10.5458
▁ㅇㅗㄹㅂㅏㄹㅡ	-10.5459
▁ㄱㅗㅇㅌㅗㅇ	-10.5462
▁ㅁㅓㅇ	-10.5462
ㅇㄱㅜㄱㅇㅡㄴ	-10.5462
▁ㄱㅓㄴㅈㅗ	-10.5462
▁ㅈㅓㄴㅍㅏㅎㅏ	-10.5463
▁ㄱㅕㄹㅅㅏㄴ	-10.5464
▁ㅈㅜㄹㅇㅓ	-10.5466
▁ㄱㅣㄷㅏㄹㅕㅆㄷㅏ	-10.5466
▁ㅈㅏㅁㅐ	-10.5467
▁ㅁㅗㄱㅡㅁ	-10.5468
▁ㄷㅏㄴㄹㅏㄴ	-10.5469
▁ㅍㅜㄹㄹㅣㄹ	-10.5471
ㄱㅇㅓㄱㅏ	-10.5472
▁ㅇㅠㅍㅗ	-10.5472
▁ㅌㅗㄷㅐ	-10.5473
ㄱㅗㅇㅎㅏㅇㅇㅔㅅㅓ	-10.5473
▁ㅅㅣㄴㅂㅏㄹ	-10.5474
▁ㅅㅓㅆㅣ	-10.5475
ㅡㄹㄹㅔ	-10.5475
▁ㅅㅓㅂ	-10.5476
▁ㅇㅣㄷㅗㅇㅎㅐ	-10.5477
▁ㅌㅡㄱㅎㅘ	-10.5478
ㅗㅂㅏㅇㅣ	-10.5481
▁ㄷㅐㄹㅠ	-10.5483
▁ㄷㅏㅌㅜ	-10.5483
▁ㅅㅡㅋㅏ	-10.5484
▁ㅈㅏㄹㅎㅐㅆ	-10.5485
▁ㅈㅜㅇㅓ	-10.5486
▁ㅎㅏㅇㅜㅅ	-10.5487
▁ㅂㅐㄱㅡㅂ	-10.5487
▁ㅈㅐㅁㅣㅇㅣㅆ	-10.5491
ㅅㅣㅋㅣㄱㅣ	-10.5493
▁ㅂㅏㄱㄱㅕㅇ	-10.5494
▁ㅈㅣㄴㄱㅠㄴㄹㅠㅇㅔ	-10.5494
▁ㅅㅏㄴㅇㅑㅇㅇㅡ	-10.5495
ㅇㅣㄱㅣㅈㅜㅇㅢ	-10.5499
▁ㄱㅣㅇㅕ	-10.5502
▁ㅊㅓㅇㅊㅟㅎ	-10.5502
▁ㅇㅜㄴㅎㅏㅇ	-10.5502
▁ㅎㅏㅅㅣㄹㄲㅏ	-10.5506
ㄴㄱㅗㅇㅅㅓ	-10.5508
ㅡㅂㄱㅣ	-10.5509
▁ㅅㅔㅅㅏㅇㅇ	-10.5509
▁ㄱㅕㄹㅈㅓㅇㄱㅘ	-10.551
▁ㄱㅣㄹㅡㅁㅇ	-10.5513
▁ㄱㅣㄴㅈㅏㅇ	-10.5515
▁ㅅㅗㄴㅕㄴㅇ	-10.5517
▁ㄷㅐㅇㅏㄴㅇㅡㄹ	-10.5517
▁ㄱㅏㅅㅣ	-10.5518
▁ㅇㅣㄱㅅㅡㅍ	-10.5522
▁ㅅㅣㅁㅁㅜㄴ	-10.5522
▁ㅇㅟㅂㅓㅂ	-10.5523
ㅁㅂㅣ	-10.5523
▁ㅊㅣㅇㅕㄹㅎㅏ	-10.5527
▁ㅈㅓㅈㅣㄹㄹㅓㅆ	-10.5529
ㅌㅗㅇㅇㅣㄹㅏ	-10.553
▁ㄱㅓㅅㅃㅜㄴㅇㅣ	-10.553
▁ㅍㅗㄱㄱㅕㄱ	-10.553
ㅡㅁㅎㅏㄱ	-10.5532
▁ㅈㅐㄱㅖ	-10.5532
ㅂㅘㅆ	-10.5535
▁ㅇㅗㄹㄹㅏ	-10.5537
▁ㄷㅏㄴㄱㅘ	-10.5538
▁ㅎㅠㅇㅣㄹ	-10.5538
▁ㅈㅓㅇㄱㅖ	-10.5538
ㅅㅏㅂㅗㄴ	-10.554
▁ㄷㅡㅇㄱㅡㅂㅇㅡㄹ	-10.5541
▁ㄱㅣㅇㅛ	-10.5542
ㄱㅣㅇㅗㄴㅇㅡ	-10.5543
ㅅㅗㄱㄷㅗㄹㅗ	-10.5547
▁ㅈㅜㄴㄱ	-10.5549
▁ㅎㅡㄹㄹㅣㄴ	-10.555
▁ㅈㅓㄴㅍㅗㄱ	-10.5553
▁ㅁㅐㅊㅔ	-10.5553
ㅡㅇㅇㅡㄹ	-10.5555
▁ㄱㅗㅁㅍㅏㅇ	-10.5557
ㅅㅗㅌ	-10.5558
▁ㄱㅗㅅㅓㅇ	-10.5561
▁ㅊㅔㅈㅜㅇ	-10.5562
ㄱㅕㄹㅎㅏㄴ	-10.5562
▁ㅍㅏㄱㅣ	-10.5563
▁ㅌㅓㅈㅣ	-10.5564
▁ㅈㅣㄴㅎㅐㅇㅎㅏㄴ	-10.5565
▁ㅅㅣㄲㅏㅈㅣ	-10.5572
▁ㅊㅓㄴㅁㅕㅇ	-10.5575
▁ㅈㅣㄱㅅㅓㄴ	-10.5583
▁ㅈㅔㄱㅗㅂ	-10.5586
▁ㅇㅕㄹㄱㅣㄹㅗ	-10.5596
ㅈㅗㅇㅔ	-10.5598
▁ㄴㅏㅇ	-10.5601
▁ㄱㅕㅇㄱㅗㅎㅏ	-10.5602
ㅂㅕㄴㄹㅗㄴㅇ	-10.5603
▁ㅁㅗㄹㄷ	-10.5604
ㅎㅏㅇㅕㅆㄷㅏ	-10.5605
ㄼ	-10.5611
ㅍㅖㄹㅗ	-10.5612
▁ㅁㅏㅈㅅㅓ	-10.5612
▁ㅈㅗㅅㅏㅎㅐ	-10.5617
▁ㅇㅣㅆㅇㅡ	-10.5618
▁ㅈㅓㅇㅎㅘㄱㅎㅏ	-10.5627
ㅓㄴㅈㅣ	-10.5628
▁ㅆㅡㄴㄷㅏ	-10.5629
▁ㅇㅣㅊ	-10.5632
▁ㄱㅐㅅㅓㅇ	-10.5633
▁ㅎㅕㄱㅅㅣㄴㅇㅏㄴㅇㅡ	-10.5634
▁ㅇㅠㅈㅣㅎㅐㅇㅘㅆ	-10.5638
▁ㄴㅏㄴㅁㅣㄴ	-10.564
▁ㄱㅡㄱㄷㅗ	-10.5642
▁ㅇㅣㄴㅅㅣㄱㅇㅣ	-10.5646
▁ㅁㅕㄴㅅㅔ	-10.5651
▁ㅇㅣㄴㅅㅏㅇㅔ	-10.5652
ㅂㅈㅔ	-10.5652
ㄴㅣㅅㅡ	-10.5656
▁ㅂㅏㄷㅇㅡㅁㅕㄴ	-10.5658
▁ㅇㅑㄱㅝㄴㅇㅔㅅㅓ	-10.5665
▁ㄴㅏㄱㅏㅅㅓ	-10.5667
▁ㅁㅜㄴㅈㅔㅇㅣㄹ	-10.5668
▁ㅌㅓㄹㄱㅣ	-10.5668
▁ㅅㅣㅈㅏㄱㅎㅏㅁㅕㄴ	-10.5668
▁ㅎㅚㄱ	-10.567
ㅇㅑㄱㅎㅏㄱㅔ	-10.5671
ㄱㅠㄴ	-10.5672
▁ㅊㅜㄹㅏㄱ	-10.5677
▁ㄷㅚㄹㅈㅣ	-10.5691
▁ㄱㅓㅈㅔ	-10.5693
▁ㅈㅏㅎㅐ	-10.5694
▁ㅅㅏㅇㅛㅇㄷㅚ	-10.5695
▁ㄱㅕㅂ	-10.5697
ㅂㅏㅇㅂㅜㄷ	-10.5706
▁ㄱㅏㅌㅇㅡ	-10.5708
▁ㅈㅓㅇㅎㅘㄱ	-10.571
ㅊㅐㅇㅛㅇ	-10.5715
▁ㅂㅏㄴㅂㅗㄱㅎㅏ	-10.5716
▁ㄱㅜㅅㅓㅇㅎㅐ	-10.5717
▁ㅅㅓㄴㄷ	-10.5728
▁ㅂㅜㄹㅡㄱㅗ	-10.5736
▁ㅇㅏㄴㄱㅓㄴ	-10.5736
▁ㄹㅠ	-10.5742
▁ㅌㅏㅎㅕㅂㅇ	-10.5745
▁ㅎㅐㅇㅂㅗㄱㅎㅏ	-10.5757
▁ㅇㅕㄹㄷㅐ	-10.5758
▁ㅂㅏㄷㄱ	-10.576
▁ㅇㅗㄹㄹㅏㅆ	-10.576
▁ㄱㅏㅌㅈㅣㅁㅏㄴ	-10.576
ㅍㅕㅇㄱㅏ	-10.5765
ㄹㄹㅓㄱ	-10.5768
▁ㄷㅐㅈㅓㄴ	-10.5773
ㅌㅇㅣ	-10.578
ㅅㅏㅅㅡㄹㅇ	-10.578
▁ㅌㅏㄹㄷㅏㅇㅎㅏ	-10.579
▁ㅍㅜㅇㄱ	-10.5797
▁ㅅㅏㅇㅓㅂㅈㅏ	-10.5807
ㅎㅏㄱㅈㅏㄷㅡㄹ	-10.5811
▁ㅅㅜㅇㅝㄴ	-10.584
ㅇㅑㅇㅇㅡㄹ	-10.5843
▁ㅈㅓㄱㄷㅏㅇㅎ	-10.5843
▁ㅈㅣㅊㅣㅇㅎ	-10.5847
▁ㅇㅣㅇㅓㅈㅣㄹ	-10.5849
▁ㅈㅜㅅㅕㅆㅅㅡㅂㄴㅣ	-10.5857
▁ㅂㅣㅇㅠㄹㅇ	-10.5859
ㅇㅜㄹ	-10.5862
▁ㅂㅗㅅㅏㅇㄱㅡㅁㅇㅡ	-10.5874
▁ㄱㅕㅇㅈㅔㅈㅓㄱ	-10.5879
ㄷㅏㅇㄱㅜㄱㅇㅡ	-10.588
▁ㅈㅣㅇㅕㄴㄷㅚ	-10.5882
ㅜㅇㅈㅣ	-10.5884
▁ㄱㅕㅇㅈㅐㅇㄹㅠㄹㅇ	-10.5884
ㅂㅏㄷㅇㅏㅆ	-10.5884
▁ㅇㅝㄴㅈㅓㄴ	-10.5888
▁ㄴㅗㄴㅇㅢㅇㅔ	-10.5888
▁ㅈㅣㄴㅎㅐㅇㅎㅏㅁㅕㄴ	-10.5891
▁ㅋㅗㅅㅡ	-10.5898
▁ㅎㅕㅂㅅㅏㅇㅇㅔ	-10.59
ㅅㅗㅈㅜ	-10.5903
▁ㅎㅡㄴㅎㅏ	-10.5911
▁ㅅㅏㅁㅜㅊㅗㅇㅈㅏㅇ	-10.5911
ㄴㅏㄴㄷㅏ	-10.5914
ㄷㅔㅇ	-10.592
ㅅㅓㄹㄱㅘ	-10.5927
ㅂㅜㄷㅡㄹ	-10.5931
▁ㅈㅓㅈ	-10.5937
▁ㅋㅣㅇㅜㄱ	-10.594
ㅇㄹㅕㅇ	-10.5944
▁ㅁㅜㄷㅓㅁㅇ	-10.5948
ㅇㅈㅏㅇ	-10.5953
ㅂㅏㄹㅈㅓㄱ	-10.5956
▁ㄴㅐㄴㄷㅏ	-10.5964
▁ㅍㅏㅇㅏㄱㄷㅙㅆ	-10.5964
▁ㄷㅐㅂㅕㄴ	-10.5972
▁ㄸㅓㅇㅗㄹㅡ	-10.5972
ㅡㅁㅔ	-10.5975
ㅅㅣㄱㅏㄴㅇㅣ	-10.5976
▁ㅇㅜㅅㅡ	-10.5976
ㅌㅚㅈㅣㄱ	-10.5977
▁ㅂㅜㅌㅇ	-10.5978
▁ㅅㅜㅊㅓㅂㅇ	-10.5983
ㅁㅜㄹㅇㅓ	-10.5989
▁ㅈㅏㅇㅅㅣ	-10.5989
▁ㅍㅣㅇㅜ	-10.5994
ㅅㅏㅇㅣㅌㅡ	-10.5995
▁ㅇㅛㄱㅜㄷㅚㄴ	-10.5998
▁ㅁㅏㄹㄹㅏ	-10.6
▁ㄷㅡㄹㅓㄴㅐㄴ	-10.6007
ㄴㅡㄴㅑㅁㅕ	-10.6013
▁ㄷㅗㅇㅣㅂㄷㅚㄴ	-10.6016
ㅇㅑㄱㅔㅆㄷㅏ	-10.6021
ㅗㄱㅎㅣ	-10.6023
ㅇㅣㄹㅈㅓㅇ	-10.6024
▁ㄷㅏㄹㅎㅐㅆ	-10.6033
ㅂㅓㅌㅓ	-10.6034
ㅟㄴㄷㅏ	-10.6043
ㅔㄱㅅㅡ	-10.6046
ㅁㅜㄱㅣ	-10.6049
▁ㅈㅓㅇㅊㅐㄱㅇㅔ	-10.605
▁ㅎㅗㅅㅗㅎㅏㄴ	-10.6071
ㅎㅐㅇㅏㄴ	-10.6076
ㄴㅐㅇㅣㄹ	-10.6085
ㄷㅚㄱㅔㅆ	-10.6087
ㅅㅡㅋㅗ	-10.6092
ㄷㅗㅈㅣㅅㅏ	-10.6095
▁ㄴㅏㅁㄷㅏㄹㅡ	-10.6101
ㅈㅜㅇㅇㅏㅇ	-10.6103
▁ㄱㅕㅂㅊㅣㅁㅕㄴㅅㅓ	-10.6103
▁ㄱㅗㅌㅗㅇㅅㅡㄹㅓ	-10.6103
▁ㄱㅚㄹㅗㅂㅎㅣ	-10.6103
▁ㄱㅣㅃㅡ	-10.6103
▁ㄲㅗㅈ	-10.6103
▁ㅁㅓㅁㅊㅝㅅㅓ	-10.6103
▁ㅂㅣㄹㄷㅣㅇㅇ	-10.6103
▁ㅃㅐㅇㅏㅅㄱ	-10.6103
▁ㅅㅜㄱㅡㄹㅓㄷㅡㄹ	-10.6103
▁ㅆㅡㄷㅏㄷㅡㅁㅇㅓ	-10.6103
▁ㅇㅣㄹㅖㅈㅓㄱㅇ	-10.6103
▁ㅈㅏㅇㄹㅖㅅㅣㄱ	-10.6103
▁ㅋㅡㄹㅜㅈㅡ	-10.6103
▁ㅎㅏㄹㅇㅏㅂㅓㅈㅣ	-10.6103
ㄲㅡㅅ	-10.6103
▁ㅅㅡㄹㅍㅓㅎㅏ	-10.6103
▁ㅍㅡㄹㅐㄴ	-10.6103
ㅈㅜㅁㅣㄴㄷㅡㅇㄹㅗㄱㅂㅓㄴㅎㅗ	-10.6103
▁ㅈㅓㅇㅊㅐㄱㅈㅗㅈㅓㅇㅎ	-10.6103
▁ㅍㅣㅅㅓㄱㅐㄱ	-10.6103
▁ㄱㅏㅂㅈㅏㄱㅅㅡㄹㅓ	-10.6103
▁ㅊㅜㅇㅈㅗㄱㅅㅣㅋㅣ	-10.6103
▁ㅇㅖㅅㄴㅏㄹㅇㅔ	-10.6103
▁ㅇㅘㅇㅣㅈ	-10.6103
▁ㄴㅜㄹㅡ	-10.6103
▁ㅊㅣㅋㅣㄴ	-10.6103
▁ㅅㅏㅋㅜㄹㅏ	-10.6103
▁ㅇㅣㅇㅜㅅㄷㅡㄹ	-10.6104
▁ㄱㅏㅎㅗㄱㅎㅏ	-10.6104
▁ㄲㅜㄹㅂㅓㄹ	-10.6104
▁ㅈㅓㄴㅕㄱ	-10.6104
ㅁㅔㄷㅡ	-10.6104
▁ㅇㅛㅇㅇㅕㄱ	-10.6104
▁ㄴㅏㄴㄱㅏㅁㅎㅐㅎ	-10.6104
▁ㅈㅓㄻㅇㅡㅁ	-10.6104
ㅈㅣㅍㅇㅓㅂㅘㅆ	-10.6104
▁ㅇㅠㄷㅐㅇㅣㄴ	-10.6104
ㄷㅓㅅㅡ	-10.6104
▁ㅇㅕㄱㅕㅈㅣ	-10.6104
ㅅㅏㄹㅕㅇㅂㅜ	-10.6104
▁ㅎㅚㅈㅏㄷㅚ	-10.6105
▁ㄱㅘㅅㅣㅎㅏㄱ	-10.6105
▁ㅇㅣㅌㅐㅇㅝㄴ	-10.6105
▁ㄷㅡㄹㄹㅡ	-10.6106
▁ㅊㅜㄴㅊㅓㄴ	-10.6106
▁ㅅㅏㅇㅣㅂㅓ	-10.6106
▁ㄷㅟㄸㅏㄹ	-10.6106
▁ㅂㅏㄱㅁㅜㄹㄱㅘㄴ	-10.6106
ㄲㅜㄴㄷㅡㄹ	-10.6106
▁ㅎㅐㅅㅂㅣㅊ	-10.6106
▁ㅈㅓㄴㅌㅗㅇㅅㅣㅈㅏㅇ	-10.6106
▁ㅅㅐㅇㅌㅐ	-10.6107
ㅊㅣㅅㅏ	-10.6107
ㅅㅏㅅㅗㅅㅗㅇ	-10.6107
▁ㅍㅏㅇㅜㄹㄹㅣㄴ	-10.6107
▁ㅈㅡㄱㄱㅏㄱ	-10.6107
ㄹㅣㅋㅗ	-10.6107
ㅕㅆ	-10.6107
▁ㅁㅣㄴㅈㅜㅎㅘ	-10.6107
▁ㅈㅣㄴㅎㅘㄹㅗㄴㅇ	-10.6108
▁ㅅㅣㄹㅈㅣㄱㅎㅏ	-10.6108
▁ㅇㅜㄴㅎㅐㅇ	-10.6109
▁ㅂㅜㄹㅇㅏㄴㅈㅓㅇ	-10.6109
▁ㅌㅡㄱㄱㅏㅇ	-10.611
▁ㅍㅛㅈㅜㄴㅎㅘ	-10.611
▁ㅎㅓㄴㅅㅣㄴ	-10.611
▁ㅇㅣㄺㄴㅡㄴ	-10.611
ㄹㄱㅗㄱ	-10.6112
▁ㅎㅕㅇㅅㅓㅇㅎㅏㅇㅕ	-10.6113
ㅇㅣㅇㅜㅅ	-10.6115
ㄹㅗㄱㅇㅣ	-10.6115
▁ㅇㅕㄴㅇㅖ	-10.6115
▁ㅇㅚㅁㅗ	-10.6115
▁ㅇㅏㅂㅅㅜ	-10.6115
▁ㅁㅏㄱㅇㅏ	-10.6116
▁ㅇㅡㅁㅈㅜ	-10.6116
▁ㅅㅣㄹㅊㅓㄴㅎㅏ	-10.6117
▁ㅍㅣㄹㅅㅜ	-10.6117
▁ㄱㅖㅅㅗㄱㄷㅚㅇㅓ	-10.6118
▁ㄱㅛㅂㅗㄱ	-10.6118
▁ㄱㅕㅇㅈㅔㅈㅓㅇㅊㅐㄱㅇ	-10.6119
ㅡㄹㅓㅂㄷㅏ	-10.6119
▁ㅊㅗㅇㅈㅐ	-10.6122
▁ㅇㅣㄹㅂㅏㄴㅈㅣㄱ	-10.6124
▁ㅎㅜㅂㅏㄴ	-10.6124
▁ㅈㅣㄱㅁㅕㄴㅎㅏㄴ	-10.6125
▁ㅌㅣㄹ	-10.6125
ㅇㅕㄹㅗㄴㅈㅗㅅㅏ	-10.6126
▁ㄴㅗㅇㅔㄹㅇ	-10.6126
▁ㄴㅗㅎㅇㅕㅆ	-10.6126
▁ㅈㅏㅇㅁㅗ	-10.6128
▁ㅎㅢㅁㅏㅇㅇㅣ	-10.6129
▁ㅎㅗㅇㅇㅕㄱ	-10.6129
ㅍㅜㄷㅡ	-10.613
▁ㅇㅏㄲㅏ	-10.6132
▁ㅂㅜㄹㅌㅏ	-10.6132
▁ㅇㅠㅈㅓㄴㅈㅏ	-10.6133
ㅇㅕㄴㅊㅣ	-10.6134
▁ㅂㅣㅎㅐㅇ	-10.6136
▁ㅇㅐㅂ	-10.6136
▁ㅈㅓㅂㄱㅡㄴㅎㅏ	-10.6136
▁ㅍㅗㅇㅣㄴㅌㅡ	-10.6136
ㄱㅓㄴㅅㅓㄹ	-10.6138
▁ㅇㅣㄴㄴㅐ	-10.6139
▁ㅂㅏㄹㄷㅗㅇ	-10.6141
▁ㅈㅣㄴㅏㅊㅣ	-10.6141
▁ㄷㅡㄹㅇㅓㅂㅗ	-10.6141
▁ㄱㅗㄱㅡㅂ	-10.6142
▁ㄷㅏㄹㅡㄷㅏ	-10.6142
▁ㄴㅗㅎㅜ	-10.6143
▁ㅂㅏㅇㅟ	-10.6143
▁ㅊㅣㄹㅛㅂㅏㄷㄷ	-10.6144
▁ㅅㅐㅇㄱㅕㄴㅏㅈ	-10.6145
ㄱㅝㄴㄹㅕㄱ	-10.6146
ㄱㅡㅁㄹㅣ	-10.6148
ㄴㅏㅂㅇㅣㅂ	-10.615
ㅅㅣㄴㅈㅏㅇ	-10.6151
▁ㅇㅑㅇㅆㅣ	-10.6153
▁ㄱㅘㄴㅇㅕㅎㅐㅆ	-10.6155
▁ㅂㅜㄹㅎㅘㅇ	-10.6158
▁ㄷㅏㅇㅊㅓㅇ	-10.6161
▁ㅌㅜㅇ	-10.6161
ㅅㅜㅁ	-10.6162
ㅅㅕㅆㅇㅓㅇㅛ	-10.6165
▁ㅇㅣㅂㅇㅓ	-10.6165
▁ㅈㅏㄱㅍㅜㅁㄷㅡㄹ	-10.6166
▁ㄷㅡㄹㄹㅣㄴㄷㅏ	-10.6168
▁ㅈㅔㅈㅐ	-10.617
▁ㄷㅓㅍㅊ	-10.6173
▁ㅇㅕㅇㅎㅑㅇㄹㅕㄱ	-10.6176
▁ㅈㅏㅇㅅㅓㅇ	-10.6179
▁ㅇㅕㄴㄱㅜㅌㅣㅁㅇ	-10.618
▁ㅁㅜㄱㅓㅇ	-10.6182
▁ㅁㅣㄹㅡ	-10.6184
▁ㄱㅏㄴㅈ	-10.6188
▁ㅅㅏㄹㅍㅣㄴ	-10.6189
▁ㄷㅏㄷㅇㅡ	-10.619
ㄹㅕㅇㅑ	-10.6191
▁ㄱㅣㅇㅓ	-10.6191
ㄴㅣㅋ	-10.6193
▁ㅁㅣㄹㅇㅓㅂㅜㅌㅇ	-10.6195
▁ㅁㅣㄹㄹㅣㅁ	-10.6195
ㅈㅣㄱㅓㅁ	-10.6196
ㅅㅡㅌㅓㄹㅣ	-10.6198
▁ㅅㅗㅇㅎ	-10.6201
ㅌㅐㅇㅝ	-10.6202
▁ㅇㅏㄶㄱ	-10.6206
▁ㅍㅛㄱㅣ	-10.6211
ㄴㅎㅗㅎㅏㄴ	-10.6213
ㅇㅇㅓ	-10.6215
ㅂㅏㄷㅇㅏㅆㄷㅏ	-10.6221
▁ㅍㅐㅌㅓㄴㅇㅣ	-10.6233
▁ㅃㅜㄴㅇㅣㅇㅓㅆㄷㅏ	-10.6237
▁ㄸㅓㅇㅗㄹㅡㄴ	-10.6237
▁ㅌㅗㅇㅈㅏㅇ	-10.6239
▁ㅅㅣㄱㄱㅜ	-10.6241
▁ㅊㅐㄱㄷㅡㄹ	-10.6244
▁ㅈㅣㅅㅗㄱㄷㅚ	-10.6245
▁ㅁㅣㄷㄱㅣ	-10.625
▁ㅇㅟㅎㅓㅁㅅㅓㅇㅇ	-10.6251
▁ㅋㅗㅇ	-10.6252
ㅈㅜㅅㅕ	-10.6252
▁ㅂㅣㅎㅏ	-10.6252
▁ㄴㅏㄷㅗㄹ	-10.626
▁ㅍㅕㅇㅇㅣ	-10.6264
▁ㄱㅣㄷㅗㅎㅏ	-10.6272
▁ㅅㅓㄴㄷㅗㅇ	-10.6276
▁ㄱㅘㄴㅈㅏㅇ	-10.6281
▁ㅎㅐㄱㅕㄹㄷㅙ	-10.6282
▁ㅈㅣㅂㅅㅏㄱ	-10.6286
ㄷㅏㄴㅇㅔㅅㅓ	-10.6286
ㅛㄷㅗㅇ	-10.6293
▁ㅇㅙㄱㅗㄱ	-10.6301
▁ㅎㅔㄹ	-10.6301
▁ㅇㅟㅇㅝㄴ	-10.6304
▁ㅂㅏㄺㅎㅕㅈㅣ	-10.6307
▁ㅇㅣㄴㅈㅓㅇㅎㅐ	-10.6307
▁ㄱㅏㅇㅣㅂㅈㅏ	-10.6308
ㅂㅓㅁㅅㅓㄱ	-10.631
▁ㅎㅘㄹㅇㅛㅇㄷㅚㄱ	-10.6318
▁ㄱㅜㅅㅗㄱㄷㅚ	-10.6322
ㅇㅗㅇ	-10.6328
▁ㅈㅣㄴㅂㅗ	-10.6328
▁ㅎㅏㄴㄱㅜㄱㅅㅏㄴ	-10.6334
▁ㅇㅛㅊㅓㅇㅎㅏㄴㄷㅏ	-10.6338
ㅇㅓㄱㅏㅆㄷㅏ	-10.6339
ㄷㅏㄴㅕㅆ	-10.6339
▁ㅂㅗㅇㅣㄴ	-10.634
▁ㅇㅑㄷㅏㅇㅇㅣ	-10.6346
ㅅㅜㄷㅗㅇ	-10.6347
▁ㅅㅏㄹㅖㄹㅗ	-10.635
▁ㅈㅓㅇㄱㅛㅎ	-10.635
ㄱㅗㅇㄱㅗ	-10.635
ㅡㄹㄹㅣㅁ	-10.6351
▁ㅅㅣㄴㅈㅗㅇ	-10.6356
ㄷㅜㄲㅓㅂ	-10.6361
ㄱㅣㄹㅗㄱ	-10.6365
▁ㅇㅕㄱㅓㄴ	-10.6367
ㅊㅓㅂ	-10.6368
▁ㅇㅏㄶㄷㅓ	-10.6371
ㅅㅜㅅㅗ	-10.6374
▁ㅈㅓㄴㅁㅜㄴㅈㅓㅁㅇ	-10.6377
▁ㅂㅓㄹㅇㅕ	-10.6377
▁ㅈㅏㄹㅏㄴ	-10.6377
ㄱㅜㅊㅓㅇ	-10.6379
▁ㅁㅣㄷㅇㅓ	-10.6381
▁ㄷㅡㄹㅇㅕ	-10.6382
▁ㅅㅣㅁㅈㅓㅇㅇㅡ	-10.6382
▁ㄱㅜㄱㅏㄴㅇ	-10.6383
ㅜㅇㅇㅣ	-10.639
▁ㅅㅣㄱㅏㄴㅁㅜㄴㅈㅔ	-10.6394
ㄴㅣㅁㄷㅡㄹ	-10.6408
▁ㅈㅣㄴㅎㅐㅇㅎㅏ	-10.6411
▁ㄱㅡㄱㅂㅗㄱㅎㅏ	-10.6411
▁ㄴㅏㅁㄷㅡㄹ	-10.6425
▁ㅊㅓㄱㅏ	-10.6426
▁ㅂㅗㄱㅣㅇㅔ	-10.6427
ㅗㅇㄱㅏㅇ	-10.6432
▁ㅅㅗㅂㅣㄹㅑㅇㅇ	-10.6433
▁ㅇㅢㄹㅛㅂㅓㅂ	-10.6436
ㅂㅎㅕ	-10.6437
▁ㄷㅚㅁ	-10.6439
▁ㅈㅗㅇㅝㄴ	-10.6441
▁ㄱㅓㄹㅗㄴㅎㅏㄴ	-10.6445
ㅈㅣㅂㅇㅔ	-10.6446
ㅡㅇㅍㅗㄱ	-10.6455
▁ㅈㅣㅂㅜㄹㅎ	-10.6458
▁ㅈㅓㄹㄷㅐ	-10.6462
▁ㅂㅜㅍ	-10.6463
ㄹㅏㅅㅡㅋ	-10.6467
▁ㄷㅡㄹㄲㅗㅊㅇ	-10.6471
ㅂㅜㄴㄷㅡㄹ	-10.6471
▁ㄷㅗㅇㅘ	-10.6475
▁ㅅㅓㄴㅁㅣ	-10.6476
▁ㅅㅐㅇㅁㅕㅇㅇㅣ	-10.6479
▁ㅅㅏㅇㅇㅣㄴ	-10.65
ㅏㅁㅁㅣ	-10.6502
▁ㅅㅣㅈㅓㅁㅇ	-10.6506
▁ㅈㅓㅇㅇㅝㄴ	-10.6516
ㄴㅈㅣㄷㅗ	-10.652
▁ㅎㅐㅇㅣㅁ	-10.6521
▁ㅂㅜㄹㄹㅣㄱㅣ	-10.653
ㅎㅚㅈㅏㅇ	-10.6532
ㄴㅗㅅㅗ	-10.6534
ㅂㅓㅅㅡ	-10.6538
ㅅㅓㄴㅇㅣㄴ	-10.6538
▁ㄸㅓㄱ	-10.6539
ㅇㅈㅣㄴㄱㅜ	-10.6544
▁ㅈㅔㅈㅜㄷㅗ	-10.6546
ㅏㄴㄱㅕㅈㅜㄴ	-10.6554
ㄱㅏㄹㅕㄴㅡㄴ	-10.656
▁ㅍㅣㅇ	-10.6562
▁ㄷㅏㄹㅎㅏㄴㄷㅏ	-10.6574
▁ㅇㅢㅁㅜㄴㅇㅣ	-10.6578
▁ㅂㅜㄹㅇㅏㄴㅎㅐ	-10.6585
▁ㄷㅗㅇㅇㅝㄴㅎ	-10.6602
ㅅㅜㅅㅡㅂㅊㅐㄱㅇㅡ	-10.6603
▁ㅇㅡㄹㅈㅣ	-10.6605
▁ㅆㅗ	-10.6611
▁ㅅㅏㄹㅍㅕ	-10.6621
ㅇㅏㄴㅎㅏㄴ	-10.6624
ㄷㅏㅇㅇㅣㄴ	-10.6638
ㅇㅕㄴㅇㅣㅇㅓ	-10.6643
▁ㅇㅠㄹㅓㅂ	-10.6644
ㅇㅇㅔㅅㅓ	-10.6646
▁ㅊㅜㄷㅗ	-10.6657
ㄱㄴㅐㅈㅏㅇㅇ	-10.6661
▁ㅅㅓㅇㅜㄹㅅㅣㅈㅏㅇㅇ	-10.6666
▁ㅂㅜㅁㅜㄴ	-10.6672
▁ㅅㅏㅁㅏㅇㅈㅏ	-10.668
▁ㅊㅓㅇㄱㅜㅎㅏㄴ	-10.6682
ㅍㅗㄱㅍㅜㅇㅇㅣ	-10.6683
ㄴㅗㅇㅇㅓㅂ	-10.6685
ㅊㅣㅁㅎㅐ	-10.6685
ㅈㅏㄷㅗㅇㅊㅏ	-10.6686
ㅂㅏㄹㅏㅁㅇㅣ	-10.6686
ㅍㅡㄹㄹㅐㄴ	-10.6687
ㅊㅓㄹㄱㅓ	-10.6692
ㅇㅟㅇㅝㄴㅈㅏㅇ	-10.6692
▁ㄱㅜㅅㅓㅇㄷㅚ	-10.6695
▁ㅅㅏㄴㅈ	-10.6697
ㅅㅚ	-10.6703
▁ㅎㅏㅂㄱㅕㄱㅎㅐㅆ	-10.6704
ㄴㅏㅁㅂㅜ	-10.6706
ㅔㅇㅣㅋㅡ	-10.6707
ㅎㅚㄷㅏㅁ	-10.6709
ㅎㅐㅇㅇㅟ	-10.6713
ㅅㅣㅁㄹㅣ	-10.6717
▁ㅇㅣㅆㄱㅔㅆ	-10.6718
ㅅㅏㅇㄷㅏㅁ	-10.6721
▁ㅁㅏㄱㅡ	-10.6722
▁ㅅㅏㅇㄹㅠㄱ	-10.6735
ㄱㅜㅈㅗ	-10.6737
▁ㅊㅜㄹㅍㅏㄴ	-10.6744
▁ㄹㅏㅇㅣㄴ	-10.6745
▁ㅇㅠㅈㅓㄴㅈㅓㄱ	-10.6748
▁ㅅㅣㄴㅂㅜ	-10.6749
ㅍㅈㅣㄹㄹㅓ	-10.675
ㅊㅗㅇㅈㅏㅇ	-10.6763
▁ㅈㅓㅇㄷㅏㅇㅎㅘ	-10.6773
ㅇㅠㅁㅜㄹㅇㅣ	-10.6778
ㅇㅝㄴㄱㅏㄹㅑㅇ	-10.6786
▁ㅁㅛㅅㅏㅎ	-10.6795
ㅝㅅㅓ	-10.6796
▁ㅁㅛㅅㅏㅎㅏㄱ	-10.6803
▁ㅊㅓㅇㅈㅜ	-10.6805
▁ㅇㅏㄹㄹㅔ	-10.6808
ㅈㅜㅁㅓㄴㅣ	-10.6811
▁ㅊㅘㄹㅇㅕㅇㅎㅏㄴ	-10.6817
ㅎㅑㅇㄷㅐ	-10.6818
▁ㄱㅠㅁㅕㅇㅎㅐ	-10.6818
▁ㄴㅜㄴㄴㅗㅍㅇㅣ	-10.6818
▁ㄸㅓㅇㅗㄹㄹㅣ	-10.6818
▁ㅇㅣㄴㅅㅔㄴㅌㅣㅂㅡ	-10.6818
▁ㅈㅔㄴㅔㅅㅣㅅㅡ	-10.6818
▁ㅋㅏㄹㅡㅌㅏㄱㅗ	-10.6818
ㅡㅇㅞ	-10.6818
▁ㄱㅣㅅㅓㅇㅅㅔㄷㅐㄷㅡㄹㅇ	-10.6818
▁ㄲㅏㄹㄲㅡㅁㅎㅏ	-10.6818
▁ㄴㅠㅅㅡㅌㅏㅍㅏ	-10.6818
▁ㄷㅗㄹㄱㅗㄹㅐ	-10.6818
▁ㄷㅗㅁㅏㅂㅐㅁㅇㅡ	-10.6818
▁ㅁㅔㅅㄷㅙㅈㅣ	-10.6818
▁ㅁㅣㅎㅡㅂㅎ	-10.6818
▁ㅃㅐㅅㄱㅕㅆㄷㅏ	-10.6818
▁ㅅㅏㅇㅚㅇㅣㅅㅏ	-10.6818
▁ㅆㅗㄷㅇㅏㄴㅐ	-10.6818
▁ㅇㅏㄴㅌㅏㄲㅏㅇㅝ	-10.6818
▁ㅇㅏㄹㅏㅂㅇㅔㅁㅣㄹㅣㅌㅡ	-10.6818
▁ㅇㅕㅇㅇㅓㅂㅇㅣㅇㅣㄱ	-10.6818
▁ㅈㅓㄴㅎㅑㅇ	-10.6818
ㄲㅡㄴㅎㅏ	-10.6818
▁ㅅㅓㄴㅊㅜㄹㅈㅣㄱ	-10.6818
▁ㅋㅣㄹㅜㅅㅡ	-10.6818
▁ㅎㅏㅇㄱㅗㅇㅁㅗㅎㅏㅁㅇ	-10.6818
ㄲㅇㅏ	-10.6818
▁ㄴㅗㅅㅜㄱㅇㅣㄴ	-10.6818
▁ㅂㅕㅇㅇㅏㄹㅣ	-10.6818
▁ㅈㅐㅇㅈㅓㅁ	-10.6818
▁ㄷㅏㅎㅐㅇㅎㅣ	-10.6818
▁ㅇㅏㄹㅇㅏㅂㅗㄱㅣ	-10.6818
▁ㅁㅏㅇㅜㄹㅣ	-10.6818
▁ㄱㅏㄱㅇㅗ	-10.6818
▁ㅁㅜㄹㅇㅓㅂㅗ	-10.6818
ㅂㅐㅇㅋㅡㄹ	-10.6818
▁ㅇㅛㄱㅅㅣㄹㅇㅔ	-10.6818
▁ㄱㅏㅁㄷㅗㄱ	-10.6818
▁ㅂㅔㄷㅔㄹ	-10.6818
▁ㄷㅏㅇㅅㅣㄴㄴㅔㄷㅡㄹㅇ	-10.6818
▁ㅁㅗㅎㅕㅇㄷㅡㄹㅇㅡ	-10.6818
▁ㄱㅗㅈㅓㅇㄱㅡㅁㄹㅣ	-10.6818
▁ㅍㅡㄹㅔㅇㅣㅁㅇ	-10.6818
▁ㅅㅗㅂㅣㅈㅏㅁㅜㄹㄱㅏ	-10.6818
▁ㅈㅐㅁㅜㄱㅜㅈㅗ	-10.6818
▁ㅅㅏㄹㅇㅏㄱㅖㅅㅣ	-10.6818
ㅇㅏㅇㅜㅅ	-10.6818
ㅈㅓㄴㅓㄹ	-10.6818
▁ㅊㅟㅇㅑㄱㅎㅏ	-10.6818
▁ㅈㅚㅅㅗㅇ	-10.6818
▁ㄹㅗㅅㄷㅔㅎㅗㄹㄷㅣㅇㅅㅡ	-10.6818
▁ㅊㅏㅁㄷㅏㅁㅎㅏ	-10.6819
▁ㄷㅐㅊㅜㄹㅅㅏㅇㅍㅜㅁ	-10.6819
ㄱㅓㅁㅇㅕㄹ	-10.6819
▁ㅁㅜㄲㅇㅡ	-10.6819
▁ㄱㅕㅇㅂㅣㅂㅕㅇ	-10.6819
▁ㅇㅣㄹㅏㅋㅡ	-10.6819
ㅍㅗㄱㅕㅇㅊㅏㄹㅅㅓ	-10.6819
▁ㅅㅓㅅㅣㄱㅎㅏ	-10.6819
▁ㅁㅗㅌㅔㄹ	-10.6819
▁ㅎㅏㅂㅊㅏㅁ	-10.682
▁ㅅㅏㅇㅎㅏㅇㅣㅅㅡㅌㅡ	-10.682
▁ㅁㅣㄴㅈㅗㄱ	-10.682
▁ㅅㅏㅇㅣㅇㅓㄴ	-10.682
▁ㅅㅣㄹㅅㅣㄷㅚㄴ	-10.6821
▁ㄲㅏㄹ	-10.6821
▁ㄴㅗㄱㅊㅟ	-10.6821
ㅣㄹㅇㅣㄴ	-10.6821
▁ㅁㅗㄱㄱㅕㄱ	-10.6821
▁ㄱㅏㅇㄹㅡㅇ	-10.6822
▁ㅋㅗㄹㄹㅏ	-10.6822
▁ㄷㅏㅇㅈㅣㄱㅈㅏ	-10.6822
▁ㅈㅣㅇㅅㅜ	-10.6822
▁ㄱㅗㅇㅟㅈㅣㄱ	-10.6823
▁ㄷㅗㅇㅊㅏㅁ	-10.6823
▁ㄱㅜㅁㅐㅎㅏ	-10.6824
▁ㅂㅏㄹㅎㅛ	-10.6825
▁ㄱㅗㅇㅂㅜㅎㅏ	-10.6825
ㅈㅓㅊㅜㄱ	-10.6825
▁ㄷㅗㅂㅏㄱ	-10.6826
ㅎㅐㅇㅑㅇ	-10.6826
▁ㅅㅕ	-10.6826
▁ㅋㅜㅍㅗㄴㅇ	-10.6826
ㅅㅡㄹㅓㅂㄷㅏ	-10.6826
▁ㅅㅓㅇㅂㅜㄱ	-10.6826
▁ㅇㅣㄴㄹㅕㄱㄱㅓ	-10.6827
▁ㅈㅡㅇㅇㅓㄴㅎㅏㄱㅣ	-10.6827
▁ㅈㅗㅇㅂㅜㄱ	-10.6827
ㅔㅇㅝㅆ	-10.6828
▁ㅅㅓㅇㅅㅣㄹㅎㅏ	-10.6828
▁ㅇㅕㄴㄱㅗㄹ	-10.6828
▁ㅂㅏㅇㅜㄹ	-10.6828
▁ㅊㅜㄱㅈㅔ	-10.6828
▁ㅇㅓㅈㅣㄹㅓ	-10.6828
ㄴㄱㅏㅈ	-10.6831
▁ㅌㅜㅈㅏㅈㅏㄷㅡㄹ	-10.6832
▁ㅇㅜㄴㅇㅛㅇ	-10.6832
▁ㅎㅟㅂㅏㄹㅇㅠ	-10.6833
ㅎㅏㅅㅕㅆㅇㅓㅇㅛ	-10.6833
▁ㄷㅏㅁㅎㅘ	-10.6834
▁ㄸㅓㄴㅏㄴㄷㅏ	-10.6834
▁ㅅㅓㅇㅠㄹ	-10.6836
▁ㅊㅓㅇㅅㅏㄴ	-10.6836
▁ㅇㅗㄹㅡㅁㅕㄴ	-10.6837
▁ㅈㅣㄱㅇㅝㄴㄷㅡㄹ	-10.6837
▁ㅈㅗㅇㅇㅣㅅㅈ	-10.6838
▁ㅂㅕㅇㄷㅗㅇ	-10.6838
▁ㅅㅐㅇㅅㅓㄴ	-10.6838
▁ㄱㅝㄴㅇㅟ	-10.684
▁ㅈㅜㄱ	-10.684
ㅈㅣㄹㄹㅓㅆㄷㅏ	-10.6842
▁ㅂㅣㄴㄷㅐ	-10.6842
▁ㄷㅏㄹㅝ	-10.6844
▁ㄱㅘㄱㅓㅅㅏ	-10.6845
▁ㄷㅐㅇㅡㅇㅎㅏㄱㅣ	-10.6847
▁ㄱㅓㅊㅓ	-10.6852
▁ㅈㅗㄹㅣㅂ	-10.6854
▁ㅁㅏㅁㅗ	-10.6854
▁ㅈㅣㅈㅣㄴ	-10.6854
▁ㄱㅐㅅㅓㄹ	-10.6855
▁ㅇㅣㄴㅇㅕㄴㅇ	-10.6857
ㅓㅁㅣㄴㄷㅡㄹ	-10.6857
▁ㄷㅓㄱㅂㅜㄴㅇㅣ	-10.6858
▁ㅂㅐㄹㅕ	-10.6865
▁ㅇㅣㄺㅇㅓ	-10.6866
▁ㅅㅣㄹㅈㅗㅇ	-10.6867
▁ㅂㅓㄴㅇㅕㄱ	-10.6867
ㄱㅛㅇㅠㄱㅊㅓㅇㅇ	-10.6867
▁ㅂㅗㄴㅐㅇㅑ	-10.687
▁ㅇㅣㄴㅈㅣㅎㅏ	-10.6874
▁ㅇㅣㅇㅓㄱㅏㄴ	-10.6874
▁ㅅㅏㅁㅜㅅㅗ	-10.6875
▁ㅂㅏㅇㅉㅏㄱㅇ	-10.6875
▁ㅎㅘㄱㅂㅗㅎㅐ	-10.6877
▁ㅇㅣㅂㅇㅓㅆ	-10.6877
▁ㅅㅣㄹㅅㅔ	-10.688
▁ㅊㅜㄹㅅㅏㄴㅎㅏㄴ	-10.688
ㅇㅣㅂㅡㄹ	-10.6883
▁ㄱㅗㅇㄷㅗㅇㄷㅐㅍㅛ	-10.6886
ㄴㅇㅣㅅㅕㅆ	-10.6886
ㄷㅡㄹㄹㅣㄴ	-10.6887
ㅎㅏㄴㄷㅏㅁㅕ	-10.6888
▁ㅍㅏㄹㅏㄴ	-10.6894
▁ㅁㅏㄴㄷㅡㄹㅇㅓㅈㅕㅆㄷㅏ	-10.6896
▁ㅂㅣㅌㅗ	-10.6896
▁ㄷㅗㅇㅎㅐㅇㅎㅏ	-10.6911
▁ㅇㅣㄴㅂㅏㅇㅇ	-10.6911
ㄱㅗㅇㅎㅏㅇ	-10.6916
ㅊㅜㅈㅓㄱ	-10.6916
▁ㅇㅣㅆㅇㅓㅆㅇㅡㅁㅇ	-10.6918
ㄹㅣㅇㅣㄴㅇㅣ	-10.6919
ㅅㅏㄹㄹㅗ	-10.692
▁ㅂㅓㄹㅇㅓㅈㅕㅆ	-10.6921
▁ㄱㅗㅇㅈㅗ	-10.6922
▁ㅍㅐㅇ	-10.693
▁ㅂㅡㄹㅔㅇㅣㅋ	-10.6934
▁ㅈㅗㅎㅚ	-10.6937
▁ㄱㅣㅍㅣㅎ	-10.6938
▁ㄱㅜㅊㅓㅇㅈㅏㅇㅇ	-10.6938
▁ㅅㅓㅎㅐ	-10.6939
▁ㅇㅛㅊ	-10.6943
ㅈㅣㅈㅣㄷㅗ	-10.6946
▁ㅅㅐㅇㄱㅏㄱㅎㅐㅂㅗ	-10.6946
ㅅㅏㅇㄱㅜㄱㅁㅜㅎㅚㅇㅢ	-10.6952
▁ㅍㅣㅇㅜㄱㅗ	-10.6954
▁ㅈㅓㄴㅂㅏㄴ	-10.6955
ㄱㅘㄴㅈㅏㅇ	-10.6958
ㄷㅡㄹㄲㅔ	-10.6958
ㅇㅊㅜㅇ	-10.6958
ㅇㅓㅎㅚ	-10.696
ㄱㅖㅊㅡㅇ	-10.696
▁ㅈㅏㅈㅣㄴ	-10.696
▁ㅇㅓㅄㄱ	-10.6965
ㅡㅌㅡ	-10.6969
ㅈㅓㄴㄲㅏㅈㅣ	-10.697
▁ㄷㅚㄹㄲㅏㅇㅛ	-10.697
▁ㅈㅗㅁㅏ	-10.6972
▁ㄸㅟㅇㅓㄴ	-10.6973
ㄹㅣㅂㅏㄹ	-10.6975
▁ㅂㅏㄲㅟㅁㅕㄴ	-10.6977
▁ㅍㅜㄹㅇㅓ	-10.6979
ㄷㅡㄹㅇㅕㅈㅣㄱ	-10.6981
▁ㅂㅏㄴㅅㅓㅇ	-10.6988
▁ㄴㅐㅅㅔㅇㅝㅆ	-10.6991
▁ㄱㅓㄹㅇㅓㅆㄷㅏ	-10.6997
ㅜㅁㅣㅇ	-10.6997
ㅜㄹㅎㅏㄴ	-10.7001
ㄱㅎㅏㅅㅏ	-10.7001
▁ㅂㅜㅇㅠ	-10.7011
▁ㄷㅐㄷㅏㄴㅎ	-10.7017
▁ㅇㅣㅁㅗ	-10.7017
▁ㅅㅐㅇㅎㅘㄹㅎㅏ	-10.7018
ㅇㅗㅈ	-10.702
ㅅㄴㅏㄹ	-10.7028
ㅎㅕㄴㅎㅘㅇ	-10.7029
▁ㄷㅓㅇ	-10.7033
▁ㅎㅛㅇㅠㄹㅅㅓㅇㅇ	-10.7037
▁ㅁㅓㄱㅇㅓㅆ	-10.7044
▁ㄱㅣㅅㅏㄷㅡㄹㅇ	-10.7046
ㄴㅡㄹㅏ	-10.7052
▁ㅇㅏㄶㄱㅔㅆ	-10.7068
▁ㅇㅏㄹㄱㅣ	-10.7077
ㅂㅗㅈㅘㄱㅘㄴㅇ	-10.7089
▁ㅇㅠㄹㅓㅂㅇㅢ	-10.7097
ㄹㅣㅈㅏㅂ	-10.7101
▁ㅁㅏㄹㅆㅡㅁㄷㅡㄹ	-10.7105
▁ㄴㅡㄹㅇㅓ	-10.711
ㅂㅔㄴ	-10.7118
ㄱㅡㅂㄷㅚ	-10.7122
▁ㄱㅏㅇㅅㅏ	-10.7124
ㅁㅜㄴㅈㅔ	-10.7127
▁ㅈㅓㄴㄹㅕㄱ	-10.7131
ㅓㄹㄹㅣ	-10.7132
ㅊㅣㄴㄷㅏ	-10.7135
▁ㄴㅜㄴㅇㅏㅍㅇ	-10.7135
▁ㅎㅚㅂㅗㄱㅎㅏ	-10.7137
ㅗㄹㅐㅅ	-10.7138
▁ㄲㅡㄶ	-10.7142
▁ㅍㅣㅇㅓ	-10.7151
▁ㄱㅘㄴㅅㅣㅁㅅㅏ	-10.7156
▁ㄷㅏㅇㅜㄴ	-10.7157
▁ㄴㅗㄴㅎㅏ	-10.7161
▁ㄷㅏㅇㅂㅜㅎㅏ	-10.7163
▁ㅅㅣㅇㅣㄹ	-10.7163
▁ㅅㅗㄴㄴㅣㅁㅇㅣ	-10.717
▁ㅂㅏㄹㅅㅏㄷㅚㄴ	-10.7174
▁ㅎㅐㄱㅕㄹㅎㅏㄱ	-10.7184
▁ㅂㅐㅈㅓㅇㄷㅚ	-10.719
ㅅㅗㅇㅠㅈㅣ	-10.719
▁ㅈㅏㅇㅇㅣㄴ	-10.719
ㄷㅗㅎㅏㅈㅣㄴ	-10.719
▁ㄱㅓㅂㅜㅎㅏㄴㄷㅏ	-10.7191
ㅅㅅㅗㄹ	-10.7196
▁ㅇㅡㄴㅌㅚㅎㅏ	-10.7196
ㅏㅇㅜ	-10.7199
ㅡㅅ	-10.7204
▁ㅅㅜㅊㅣ	-10.7209
▁ㄱㅡㄴㄹㅗ	-10.7216
ㅣㄴㅌ	-10.7225
ㅂㅈㅏㄱㅎ	-10.7227
ㅅㅣㅈㅓㄹ	-10.7242
▁ㄱㅡㅁㅈㅣㅎㅏ	-10.7249
▁ㅂㅣㅍㅏㄴㅎㅏ	-10.7261
ㅁㅊㅗ	-10.7264
ㅈㅔㅅㅏ	-10.7267
▁ㄲㅣㄴ	-10.7275
▁ㅍㅗㄹ	-10.728
▁ㅊㅜㄹㅅㅏ	-10.7291
▁ㅇㅕㅅ	-10.7299
ㄴㅐㄱㅓㄴ	-10.7301
▁ㅂㅗㅈㅘ	-10.7301
ㅁㅏㅁ	-10.7312
▁ㅇㅝㄴㅈㅜ	-10.7316
▁ㅈㅗㅇㅇㅓㅂㅇㅝㄴ	-10.7317
▁ㅈㅣㅇㅓ	-10.7323
ㅋㅏㅁㅔㄹㅏ	-10.7328
▁ㅂㅏㄹㅍㅛㅎㅏ	-10.7336
▁ㄱㅟㄱㅜㄱ	-10.7347
ㄹㅗㄱㅎ	-10.7348
▁ㅊㅓㅂㅓㄹㅎㅏ	-10.7352
▁ㅍㅓㅅㅔㄴㅌㅡㄷㅐ	-10.7355
▁ㄷㅓㅅ	-10.7356
▁ㄴㅐㅆ	-10.7363
ㄴㅈㅓㄹㅎ	-10.7364
▁ㅎㅜㄴㅏ	-10.7368
▁ㅁㅏㄹㅕㄴㅎㅐ	-10.7378
▁ㅈㅓㄴㄷ	-10.7384
ㅅㅏㅇㅣㄴ	-10.7386
ㅅㅣㅋㅏ	-10.7404
ㄴㄷㅗㄱ	-10.7408
ㅐㅇㅘㅆㄷㅏ	-10.7409
▁ㄱㅗㅇㄱㅐㄷㅙㅆ	-10.7411
ㅜㄴㅇㅡㄹㅗ	-10.7412
▁ㄱㅡㅊㅣㄱㅔ	-10.7425
ㅗㄹㅗㄱ	-10.743
▁ㅁㅕㄴㅅㅔㅈㅓㅁㅇ	-10.7431
▁ㅅㅣㄴㅅㅓㄴㅎ	-10.7433
▁ㅅㅣㅈㅓ	-10.7436
▁ㅎㅐㅅㅜㅇㅛㄱㅈㅏㅇㅇㅣ	-10.7442
ㅡㄱㅏ	-10.7442
▁ㅂㅏㄷㅏㄱㅇ	-10.7451
ㅇㅝㄹㄷㅡ	-10.7453
ㅈㅓㄴㅈㅐㅇ	-10.7455
ㅂㅏㄱㄱㅡㄴㅎㅖ	-10.7456
▁ㄱㅣㅁㅌㅐㅎ	-10.7458
ㅂㅕㄴㄱㅕㅇ	-10.7461
▁ㅎㅏㅇㅘㅇㅣㅇ	-10.7466
ㅂㅐㅊㅣ	-10.7468
ㄱㄱㅏㄴ	-10.7469
ㅅㅣㅇㅏ	-10.747
▁ㄱㅗㅇㄱㅐㅎㅏㄴ	-10.7478
▁ㅁㅗㅈㅗㅇㅇ	-10.7482
ㄱㅗㅇㅈㅔ	-10.7484
ㅎㅘㅈㅐ	-10.7488
ㅈㅓㅇㅅㅣㄴ	-10.7497
ㅂㅏㄹㅈㅓㄴ	-10.75
ㅗㄴㄷㅡㄹ	-10.7503
▁ㅁㅏㄴㄷㅡㄹㅇㅓㅈㅕㅆ	-10.7518
▁ㄲㅜㄹ	-10.7523
▁ㅁㅣㄹㅇㅓ	-10.7525
ㅇㅠㅅㅏ	-10.7531
▁ㅁㅣㄴㅅㅣㅁㅇ	-10.7532
ㅈㅜㅇㄱㅜㄱ	-10.7537
ㄸㅐㅁㅜㄴ	-10.7543
ㅂㅗㄱㅗㅅㅓ	-10.7544
ㅈㅜㄱㅔㅆㄷㅏ	-10.7545
ㅅㅗㅅㅗㄱ	-10.7547
▁ㅇㅓㅍ	-10.7549
▁ㅂㅐㅁㅇㅡ	-10.7551
ㄱㅕㄴㅇㅔ	-10.7551
ㅇㅣㅇㅓㅆㅇㅡ	-10.7552
ㅎㅗㅇㅟ	-10.7553
▁ㅂㅜㅅㅣ	-10.7554
▁ㄱㅏㅁㅇㅏㄴㅎ	-10.7555
▁ㅎㅕㄹ	-10.7558
▁ㄱㅛㄷㅗㅅㅗㅇㅔ	-10.7558
ㄴㅕㄴㄱㅏㄴ	-10.7562
▁ㄱㅏㄴㅎㅗ	-10.7562
ㄷㅏㅁㅂㅐㄱㅏ	-10.7567
ㅈㅗㅇㅓㅂㅇㅡ	-10.7568
ㅁㅜㄴㄱㅘ	-10.7569
▁ㅇㅏㄹㅇㅏㅆㅇㅡ	-10.7569
▁ㅎㅟㅂㅆㅏㅇㅣㅁㅕ	-10.7574
▁ㄱㅓㄷㅝ	-10.7576
▁ㅇㅏㄹㄹㅕㅈㅕㅆ	-10.7578
▁ㅈㅐㅂㅐ	-10.7579
▁ㅍㅛㅈㅜㄴ	-10.7584
ㅍㅕㄴㅇㅔㅅㅓ	-10.7585
▁ㅂㅜㄷㅣ	-10.7587
▁ㄲㅣㅇㅓㄵ	-10.7587
▁ㅂㅕㅇㅇㅕㄱㄱㅓㅂㅜ	-10.7587
ㅌㅡㄱㅂㅕㄹㅇㅟㅇㅝㄴㅎㅚ	-10.7587
▁ㄱㅗㄴㅎㅗㄱㅅㅡㄹㅓ	-10.7587
▁ㄸㅜㄹㅕㅅ	-10.7587
▁ㅁㅐㄱㅁㅣㄹㄹㅓㄴ	-10.7587
▁ㅁㅓㄹㅣㅋㅏㄹㅏㄱㅇ	-10.7587
▁ㅂㅐㄴㅋㅜㅂㅓ	-10.7587
▁ㅃㅓㄷㅇㅓ	-10.7587
▁ㅅㅡㅋㅐㄴㄷㅡㄹ	-10.7587
▁ㅉㅣㅈ	-10.7587
▁ㅊㅗㅅㅂㅜㄹㅈㅣㅂㅎㅚ	-10.7587
▁ㅋㅏㅋㅏㅇㅗ	-10.7587
▁ㅍㅏㅁㅍㅡㄹㄹㅔㅅㅇ	-10.7587
ㄹㅃㅐㅁ	-10.7587
ㅂㅡㄹㄹㅣㅅ	-10.7587
ㅃㅓㄹㅇㅣ	-10.7587
ㅍㅡㄹㅏㅇㅣㅁ	-10.7587
▁ㅅㅗㄴㅎㅐㅂㅐㅅㅏㅇ	-10.7587
▁ㅈㅣㅎㅖ	-10.7587
▁ㅎㅟㅂㅆㅡㄹㅇㅓㅆㄷ	-10.7587
▁ㅂㅡㄹㄹㅐㄱ	-10.7587
ㅣㅅㅡㅍㅐ	-10.7587
▁ㅂㅜㄹㄱㅏㅍㅣㅎㅏ	-10.7587
ㄱㅜㄱㄱㅐㅂㅏㄹㅇㅕㄴㄱㅜㅇㅝㄴ	-10.7587
▁ㅂㅣㅈㅏㄱㅡㅁ	-10.7587
▁ㅊㅣㄴㅇㅣㄱㅖ	-10.7587
▁ㅌㅡㄱㅂㅕㄹㄱㅏㅁㅅㅏㅇ	-10.7587
▁ㅊㅗㄹㅐㄷㅚ	-10.7587
▁ㅇㅛㄱㅁㅏㅇㅇ	-10.7587
▁ㅇㅜㄴㅅㅗㅇ	-10.7587
▁ㅂㅏㄹㄹㅏㄹ	-10.7587
▁ㅊㅓㄴㅇㅓㄱ	-10.7587
▁ㅎㅏㅂㅏㄴㄱㅣ	-10.7587
▁ㅅㅜㅇㅝㄴㅈㅣㄱㅓㅁ	-10.7587
▁ㄲㅡㄶㄱㅕㅆ	-10.7587
▁ㄴㅐㅁㅅㅐ	-10.7587
▁ㅈㅓㄱㅇㅣㅁㅈㅏ	-10.7587
▁ㅂㅜㄷㅣㅈ	-10.7587
▁ㅁㅏㅇㅇㅝㄴ	-10.7587
▁ㅊㅚㄱㅗㅇㅟ	-10.7587
▁ㅂㅜㄱㅏㄱㄷㅚ	-10.7588
▁ㄷㅗㅇㄱㅜㄹ	-10.7588
▁ㅎㅐㅅㅜㅁㅕㄴ	-10.7588
▁ㄲㅡㅀㅇㅣ	-10.7588
▁ㅂㅏㄹㅏㅁㅈㅣㄱㅎㅏ	-10.7588
▁ㅂㅗㅇㅠㄱㄱㅛㅅㅏ	-10.7588
ㅇㄱㅜㄱㄷㅡㄹㅇ	-10.7589
ㄴㄴㅕㅇ	-10.759
ㄱㅛㅇㅠㄱㅎㅏㄱㄱㅘ	-10.759
▁ㄷㅡㄹㅔㅅㅡ	-10.759
▁ㅌㅜㅁㅕㅇㅎㅏ	-10.759
▁ㅍㅕㄴㄹㅣㅎㅏ	-10.759
▁ㅎㅣㅌㅡㄹ	-10.759
▁ㅂㅏㄱㅇㅏㅁㅜㄱㅐㅆㅣ	-10.759
▁ㅁㅣㄴㅈㅜ	-10.759
▁ㅂㅏㄴㅌㅗㅁㅏㄱ	-10.759
▁ㅂㅜㅈㅏㄱㅇㅛㅇ	-10.7591
▁ㄲㅜㄹㅕ	-10.7591
ㅇㅣㄱㅜㅇ	-10.7591
ㅔㄹㄹㅔㅅㅡ	-10.7591
▁ㄱㅗㅇㅈㅣㄱㅈㅏ	-10.7592
▁ㄷㅗㅇㅈㅗㅎㅏ	-10.7592
ㅣㄷㅡㄹㅗ	-10.7593
▁ㄱㅘㄴㄱㅐㄱ	-10.7593
▁ㄱㅜㄱㅁㅜㅇㅟㅇㅝㄴㄷㅡㄹㅇ	-10.7593
▁ㅈㅐㅂㅓㄹ	-10.7594
▁ㅂㅏㄹㅈㅓㄴㅅㅗ	-10.7594
▁ㅈㅗㄴㅈㅐㅎㅏㄴㄷㅏ	-10.7594
▁ㅊㅓㄴㅁㅜㄴㅎㅏㄱ	-10.7594
ㅜㅂㅜㅇㅔ	-10.7594
▁ㅂㅕㄹㄱㅓ	-10.7594
ㅜㅁㅇㅢ	-10.7595
▁ㅂㅣㄱㅡㄱ	-10.7595
ㅅㅔㅇㅣㄹ	-10.7595
ㅣㅇㅎㅗㅇ	-10.7595
▁ㅈㅣㄴㅇㅏㅂ	-10.7596
▁ㅎㅏㅇㅅㅗ	-10.7596
▁ㅁㅣㄴㅇㅕㅇ	-10.7597
▁ㅁㅐㅈㅣㄴㅎㅏ	-10.7597
▁ㅈㅏㄱㅡㄱ	-10.7599
▁ㄷㅓㅍㅇㅕ	-10.76
▁ㅎㅠㄷㅐㅍㅗㄴㅇ	-10.76
▁ㅎㅞㅅㅗㄴㄷㅙㅆㄷㅏ	-10.76
▁ㅎㅜㅌㅚ	-10.76
▁ㅎㅓㅇㅛㅇ	-10.7602
▁ㄱㅏㅁㅇㅐㄱ	-10.7602
▁ㅂㅏㄱㅎ	-10.7602
▁ㅅㅏㅇㅅㅡㅇㅅㅔ	-10.7602
▁ㅇㅏㅂㄹㅕㄱㅇ	-10.7603
▁ㅎㅐㅅㅏㄴㅎㅏ	-10.7604
▁ㄱㅏㄹㅇㅏ	-10.7604
▁ㅎㅏㄱㅅㅜㄹ	-10.7605
ㅌㅣㅇㅔ	-10.7606
▁ㅂㅏㅇㅅㅏㄴㅡㅇ	-10.7607
▁ㅅㅗㅇㅡㅁ	-10.7607
▁ㄱㅏㄴㅅㅏ	-10.7608
▁ㅁㅣㅅㅐㅇ	-10.761
▁ㅎㅘㅅㅓㄱ	-10.761
▁ㅂㅏㄹㅗㅈㅏㅂㅇ	-10.761
▁ㅊㅏㄱㅅㅣ	-10.761
ㅍㅣㅅ	-10.7611
▁ㄱㅘㄴㄹㅛ	-10.7611
▁ㄷㅐㄷㅗㅅㅣ	-10.7611
▁ㅂㅗㅌㅐ	-10.7613
▁ㄷㅏㄴㅎㅐㅇ	-10.7613
▁ㅂㅡㄹㄹㅗㄱ	-10.7613
ㅇㅎㅐㅆㅈㅣ	-10.7613
▁ㅂㅜㅊㅕ	-10.7614
▁ㅇㅠㄴㄹㅣ	-10.7615
▁ㅂㅜㄹㅇㅜ	-10.7615
ㅐㅁㅍㅣㅇㅓ	-10.7615
▁ㅎㅏㅇㄱㅗㅇㄱㅝㄴ	-10.7615
▁ㅈㅓㅇㅅㅏㅇㅎㅘ	-10.7618
▁ㅎㅕㄹㄱㅘㄴ	-10.7619
▁ㄱㅏㅇㅈㅣㄴ	-10.7621
▁ㄱㅕㅇㅈㅐㅇㅅㅏ	-10.7625
▁ㅂㅏㄴㅇㅕㅇㅎ	-10.7625
▁ㄷㅐㅅㅓㄴㅈㅜㅈ	-10.7625
▁ㅎㅢㅅㅐㅇㅈㅏ	-10.7626
ㅏㅂㄹㅠㅎㅏ	-10.7634
▁ㅎㅗㄴㄹㅏㄴㅇ	-10.7635
▁ㅇㅣㅂㅎㅏㄱ	-10.7636
ㅎㅡㄹ	-10.7636
ㅈㅜㅅㅣㄱㅣ	-10.7636
▁ㅈㅣㄴㅎㅘ	-10.7637
▁ㅂㅣㅊㄴㅏ	-10.764
ㄷㅜㄹㄹㅓ	-10.7644
▁ㄴㅐㅇㅈㅓㅇㅎ	-10.7644
▁ㄷㅏㄴㄱㅣ	-10.7645
▁ㅅㅣㄴㅇㅣㅁ	-10.7647
▁ㅇㅣㅂㄱㅓㄴ	-10.7647
▁ㅇㅕㄴㄱㅘㄴ	-10.7648
▁ㅈㅓㄴㅎㅐㅈㅣㄴ	-10.7649
ㅗㄹㅣ	-10.7653
▁ㄱㅗㅈㅓㅇ	-10.7653
▁ㅅㅜㅇㅛㅇㅅㅗㅇ	-10.7654
▁ㅅㅣㅈㅓㅁㅇㅔ	-10.7655
▁ㅇㅝㄴㅈㅏㄹㅗ	-10.7656
▁ㄴㅗㅅㅏㅈㅓㅇ	-10.7656
▁ㄷㅗㅇㅂㅜ	-10.7657
ㄷㅜㅇㅓ	-10.7658
▁ㄷㅡㄹㅓㄴㅐㄱ	-10.7658
▁ㅍㅗㅊㅏㄱㄷㅚㄱ	-10.766
ㄱㅛㅌㅗㅇㅅㅏㄱㅗ	-10.7661
▁ㄷㅜㄲㅔ	-10.7662
▁ㅇㅝㄴㄹㅛ	-10.7662
▁ㅈㅓㅊㅔ	-10.7663
▁ㄱㅏㅇㅈㅔㅎㅏ	-10.7663
▁ㅅㅡㅇㄱㅐㄱㄷㅡㄹㅇ	-10.7665
▁ㅁㅗㄴㅏㅋ	-10.7668
▁ㄱㅜㄱㅈㅓㅇㅇㅝㄴㅈㅏㅇㅇ	-10.767
▁ㅋㅜㄷㅔㅌㅏㅇㅔ	-10.767
▁ㅋㅣㄹㄹㅗㄱㅡㄹ	-10.7671
▁ㅎㅡㄱ	-10.7671
▁ㄴㅓㅁㅇㅓㄱㅏㄹ	-10.7671
ㄷㅐㄹㅏㄴ	-10.7673
▁ㅈㅓㅇㅇㅗ	-10.7674
▁ㅇㅣㅆㅇㅓㅆㅇㅡ	-10.7675
▁ㄱㅘㄴㄹㅕㄴㅎㅐㅅㅓ	-10.7676
ㄱㅘㄴㅅㅣ	-10.7679
▁ㄱㅣㅈㅗ	-10.7682
▁ㅂㅜㅍㅐ	-10.7689
ㅜㅎㅘㄴ	-10.7691
▁ㅅㅣㅅㅓㄹㅇㅣ	-10.7692
▁ㅎㅘㅈㅏㅇ	-10.7693
▁ㅈㅜㅇㅅㅏ	-10.7694
▁ㄱㅓㅅㅣㄹ	-10.7698
ㅅㅏㅇㅅㅜ	-10.7699
ㄴㅐㄱㅏㄱ	-10.7701
ㅅㅓㅇㄷㅙ	-10.7702
ㄹㅜㅁ	-10.7703
▁ㅇㅏㅁㅅㅣㅎ	-10.771
ㄱㅛㅅㅜ	-10.7711
▁ㅂㅜㅎㅘ	-10.7711
▁ㅇㅢㅇㅏㅎ	-10.7712
ㅣㄹㅣㄹㅏ	-10.7715
▁ㅇㅣㅆㄱㅔㅆㄴㅡㄴㅑ	-10.7718
▁ㅂㅗㅈㅗㄱㅡㅁㅇㅡ	-10.7721
▁ㄷㅐㄱㅕㄹ	-10.7722
▁ㄱㅐㅂㅏㅇ	-10.7727
▁ㅇㅠㅈ	-10.7729
▁ㅊㅓㅂㅓㄹㅂㅏㄷ	-10.7729
▁ㄱㅏㄴㄱㅘㅎㅏ	-10.7738
ㅋㅣㅈㅣ	-10.774
ㄱㅐㅂㅏㄹ	-10.7743
▁ㅈㅐㅎㅏㄱ	-10.7745
▁ㅍㅣㄹㅇㅛㅎㅐ	-10.7746
▁ㄱㅗㅇㅇㅕ	-10.7747
ㄱㅣㄱㅖ	-10.775
▁ㅅㅏㅇㅇㅓ	-10.7752
ㄺㅇ	-10.7752
▁ㅈㅣㅇㅝㄴㅈㅏ	-10.7755
▁ㅂㅓㄹㅊ	-10.7757
▁ㅋㅐㅁ	-10.7758
▁ㄱㅗㅅㅗㄱㄷㅗㄹㅗ	-10.7763
▁ㅍㅛㅅㅣㅎㅏ	-10.7763
▁ㅇㅜㄴㅇㅕㅇㅈㅏ	-10.7764
ㅇㅈㅓㄱㅇㅡㄹ	-10.7769
▁ㄷㅐㅂㅕㄴㅇㅣㄴㅇ	-10.777
▁ㄴㅡㄹㄹㅣㄱㅔㅆㄷㅏ	-10.7771
ㄷㅗㅇㅈㅜ	-10.7772
▁ㅇㅑㅇㅅㅣㄱㅇㅡ	-10.7774
▁ㅅㅔㅇㅝㅆ	-10.7774
▁ㅈㅜㅇㄱㅜ	-10.7776
▁ㅎㅏㅂㅇㅢㅎㅐㅆㄷㅏ	-10.7785
▁ㅇㅠㅈㅓㄴ	-10.7786
▁ㅈㅜㅇㅇㅛㅎㅏ	-10.779
▁ㅇㅛㅈㅣ	-10.7792
ㄴㅅㅏㄷㅡㄹㅇ	-10.7802
ㅂㅣㅇㅏ	-10.7802
▁ㄱㅗㅇㄱㅕㄱㅎㅏ	-10.7804
▁ㅇㅖㅅㅏㅇㅎㅐㅆㄷㅏ	-10.781
▁ㅇㅗㄻㄱㅕㅈㅕㅆ	-10.7811
▁ㅎㅓㅇ	-10.7812
▁ㅁㅏㄴㅁㅕㅇㅇㅣ	-10.7819
▁ㅈㅏㄱㅇㅛㅇㅎㅏㄴ	-10.782
ㅂㅗㄱㅓㄴ	-10.783
ㅈㅏㅅㅏㄴ	-10.7831
ㅈㅗㅅㅏ	-10.7833
▁ㅇㅜㄴㅇㅕㅇㅎㅐ	-10.7836
▁ㄱㅗㄹㅕㅎㅏㄴ	-10.7836
ㅐㄸㅏㄹ	-10.784
ㅍㅕㅇㄷㅡㅇ	-10.7849
▁ㄷㅏㄹㅡㅁㅇ	-10.785
▁ㄱㅓㅁㅌㅗㄷㅚ	-10.785
▁ㄱㅗㅎㅑㅇㅇㅣ	-10.7852
▁ㅈㅓㅇㅈㅣㄴ	-10.7859
▁ㅎㅘㄱㅅㅏㄴㄷㅚ	-10.786
ㅜㅇㅝㅈㅣ	-10.7862
▁ㅍㅣㄹㅇㅛㅎㅐㅆ	-10.7867
ㄱㅣㄱㅜ	-10.7874
▁ㄴㅏㄴㅈㅣ	-10.7881
ㄴㅗㄴㅎㅕㄴ	-10.7885
ㅅㅜㄹㅕㅇ	-10.7886
▁ㅈㅔㄷㅗㅇ	-10.7887
ㅌㅡㅁㅏㄴ	-10.7888
ㅈㅣㄴㄹㅛ	-10.7899
▁ㅇㅏㄴㄷㅚㄱㅣ	-10.7906
▁ㅂㅏㄹㄷㅏㄹㅎㅏ	-10.7907
▁ㅅㅏㅇㅛㅇㅎㅐ	-10.7908
▁ㅁㅏㄴㅇㅕ	-10.7911
▁ㅂㅏㄷㅇㅏㄷㅡㄹㅇㅕㅈㅕ	-10.7912
ㄷㅏㅁㅂㅗ	-10.7913
▁ㅇㅏㄴㅈㅓㅇ	-10.7917
ㅇㅣㄴㄱㅝㄴㅅㅔㄴㅌㅓ	-10.7919
▁ㄱㅐㅇㅣㅂ	-10.792
▁ㅇㅠㄹㅣㅎㅏ	-10.7925
ㅡㅂㄴㅣㄷㅏ	-10.7928
ㅌㅡㅅㅏㅇ	-10.7933
▁ㅅㅓㄹㅁㅕㅇㅎㅏㄴ	-10.7934
▁ㅍㅗㅅㅓ	-10.7937
ㅏㄹㅏㅁㅕ	-10.7948
ㅈㅏㅇㅝㄴ	-10.7949
▁ㅇㅣㅂㅇㅓㅆㄷㅏ	-10.7957
▁ㅇㅓㅄㅇㅓㅅㅓ	-10.7961
▁ㄱㅛㅅㅏㄷㅡㄹ	-10.7962
ㅊㅏㅂㅕㄹ	-10.7966
▁ㅈㅐㅅㅣㅁ	-10.7968
▁ㅊㅜㄱㅅㅗㅎㅏ	-10.7974
ㅇㅇㅐ	-10.799
ㅎㅐㅇㅂㅗ	-10.7993
▁ㅁㅜㄹㄹㅓㄴㅏㄴ	-10.8001
▁ㅅㅗㅍㅣㅇ	-10.8004
▁ㅎㅏㅅㅣㄹ	-10.8006
▁ㅁㅣㄹㄹ	-10.8012
▁ㅅㅔㅇㅣㄹ	-10.802
ㅇㄷㅡㄹ	-10.803
ㅡㄹㅕ	-10.803
▁ㅂㅣㅈㅓㅇㄱㅠㅈㅣㄱ	-10.8036
▁ㄱㅏㅈㅜㄱㅇ	-10.8038
ㄱㅣㅍ	-10.8039
ㄱㅎㅏㄱㅔ	-10.8041
▁ㅇㅢㄱㅕ	-10.8043
▁ㅈㅟㄴ	-10.8057
ㅂㅣㅇㅠㄹㅇㅡ	-10.8061
ㅈㅓㅁㄱㅓㅁ	-10.8064
ㅐㅈㅣㄴㄷㅏ	-10.8066
▁ㅇㅣㅇㅛㅇㅈㅏㄷㅡㄹㅇ	-10.8068
ㅈㅗㅇㅇㅣㄴ	-10.8068
▁ㅅㅜㅇㅟ	-10.8079
ㅈㅏㅇㄴㅣㅁ	-10.808
▁ㅈㅓㅇㅅㅜㄱ	-10.8082
ㅊㅏㅇㄱㅗㄱ	-10.8088
ㅂㅕㄴㅎㅏㄹ	-10.8104
▁ㅈㅣㄴㅎㅐㅇㅎㅐㅇ	-10.8117
▁ㅎㅘㄹㅅㅓㅇㅎㅘㄷㅚ	-10.8121
▁ㅅㅣㄹㅅㅣㅎㅐ	-10.8126
▁ㅇㅗㄹㄹㅣㄴㄷㅏ	-10.8128
ㅏㅂㅇㅣ	-10.8129
▁ㅎㅘㅈㅏㅇㅅㅣㄹㅇㅣ	-10.8132
ㅅㅡㄹㅓㅇ	-10.8135
ㅍㅗㅌㅡ	-10.8137
▁ㄴㅗㅇㅁㅣㄴ	-10.815
▁ㅈㅓㅇㅅㅣㄴㅂㅕㅇ	-10.8154
▁ㅁㅏㄹㅎㅐㅆ	-10.8157
▁ㄱㅣㄱㅣ	-10.8175
ㅇㅟㄱㅣ	-10.8179
▁ㄷㅐㅅㅏㅇㅈㅏㅇㅣ	-10.8183
ㅎㅏㅂㅇㅢ	-10.8184
▁ㅂㅏㄴㅈ	-10.8187
▁ㅎㅛㅇㅠㄹ	-10.8189
ㅇㅓㅂㅈㅗㅇ	-10.8201
ㅂㅓㅂㅅㅓㄱㅇ	-10.8207
▁ㅈㅗㅅㅓㅇㅎㅏㄹ	-10.8208
▁ㄱㅡㅂㅇㅣ	-10.8229
▁ㅅㅜㅎㅏ	-10.8233
▁ㄱㅐㅎㅕㄱㅇ	-10.8233
ㄱㅖㄷㅏㄴㅇㅡㄹ	-10.8237
▁ㅈㅣㄹㅌ	-10.8245
▁ㅇㅓㅄㄴㅡㄴㄷㅔ	-10.8256
▁ㅈㅐㅍㅏㄴㅈㅏㅇ	-10.826
▁ㄸㅓㄹㅇㅓ	-10.8277
ㅗㅇㅕㅇ	-10.8279
ㅈㅟㄴ	-10.8283
ㅂㅗㄴㅂㅗ	-10.8286
ㅎㅘㅎㅏㅂ	-10.8287
▁ㅂㅏㄹㅅ	-10.8287
ㅌㅗㅇㅈㅏㅇ	-10.8287
▁ㅊㅜㅇㄱㅕㄱㅇ	-10.8288
▁ㄱㅘㄴㅇ	-10.8288
ㅁㅏㅇㅡㅁ	-10.8289
ㅂㅜㅊㅐ	-10.8295
▁ㅂㅗㅅㅡ	-10.8298
▁ㅇㅜㄴㅇㅕㅇㅎ	-10.8299
ㄷㅏㅁㄷㅏㅇ	-10.8303
ㄷㅏㄹㅇㅏ	-10.8304
▁ㅇㅛㄱㅜㅎㅐㅆ	-10.8305
ㄱㅏㅇㅅㅏ	-10.8305
ㅃㅜㄴㅇㅣㅇㅓㅆㄷㅏ	-10.8308
ㅅㅏㅇㅍㅜㅁ	-10.8309
ㄹㅛㄱㅡㅂ	-10.8312
▁ㅈㅔㅊㅜㄹㅎㅐ	-10.8312
ㅂㅜㄹㄹㅣ	-10.8319
▁ㅂㅏㅇㅊㅣ	-10.8324
▁ㅇㅣㅇㅑㄱㅣㅎㅏ	-10.8326
▁ㅇㅠㅈㅗㄱㄷㅡㄹㅇㅡ	-10.8328
▁ㅈㅜㅂㅏ	-10.8332
ㅈㅓㅇㄱㅝㄴ	-10.8341
▁ㅇㅘㅈㅜㅇㅇ	-10.8346
▁ㅇㅕㄴㄱㅕㄹㄷㅚ	-10.835
ㄱㅔㅆㅈㅛ	-10.8359
▁ㄲㅡ	-10.8363
▁ㄷㅟㅈㅣㅂㅇㅡ	-10.8367
▁ㅇㅕㅇㅁ	-10.8376
▁ㅂㅕㄴㅎ	-10.8378
▁ㅊㅟㅈㅐㅈㅣㄴ	-10.8379
▁ㅇㅢㅅㅣㅁㅎㅏ	-10.838
▁ㅅㅓㅇㅜㄹㅈㅜㅇㅇㅏㅇㅈㅣ	-10.8388
ㅗㅇㅎㅏㄴ	-10.8389
ㅅㅓㄴㄷㅗㅇ	-10.8391
▁ㅇㅣㄹㄱㅔㅆ	-10.8394
ㄴㅋㅙㅎㅏ	-10.8397
ㅅㅣㅇㅟ	-10.8398
▁ㄱㅗㅇㄱㅡㅂㅎㅏ	-10.8399
ㅜㄹㅇㅓㅆㄷㅏ	-10.8406
▁ㅍㅜㄹㄹㅕ	-10.8407
▁ㅎㅟㅂㅏㄹ	-10.8407
▁ㅊㅏㄹㅣ	-10.8407
ㅐㅎㅏㅈㅣ	-10.8408
▁ㅇㅛㅇㅇㅣ	-10.841
▁ㅈㅓㄴㅎㅘㄴㄷㅚ	-10.8413
▁ㅂㅜㄹㅣㅁ	-10.8413
ㅎㅘㄹㅎ	-10.8413
ㅋㅡㄹㄹㅏㅇ	-10.8413
▁ㄱㅕㅇㅊㅏ	-10.8415
ㅅㅣㄱㅅㅏ	-10.8417
ㄹㅗㅇㅣㄷㅡ	-10.8419
ㅜㄹㅉ	-10.8419
ㅇㅗㅇㅕㅁㄷ	-10.8419
ㅇㅏㄴㅎㅏㅁ	-10.842
▁ㄷㅡㄱㅍㅛ	-10.842
ㅅㅛㅂ	-10.842
▁ㅇㅏㅇㅜㅅㄹㅔㅅ	-10.842
▁ㅇㅣㄹㅇㅡㅋㅕ	-10.842
▁ㅌㅗㅇㅛㅇㅣㄹ	-10.842
▁ㅌㅡㄹㅔㄴㄷㅡ	-10.842
ㄱㅞㄷㅗ	-10.842
▁ㄱㅜㅈㅗㄱㅐㅎㅕㄱ	-10.842
▁ㄴㅡㄲㅕㅈㅕ	-10.842
▁ㅂㅣㅎㅐㅇㅊㅓㅇㅅㅗㄴㅕㄴㅇ	-10.842
▁ㅅㅗㅂㅏㅇㄷㅏㅇㄱㅜㄱㅇ	-10.842
▁ㅇㅏㅁㅏㅊㅜㅇㅓ	-10.842
▁ㅇㅠㅇㅓㄴㅂㅣㅇㅓㄹ	-10.842
▁ㅇㅣㅌㅗㅇㅅㅏㄷㅡㄹ	-10.842
▁ㅌㅓㄴㅓㄹ	-10.842
▁ㅍㅡㄹㅗㅈㅔㄱㅌㅡ	-10.842
▁ㅍㅣㅂㅜㅈㅣㄹㅎㅘㄴ	-10.842
ㄷㅡㅇㄱㅛㅇㅝㄴ	-10.842
ㄸㅜㅀㄱ	-10.842
ㅇㅣㄴㅇㅕㄴㅎㅏㅂㅎㅚ	-10.842
▁ㅂㅣㅌㅡㄹㅇㅓ	-10.842
▁ㅊㅐㅇㄱㅕ	-10.842
ㄴㅅㅔㄴㅌㅡ	-10.842
ㅎㅔㅁ	-10.842
ㅡㅁㅔㄷㅣ	-10.842
▁ㅇㅣㄴㄷㅗㄴㅔㅅㅣㅇㅏ	-10.842
ㅅㅕㄴㅓㄹ	-10.842
▁ㅅㅏㅇㅇㅣㅁㄱㅗㅁㅜㄴ	-10.842
▁ㅊㅓㄴㅇㅕㄴㄱㅏㅅㅡㅇ	-10.842
ㄴㅔㅌㅡㅇㅝㅋㅡ	-10.842
▁ㅅㅣㄹㅅㅣㅎㅏㄱㅣ	-10.842
▁ㄱㅓㅁㅇㅡㄴㅅㅐㄱ	-10.842
▁ㄷㅏㅇㅑㅇㅎㅐㅈ	-10.842
▁ㅂㅏㅇㅊㅜㄹㄷㅚ	-10.842
▁ㅈㅓㅇㅎㅗㅅㅓㅇ	-10.842
▁ㄴㅠㅅㅣㅅㅡㅇ	-10.842
▁ㅈㅐㅂㅏㄹㄱㅣ	-10.842
ㅇㅡㄹㅗㅆㅓ	-10.842
▁ㅇㅏㅇㅣㄹㄹㅐㄴㄷㅡ	-10.842
▁ㅇㅞㄴㅁㅏㄴㅎㅏ	-10.842
▁ㅈㅏㅁㅇㅝㄴ	-10.842
▁ㅂㅐㅅㅓㄹㅁㅜㄹㅇ	-10.842
▁ㅅㅣㅂㅔㄹㅣㅇㅏ	-10.842
▁ㅂㅚ	-10.842
▁ㅈㅜㄹㄱㅣㅅㅔㅍㅗ	-10.842
ㅋㅔㄹㄹㅣ	-10.8421
▁ㄱㅏㅁㄷㅗㄱㄴㅣㅁ	-10.8421
ㅈㅏㅊㅣㄴㄱㅜ	-10.8421
▁ㅍㅐㅂㅐ	-10.8421
▁ㅈㅗㅇㄹㅛㄷㅚ	-10.8422
ㄱㅣㅎㅚㄱㄱㅘㄴㅇㅡ	-10.8422
▁ㄷㅜㄹㅉㅐ	-10.8422
▁ㅇㅗㅍㅡㄴㅎㅐ	-10.8423
▁ㅊㅟㄱㅡㅂㄷㅚㄱ	-10.8423
▁ㄱㅡㄹㅡㅅ	-10.8423
▁ㅍㅕㅇㅊㅏㅇ	-10.8423
ㅂㄹㅠㄹㅇ	-10.8423
▁ㄹㅣㅌㅓ	-10.8423
▁ㅈㅣㅂㅏㅇㅅㅓㄴㄱㅓ	-10.8424
▁ㅇㅓㅁㄱㅕㄱㅎ	-10.8424
▁ㅇㅣㄹㅊㅣㅎㅏㄴㅡㄴ	-10.8424
▁ㄱㅕㄱㄹㅕ	-10.8424
▁ㅅㅣㄴㅊㅓㄴㅈㅣ	-10.8424
▁ㅍㅛㅊㅏㅇ	-10.8424
▁ㅂㅐㅈㅔㄷㅚㄴ	-10.8425
ㅎㅕㄹㅇ	-10.8425
▁ㄴㅗㅎㅊㅕㅆㄷㅏ	-10.8425
▁ㅊㅗㄱㄱㅜㅎ	-10.8425
▁ㅁㅕㅇㄹㅕㅇㅎㅐㅆ	-10.8426
▁ㅅㅏㅎㅏㅇㅇㅡ	-10.8427
▁ㅎㅏㅂㅂㅕㅇ	-10.8427
▁ㄷㅏㄴㅈㅓㅇㅎㅏ	-10.8427
▁ㅁㅕㄹ	-10.8427
▁ㅁㅕㄴㄷㅏㅁ	-10.8427
▁ㄷㅚㄱㅔㅆㅈㅛ	-10.8428
ㅌㅚㄱㅡㄴㅎㅏ	-10.8428
▁ㅇㅏㅈㅜㅁㅓㄴㅣ	-10.8428
▁ㅂㅏㄱㅅㅏㅁㅗ	-10.8428
▁ㄷㅡㅁㅜㄹ	-10.8429
▁ㅈㅘㅍㅏ	-10.8429
ㅈㅜㄴㅇㅕㅇ	-10.8429
ㅓㄴㅌㅏㅇ	-10.8429
▁ㄱㅗㄹㅈㅓㄹ	-10.8431
▁ㅅㅡㅋㅓ	-10.8432
▁ㅈㅔㅈㅏㄹㅣ	-10.8433
ㅌㅓㅂ	-10.8433
▁ㅎㅟㅂㅆㅏㅇ	-10.8434
▁ㄱㅏㄴㅡㅇ	-10.8434
▁ㅎㅏㄴㅅㅔㄴ	-10.8434
▁ㄱㅣㅁㅈㅗㅇㅇㅣㄴ	-10.8434
▁ㅅㅏㄹㅉㅏㄱ	-10.8435
▁ㅌㅡㄹㅇㅓㅈ	-10.8435
▁ㅇㅑㄱㅎㅐㅈㅣㄴ	-10.8435
ㄷㅐㅂㅕㄴㅇㅣㄴ	-10.8436
▁ㅇㅚㄱㅛㄱㅘㄴ	-10.8437
▁ㄱㅗㄱㅐ	-10.8438
ㅅㅣㅈㅡㄴ	-10.8438
▁ㅂㅏㄹㅎㅐㅇ	-10.8439
▁ㄱㅗㅇㄱㅘㄴㅇㅟ	-10.8439
ㅆㅏㄱ	-10.844
▁ㅅㅣㄴㅈㅜㅇㅎㅏ	-10.844
▁ㄴㅗㅊ	-10.844
▁ㅇㅕㅇㄴㅏㅁ	-10.8441
▁ㅇㅗㅂㅓ	-10.8443
▁ㅊㅐㅇㅜ	-10.8444
▁ㅅㅓㄷ	-10.8444
▁ㄷㅏㅎㅇㅏㅆ	-10.8445
ㄱㅘㄴㅇㅟ	-10.8445
▁ㅊㅜㄹㄱㅜ	-10.8446
ㅂㅣㄴㅅㅡㄴㅎ	-10.8447
▁ㅎㅏㅂㅊㅣ	-10.8447
▁ㅎㅓㅁ	-10.8449
ㅂㅏㅇㅎㅐ	-10.8453
ㅆㅇㅓㅆㄴㅡㄴㅑ	-10.8456
▁ㅂㅗㄱㅇㅝㄴ	-10.8458
▁ㄱㅏㅁㄷㅗㅇ	-10.8458
ㅔㅅㅗ	-10.8459
▁ㅊㅓㄴㅁㅏㄴㅇㅝㄴ	-10.8459
ㅅㅏㅇㅓㅂㅈㅏㅇ	-10.8462
▁ㅁㅛㅅㅏㅎㅏ	-10.8463
▁ㅍㅣㅂㅜㅇ	-10.8465
▁ㄱㅛㅈㅔ	-10.8466
ㅇㅕㄴㄱㅜㄱ	-10.8467
▁ㅇㅐㄱㅜㄱ	-10.8468
ㅁㅈㅓㅁ	-10.8468
▁ㅂㅔㄷ	-10.8469
ㅂㅇㅔㄴ	-10.847
ㄱㅏㄴㅍㅏㄴ	-10.8472
▁ㅊㅓㅇㄱㅕㄹㅎㅏ	-10.8473
ㅂㅏㄷㅇㅏ	-10.8474
ㅇㄱㅜ	-10.8478
ㅍㅛㅈㅔ	-10.8483
▁ㅁㅜㄴㅎㅏㄱ	-10.8485
ㅓㄹㄹㅗ	-10.8486
▁ㅊㅟㅈㅐㅈㅣㄴㅇㅔ	-10.8487
▁ㅎㅠㄷㅐ	-10.8489
▁ㅈㅏㄷㅗㅇ	-10.849
▁ㅇㅟㅊㅜㄱ	-10.849
▁ㅈㅘㅅㅓㄱ	-10.8492
▁ㅊㅚㅌㅐ	-10.8496
ㅌㅗㅇㅇㅟ	-10.8497
▁ㅇㅕㅇㄱㅜ	-10.8501
▁ㅇㅏㅋㅣ	-10.8502
▁ㅊㅏㅇㅇㅓㅂㅈㅜ	-10.8504
▁ㅇㅓㄴㄱㅡㅂㅎㅐㅆㄷㅏ	-10.8508
▁ㄴㅗㅅㅏ	-10.8513
▁ㄴㅓㄼㄱㅔ	-10.8513
▁ㅆㅗㅇ	-10.8514
▁ㅅㅏㅇㄹㅠㄱㅎㅏㅁ	-10.8518
▁ㄱㅏㅇㅆㅣ	-10.852
▁ㅎㅕㅁㅇㅗ	-10.8522
▁ㄸㅡ	-10.8524
ㅎㅐㅆㅈㅣㅇㅛ	-10.8525
▁ㄷㅡㄹㅗㄴㅇ	-10.8525
▁ㅇㅛㅊㅓㅇㅎㅐㅆㄷㅏ	-10.8526
ㅅㅣㄹㅎㅓㅁ	-10.8526
ㄱㅣㄱㅡㅁ	-10.8529
▁ㅂㅣㅇㅝㅆㄷㅏ	-10.853
▁ㅍㅓㅈㅕㅆ	-10.8531
ㅏㅇㅜㄷㅣ	-10.8532
▁ㄷㅏㅇㅁㅕㅇ	-10.8533
ㄹㅐㅅㅡㅋㅏ	-10.8542
ㅏㄱㄱㅜ	-10.8544
▁ㄱㅣㅁㄱㅘㅇ	-10.8545
▁ㅇㅣㄱㅅㅜㄱㅎ	-10.8546
▁ㅈㅣㅂㅈㅜㅇㄷㅚㄴ	-10.8546
▁ㄷㅐㅎㅏㄱㅇㅝㄴ	-10.8546
▁ㄷㅏㅇㅅㅣㄴㄷㅡㄹ	-10.8549
▁ㄴㅐㄹㅕㅇㅗ	-10.855
ㅅㅉㅐ	-10.8552
▁ㅂㅡㄹㅗ	-10.8553
▁ㅅㅏㅅㅣㄹㅇㅣㄹㅏ	-10.8555
▁ㅇㅏㅈ	-10.8556
ㅅㅜㄷㅏㅇㅇㅡ	-10.8556
ㅉㅣㄱ	-10.8557
ㅂㅏㅁ	-10.8571
▁ㅎㅘㄱㅈㅓㅇㄷㅚ	-10.8575
ㅁㅝㄴㅣ	-10.8577
▁ㄱㅐㄱㅏㄱ	-10.8577
▁ㄴㅗㅇㅣㄴㅈ	-10.8578
▁ㅇㅗㄹㅎㅐㅂㅜㅌㅓ	-10.8588
▁ㅅㅣㄴㅊㅔㅈㅓㄱㅇㅡㄹㅗ	-10.8588
ㅊㅓㄹㅈㅐ	-10.8591
▁ㅇㅑㄱㄷㅐ	-10.8593
ㄴㅈㅣㅂㅇㅔ	-10.8599
ㄱㅈㅔㄱㅏ	-10.8602
▁ㅅㅏㅇㄱㅗㅇㅇ	-10.8604
▁ㅈㅡㅇㅇㅣㄴㄷㅡㄹㅇ	-10.8605
▁ㅎㅣㄷㅡ	-10.8606
ㅗㄱㄷㅚ	-10.8607
▁ㅁㅜㅅㅣㅎㅏ	-10.8617
▁ㄱㅜㅅㅓㄱㄱ	-10.862
▁ㅇㅏㄴㅌㅏㄲㅏㅂㄷㅏ	-10.8631
▁ㄴㅏㄹㄹㅕ	-10.8635
▁ㅁㅣㄹㅅㅜ	-10.8639
ㅈㅣㅂㄱㅝㄴ	-10.8656
▁ㅅㅏㅁㅜㅊㅗㅇㅈㅏㅇㅇㅣ	-10.8669
▁ㄱㅓㅁㅅㅐㄱㅎㅏ	-10.8674
▁ㅁㅗㄱㅈㅓㄱㅇㅣ	-10.8679
▁ㅎㅐㄱㅕㄹㄷㅚ	-10.868
ㅂㅎㅐ	-10.8687
▁ㄴㅗㅍㅇㅏㅈㅕㅆ	-10.869
▁ㅁㅏㄹㄹㅣㄴ	-10.8697
▁ㄱㅣㅁㅅㅓㅇ	-10.8698
▁ㅇㅠㅈㅓㄱ	-10.8701
▁ㅈㅗㅇㅇㅓㅂㅇㅝㄴㄷㅡㄹㅇ	-10.8722
▁ㅇㅕㄱㅅㅏㅈㅓㄱ	-10.8724
ㅂㅕㄱㅎㅘ	-10.8729
▁ㄱㅕㄹㅈㅓㅇㄷㅚㅈ	-10.8737
▁ㅅㅗㄴㅎㅐ	-10.874
▁ㅇㅢㅎㅏㄱㅈㅓㄱ	-10.8747
▁ㅅㅜㅅㅜㄹㅎㅏ	-10.8752
ㅅㅏㅅㅏㅇ	-10.8753
▁ㅎㅏㅈ	-10.8754
ㅍㅏㅇㅣㄹ	-10.8755
▁ㅅㅣㄹㅅㅣㅎㅐㅆ	-10.876
ㅊㅜㅇ	-10.876
ㄴㅕㄴㄷㅏㄴ	-10.8763
▁ㅇㅣㅎㅐㅎㅏㄱ	-10.8764
▁ㄴㅏㅁㅅㅓㅇㅇ	-10.8766
▁ㅉㅏㄼㅇ	-10.8774
▁ㅅㅜㅂㅏㄱㅇㅡ	-10.8776
ㅂㅕㅇㄹㅕㄱㅇ	-10.8783
▁ㅈㅜㄹㄱㅣ	-10.879
▁ㅌㅗㅇㅊ	-10.8791
ㅍㅡㄹㄹㅔ	-10.8793
ㅇㅣㄴㄱㅜ	-10.8795
▁ㅈㅡㅇㅇㅓㄴㅇㅣ	-10.8796
▁ㄷㅏㄴㅅㅜㄴㅎ	-10.881
▁ㅈㅜㅇㄱ	-10.8844
ㄱㅐㅁㅣ	-10.8851
ㅍㅣㄹㅇㅛㅎㅏㄱㅔ	-10.8851
ㅋㅡㄹㄹㅣㄴ	-10.8871
▁ㅂㅗㅇㅕㅆ	-10.8876
▁ㅅㅗㅇㅠㅈ	-10.8882
ㅊㅓㄱ	-10.8896
▁ㅈㅜㅇㄷㅏㄴㅎㅏ	-10.8898
▁ㅅㅏㄹㅏㅁㅇㅣㅇㅓㅆ	-10.8913
▁ㅍㅜ	-10.892
ㄹㅓㅇㅇㅣ	-10.8924
ㅌㅏㄴㅅㅗ	-10.8934
ㅌㅏㅎㅕㅂ	-10.8942
ㅂㅓㄹㅕㅆ	-10.8953
▁ㅇㅗㅌ	-10.8953
ㅘㅆㅅㅡㅂㄴㅣㄷㅏ	-10.8954
ㄱㅜㅊㅣ	-10.8955
ㅂㅗㄹㅡ	-10.8979
ㅇㅝㄹㅊㅗ	-10.8981
▁ㅈㅐㅂ	-10.8989
▁ㅊㅜㄹㅅㅣㄷㅚ	-10.9002
ㅇㅜㄹㄹㅣ	-10.9006
▁ㅎㅔㅇㅓ	-10.9009
▁ㅍㅗㄱㅇ	-10.901
ㅓㄴㅈㅓㅇ	-10.9032
▁ㅂㅜㅌㅇㅡ	-10.9038
ㅂㅗㅅㅏㅇ	-10.904
▁ㅁㅓ	-10.9047
▁ㄱㅗㅇㅅㅗ	-10.9048
▁ㅇㅟㅅㅡㅋ	-10.9053
▁ㅇㅣㄴㅈㅡㅇ	-10.9055
▁ㄷㅚㄱ	-10.9056
ㄱㅜㄷㅐ	-10.9082
ㅅㅏㅇㅌㅐ	-10.9084
ㅏㅇㄱㅏㄴ	-10.9102
▁ㅅㅖ	-10.9108
ㄱㅕㅇㅇㅣㅇㅓㅆㄱ	-10.9116
▁ㅊㅔㄹㅕㄱㅇ	-10.9122
ㅎㅗㅎ	-10.9139
▁ㄲㅜㅁㅣㄱ	-10.9151
ㄱㅗㅁㅍㅏㅇㅇㅣ	-10.9154
▁ㅁㅣㄹㅝ	-10.916
ㅂㅕㄹㅇㅣㄹㅏ	-10.9161
ㅇㅕㅅㅓ	-10.9169
▁ㄱㅡㄱㅗㅅㅇ	-10.9177
▁ㅎㅏㄱㅂㅜㅁㅗㄷㅡㄹㅇ	-10.9178
ㅈㅡㅇㅈ	-10.9185
▁ㄷㅗㅇㄱ	-10.9191
▁ㅁㅐㅅ	-10.9191
▁ㅍㅗㄱㅅㅡ	-10.9194
ㅍㅐㅇ	-10.9194
ㅂㅜㄹㅇㅏㄴ	-10.9195
ㄷㅔㅇㅣㅌㅓ	-10.9196
ㄱㅏㅈㅓㄴㅈㅔㅍㅜㅁ	-10.9196
ㅎㅕㅇㅈㅔㄷㅡㄹ	-10.9196
ㄸㅜㄲㅓㅇㅇ	-10.9196
ㅈㅔㄱㅗㅂㅁㅣㅌㅓ	-10.9197
▁ㅈㅗㅇㄱㅛㅈㅓㄱ	-10.9197
ㅁㅣㄹㅐ	-10.9197
▁ㅂㅗㄱㅗㅅㅓㅁㅏㄴ	-10.9198
ㅁㅣㅅㅏㅇㅣㄹ	-10.9198
▁ㅅㅓㅇㄴㅏㅁ	-10.9201
ㄴㅐㅇㅛㅇㅇㅡㄹ	-10.9201
ㅇㅖㄱㅗㅎㅏㄴ	-10.9202
ㅂㅏㅇㅇㅏㄴㅇㅡㄹ	-10.9203
ㅂㅗㅈㅡㅇ	-10.921
▁ㅌㅜㅈㅐㅇㅎㅏ	-10.921
ㅕㅇㅇㅚㄱㅘ	-10.9211
ㅡㅇㅇㅔ	-10.9215
ㅈㅗㅁㅕㅇ	-10.9215
▁ㅊㅣㅈㅏ	-10.9217
▁ㄹㅣㅇ	-10.9218
ㅈㅐㅎㅏㄱ	-10.9219
ㄱㅛㅎㅚ	-10.9221
ㄷㅚㅁㅕ	-10.9224
ㅁㅏㅈㅇ	-10.9234
▁ㅅㅣㅁㄹㅣㅎㅏㄱ	-10.9234
ㅂㅣㄹㄹㅣ	-10.9235
ㄴㅐㅇㅕㄱ	-10.9236
ㅆㅇㅓㅇㅑ	-10.9239
ㅁㅕㅊ	-10.9241
ㅍㅜㄹ	-10.9241
ㅇㅖㅂㅗ	-10.9242
ㄱㅖㅍㅏ	-10.9245
▁ㅊㅜㅈㅓㅇㄷㅚㄴ	-10.9249
ㅁㅐㅇㅣㄹ	-10.9251
ㅋㅐㄹ	-10.9255
▁ㅊㅗㅇㄱㅘㄹ	-10.9256
▁ㅂㅜㅈㅓㅇㅈㅓㄱ	-10.9257
▁ㅇㅏㄹㅂ	-10.9261
ㅎㅘㅁㅜㄹ	-10.9262
ㅁㅔㅇㅣㄷ	-10.9265
ㄱㅌㅏㅇ	-10.9269
ㅍㅏㄴㅈㅓㅇㅇㅡ	-10.9271
ㅁㅜㄱㅘㄴ	-10.9273
ㅁㄱㅕ	-10.9273
▁ㄷㅡㄹㅇㅓㅆㄱㅗ	-10.9283
ㅅㅣㄱㄷㅏㅇ	-10.9288
ㅊㅏㅇㅈ	-10.9293
ㅎㅐㅇㅎㅏㄹ	-10.9295
▁ㄷㅗㅊ	-10.9298
ㅇㅓㅂㅈㅏㄷㅡㄹㅇ	-10.93
▁ㅇㅣㅅㄸㅏㄹ	-10.9309
ㅍㅗㅁ	-10.9311
ㄱㅅㅓㅇㄷㅙㅆ	-10.9311
ㅇㅕㄱㅓㄴ	-10.9315
▁ㄷㅡㄹㄹㅕㅇ	-10.9318
ㅂㅏㄱㅅㅏㄴ	-10.9321
▁ㄱㅣㅁㅂㅓㅁㅅ	-10.9321
ㅔㅊㅕ	-10.9321
▁ㅂㅜㅌㅇㅓ	-10.9324
ㅂㅣㅇㅛㅇ	-10.9325
ㄷㅣㅇㅗ	-10.9326
ㅎㅐㅇㅈㅓㄱ	-10.9327
ㅐㅈㅕㅆ	-10.9328
ㅔㅇㅣㅋ	-10.9329
▁ㄹㅗㅅㄷㅔㅁㅏㅌㅡ	-10.9329
▁ㅆㅡㅂㅆㅡㄹㅎ	-10.9329
▁ㄷㅏㅁㅇㅣㅁㅁㅗㄱㅅㅏ	-10.9329
▁ㅂㅏㄹㅎㅐㅇㅈㅜㅅㅣㄱ	-10.9329
▁ㅅㅓㄱㅏㅇㄷㅐ	-10.9329
▁ㅇㅚㅎㅘㄴㅂㅗㅇㅠ	-10.9329
▁ㄱㅣㄲㅓ	-10.9329
▁ㅅㅜㄱㅐㅇㅝㄹ	-10.9329
▁ㅅㅡㅋㅗㅌㅡㄹㄹㅐㄴㄷㅡ	-10.9329
▁ㅈㅓㄱㅇㅡㅇ	-10.9329
▁ㅈㅓㄱㅈㅏㄶㅇ	-10.9329
▁ㅋㅏㅈㅏㅎㅡㅅㅡㅌㅏㄴ	-10.9329
▁ㅋㅓㅁㅠㄴㅣㅌㅣ	-10.9329
ㄹㅔㄴㅌㅓㄹ	-10.9329
▁ㅁㅐㅅㅏㅊㅜㅅㅔㅊㅡ	-10.9329
▁ㅈㅏㅇㅕㄴㅈㅐㅎㅐ	-10.9329
▁ㅎㅢㅎㅘㅎㅘ	-10.9329
ㅊㅏㅇㄷㅏㅇㅈㅜㄴㅂㅣ	-10.9329
▁ㅂㅏㄴㄴㅏㅂㅎㅏ	-10.9329
▁ㅅㅏㅇㅅㅗㄱㅅㅔ	-10.9329
▁ㅎㅐㅇㅈㅏㅂㅜ	-10.9329
▁ㄱㅏㄹㅣㅁㅁㅏㄱ	-10.9329
▁ㅂㅕㅇㅇㅕㄱㅂㅓㅂ	-10.9329
▁ㅂㅜㅍㅜㄹㄹㅣ	-10.9329
▁ㅇㅕㄴㅇㅐ	-10.9329
▁ㅈㅏㅊㅣㄱㅜ	-10.9329
ㄹㅐㄴㅅㅓ	-10.9329
▁ㅇㅚㄴㅉㅗㄱ	-10.9329
▁ㅈㅜㅇㅠㅅㅗ	-10.9329
▁ㅅㅜㄱㅂㅏㄱ	-10.9329
▁ㄱㅠㄴㅎㅕㅇ	-10.9329
▁ㅎㅐㅅㅜㅂㅜ	-10.9329
▁ㅆㅡㄴㅏㅁㅣ	-10.9329
▁ㄱㅏㄹㅗㅁㅏㄱ	-10.9329
▁ㄷㅏㄴㅁㅏㄹㄱㅣ	-10.9329
▁ㄱㅡㄹㅐㄴㄷㅡ	-10.933
ㅗㅂㅅ	-10.933
ㅈㅣㅇㅝㄴㄷㅏㄴㅇㅡ	-10.933
ㅣㅇㅜㅁ	-10.933
ㅓㅁㅈㅏㄷㅡㄹㅇ	-10.933
▁ㅂㅗㅇㅠㄱ	-10.933
▁ㅇㅠㄱㅏㅈㅗㄱ	-10.933
▁ㅂㅜㄴㅊㅜㄹㄷㅚㄴ	-10.933
ㅍㅐㄱㅌㅡ	-10.933
▁ㄹㅏㄱㅜ	-10.933
▁ㅂㅗㅇㅕㅈㅜㄱㅣ	-10.933
▁ㅇㅕㅂㄱㅣ	-10.933
▁ㅌㅐㄱㅅㅣ	-10.933
ㅎㅑㅇㅇㅔ	-10.933
▁ㄱㅓㅈㅣㅅㅁㅏㄹ	-10.933
▁ㅊㅏㅇㅈㅗㅎㅏㅅ	-10.933
▁ㅈㅜㅇㅇㅟㅅㅗㄷㅡㄱㅇㅡ	-10.933
▁ㅂㅣㅊㅝ	-10.9331
ㅗㅈㅣㄹㅡ	-10.9331
▁ㄴㅗㄹㅐㅂㅏㅇ	-10.9331
▁ㅁㅜㄴㅎㅘㅇㅣㄹㅂㅗ	-10.9331
ㅌㅗㄴㅣㅇㅏ	-10.9331
▁ㅎㅏㄴㅏㅎㅏㄴㅏ	-10.9331
ㅇㅓㅂㅓㅇㅣㅇ	-10.9332
▁ㅁㅣㄴㅅㅣㅁㅇㅔㅅㅓ	-10.9332
ㄱㅏㅁㅇㅏ	-10.9333
▁ㄱㅜㄱㅊㅐ	-10.9333
ㅌㅣㄹㄹ	-10.9333
▁ㅅㅓㅇㄱㅘㄱㅡㅂ	-10.9334
▁ㅎㅚㅇㅢㄹㅗㄱ	-10.9334
▁ㄴㅐㅇㄷㅗㅇ	-10.9335
▁ㄱㅗㅇㄱㅜ	-10.9335
ㅋㅏㄹ	-10.9336
ㅈㅏㄱㄷㅗ	-10.9336
▁ㅊㅟㅁㅣ	-10.9337
▁ㅅㅣㄹㅁㅏㅇㅎㅏ	-10.9337
▁ㅇㅘㄴㄹㅛ	-10.9337
▁ㅇㅗㄹㄹㅏㅇㅘㅆ	-10.9337
ㅣㅁㄷㅗㅇ	-10.9339
ㅗㅅㅗㅇㅇㅡ	-10.9339
▁ㅅㅗㄴㅈㅣㄹㅎㅏ	-10.934
▁ㅊㅟㄷㅡㄱㅅㅔ	-10.934
▁ㄱㅣㅎㅚㄱㅎㅏ	-10.9342
ㅎㅕㄹㄱㅘ	-10.9342
▁ㄲㅏㅇㅌㅗㅇ	-10.9344
▁ㄱㅏㅂㅈㅏㄱ	-10.9345
▁ㅊㅓㄹㅈㅔ	-10.9345
ㅣㅁㅂㅏㅂ	-10.9346
▁ㅂㅣㅁㅜ	-10.9347
▁ㅈㅓㅇㅁㅣㄹ	-10.9347
ㅈㅏㄱㄱㅝㄴ	-10.9348
ㅣㅈㅡㄴㅣ	-10.9348
ㅎㅏㄱㅎㅐㅆ	-10.9349
▁ㅇㅑㅇㅇㅠㄱ	-10.935
ㅂㅜㄷㅗㅇ	-10.9351
ㅂㅔㄴㅔ	-10.9353
▁ㅍㅡㄹㅗ	-10.9353
▁ㅇㅕㄱㅐㄱㅅㅓㄴ	-10.9355
▁ㅎㅏㄴㅊㅏㄹㅖ	-10.9356
▁ㅈㅓㄹㅂㅏㄴㄱㅏㄹㅑㅇㅇ	-10.9358
▁ㅂㅜㅈㅏㅇ	-10.9359
▁ㅈㅏㅁㄷㅡ	-10.9361
▁ㅂㅏㄴㅎㅘㄴ	-10.9363
▁ㅎㅏㄴㅏㄷ	-10.9364
▁ㅁㅣㄴㅅㅏ	-10.9365
ㅅㅔㅇㅐㄱ	-10.9366
▁ㄱㅜㄱㅌㅗㅂㅜ	-10.9368
▁ㅊㅓㅇㅁㅜㄴㅎㅚ	-10.9371
ㅔㄹㅡㄷ	-10.9371
▁ㅇㅣㄴㅇㅛㅇ	-10.9373
▁ㅎㅘㄹㅇㅛㅇㅎㅏㄹ	-10.9373
▁ㅇㅣㅅㅓㅇㅁ	-10.9376
▁ㅂㅜㄹㅎㅘ	-10.938
▁ㅈㅗㅅㅏㄱㅘㄴ	-10.9381
▁ㅂㅜㄹㄹㅕ	-10.9385
ㅇㅣㄹㅂㅗ	-10.9386
▁ㅇㅠㄹㅣㅁ	-10.9394
▁ㅈㅣㄱㅡㅂㅎㅏㄹ	-10.9395
▁ㅂㅜㅌㅇㅓㅇㅣㅆ	-10.9395
▁ㄱㅓㅅㅔㅈㅣ	-10.9395
▁ㅎㅐㅇㅈㅓㅇㅂ	-10.9396
▁ㅅㅓㅁㄱㅣ	-10.9398
▁ㅈㅓㄹㅓ	-10.9398
ㄷㅜㄹㅏ	-10.9398
ㅂㅏㄴㅂ	-10.94
▁ㅍㅗㅎㅏㅁㄷㅙ	-10.94
ㅇㅕㄱㄹㅑㅇㅇ	-10.9408
▁ㄱㅗㅍ	-10.941
▁ㅈㅗㅂㄱㅔ	-10.9411
▁ㄷㅏㄹㅣㅇㅔ	-10.9413
ㅅㅏㅂㅜㄴ	-10.9417
▁ㅊㅜㄹㅅㅐㅇ	-10.9418
ㅏㅁㅊㅏㄴ	-10.9421
▁ㅂㅜㄴㅅㅓㄱㅎㅐ	-10.9422
▁ㅇㅣㅁㅅ	-10.9423
▁ㄱㅡㅊㅕㅆㄷㅏ	-10.943
▁ㄱㅓㄷㅜㄴ	-10.9431
ㅍㅜㅅ	-10.9439
▁ㅅㅓㅇㅍㅗㄱㅎㅐㅇㅎㅏ	-10.944
▁ㄷㅏㅇㄱㅝㄴ	-10.9443
▁ㅎㅡㅂㅇ	-10.9449
▁ㅅㅓㅇㅜㄹㅈㅜㅇ	-10.945
▁ㅈㅣㄴㅈㅓ	-10.9453
▁ㄱㅠㅈㅓㅇㅎㅐㅆ	-10.9464
ㅣㄱㅁㅏㄴㅇㅡㄹㅗ	-10.9467
▁ㄱㅜㄱㅎㅚㅂㅓㅂ	-10.9472
▁ㅈㅜㅇㅣㅁ	-10.9473
ㅇㅌㅏㄴ	-10.9473
▁ㅈㅓㅇㄱㅠㅈㅣㄱㅇㅣ	-10.9476
▁ㅅㅓㅇㄱㅕㅇㅇㅔ	-10.9481
▁ㄹㅣㅇㅓ	-10.9482
ㄷㅏㄹㄹㅕㅆ	-10.9483
ㄹㄹㅣㅇㅏ	-10.9485
▁ㅇㅠㅇㅣㅂ	-10.9486
▁ㅈㅓㅇㅇㅠ	-10.9486
▁ㅈㅓㅇㅂㅣ	-10.9489
▁ㅊㅏㅇㅣㄱ	-10.9498
▁ㅊㅜㅊㅜㄹㅎㅏ	-10.9502
▁ㅅㅗㅂㅣㅇ	-10.9511
ㅎㅘㄴㅈㅏ	-10.9516
ㅈㅓㅇㅇㅢㄷㅏㅇ	-10.9531
▁ㅅㅏㅇㅎㅏ	-10.9531
ㅌㅏㅇㅗㄹㅡ	-10.9531
▁ㄴㅡㄲㅕㅈㅣ	-10.9535
ㄱㅡㅁㅇㅐㄱ	-10.9538
▁ㅇㅏㄱㅡㄹ	-10.954
▁ㅊㅣㄴㅂㅜ	-10.954
ㅇㅕㄴㅅㅜ	-10.9545
▁ㅇㅕㅅㅣㄴ	-10.9553
▁ㅎㅜㅁㅜㄴㅇ	-10.9554
▁ㅍㅓㅅㅔㄴㅌㅡㄱㅏㄹㅑㅇ	-10.9562
ㅇㅈㅡㅇㅇㅣㄹ	-10.9562
ㅇㄱㅗㅇㅇㅡㄹ	-10.9581
ㄻㅇㅏ	-10.9594
ㅈㅏㅇㅇㅐ	-10.9594
ㅁㅗㄱㄱ	-10.9601
▁ㅇㅕㄴㄹㅜㄷㅚㄴ	-10.9605
ㅏㅁㅎㅗ	-10.9606
ㅎㅕㄴㅁㅣㄱㅕㅇㅇ	-10.961
▁ㅊㅓㄹㅣㄷㅚ	-10.9621
ㄴㅗㄴㄱ	-10.9623
▁ㅋㅣㅇㅜㄹ	-10.9627
ㅇㅓㅂㅊㅔㄷㅡㄹ	-10.963
▁ㅋㅏㅁㅔㄹ	-10.9647
▁ㄷㅏㄴㅅㅏㅇㅇ	-10.965
ㅇㅓㅈㅕㅆㄷㅏ	-10.9651
▁ㅈㅔㅇㅓ	-10.9651
ㅅㅕㅆㅅㅡㅂㄴㅣㄷㅏ	-10.9652
ㅎㅐㅇㅎㅏㅁㅕㄴ	-10.966
ㅂㅏㄱㅎㅏ	-10.9668
ㅅㅣㄹㅈㅏㅇㅇ	-10.968
ㅇㅜㄴㅇㅕㅇㅇㅟㅇㅝㄴㅎㅚ	-10.9691
ㅏㅇㅎㅏㄹ	-10.9691
▁ㄷㅐㄴㅣㅇ	-10.9704
ㅂㅗㄱㅈㅣㅂㅜ	-10.9707
▁ㅅㅣㄴㄹㅏ	-10.9723
ㅓㅅㅡㅌㅡ	-10.9738
ㅏㄱㄷㅚㄴ	-10.975
▁ㅇㅏㅇㅣㅍ	-10.9753
▁ㅈㅏㄹㅁㅗㅅㅎㅐㅆ	-10.9753
ㄸㅓㄱㅇㅣ	-10.9755
ㄻ	-10.9762
▁ㅈㅜㅇㄷㅏㄴㄷㅙㅆㄷ	-10.9768
ㅓㄹㅗㅇㅜ	-10.9773
ㅇㄷㅏㅇㅎㅏㄴ	-10.979
ㅔㅇㅣㄹㄹㅣ	-10.9795
▁ㅇㅕㅁㅅ	-10.9822
▁ㅎㅣㅁㄷㅡㄹㅇㅓ	-10.9823
▁ㅎㅕㅇㅅㅣㄱㅇ	-10.9828
▁ㅈㅔㅇㅚㅎㅏ	-10.9845
▁ㅎㅐㅅㅂㅕㅌㅇㅡㄹ	-10.9846
ㅁㅈㅡㅇㅇㅡㄹ	-10.9848
▁ㅊㅓㄴㅈㅏㅇ	-10.9855
ㅇㅣㅁㄷㅙㅆ	-10.9855
▁ㄷㅐㅈㅗ	-10.9859
▁ㅈㅓㄹㅊㅏㅅㅏㅇ	-10.9869
▁ㅂㅐㅅㅣ	-10.9871
ㅍㅣㄷㅡ	-10.9872
▁ㄱㅏㅈㄱㅣ	-10.9884
ㅅㅏㅇㅠ	-10.9899
ㅅㅟㅇㅓㅆ	-10.9912
▁ㅈㅣㄹㅡ	-10.9934
ㅇㅈㅏㅇㅘ	-10.9938
▁ㄷㅗㅇㄹㅕㄱㅇ	-10.9942
ㅈㅓㄴㅅㅡㅇ	-10.9945
ㄴㅈㅡㅇㅇㅣ	-10.9956
ㅅㅏㅇㅇㅛㅇ	-10.9959
▁ㅍㅏㅈㅏㅇㅇㅡ	-10.9974
ㄱㄱㅐㅂㅏㄹ	-10.998
ㅇㅌㅐㅎ	-10.9982
ㄴㅑㅁㅕ	-10.9984
▁ㄱㅕ	-10.9986
▁ㄱㅕㄹㅎㅗㄴㅎㅏ	-10.9992
ㄴㅊㅔㄴ	-11.0021
ㅂㅏㄱㅅㅡ	-11.0027
▁ㄱㅜㅎㅏㄴㅡ	-11.003
ㅏㅇㅎㅏㄴ	-11.004
ㅅㅡㅋㅔㅇㅣㅌ	-11.0043
ㅁㅣㄹㅎㅏ	-11.0045
▁ㅊㅜㄹㅁㅏㅎㅏㅁㅕ	-11.0051
▁ㅎㅘㄱㅇㅣㄴㄷㅚ	-11.0055
ㅁㅓㄴㅈ	-11.0056
ㅁㅣㄱㅕㅇ	-11.0058
ㅇㅜㅅㅡㅇ	-11.0059
▁ㅎㅐㅈㅝㅆ	-11.008
ㄱㅡㄹㅐㅁ	-11.0086
ㅏㄴㄱㅜㄴ	-11.009
ㅎㅐㅈㅝㅆㄷㅏ	-11.0098
▁ㅁㅔㅇㅣ	-11.0101
▁ㅎㅜㅇㅝㄴㄱㅡㅁㅇ	-11.0104
▁ㅅㅓㅈㅓㅁㅇ	-11.0107
ㅇㄱㅓㄹㅣ	-11.0112
ㅆㄷㅓㄹㅏ	-11.0115
▁ㄴㅗㅍㅇㅣㄱ	-11.0115
▁ㄸㅣㅇ	-11.0119
▁ㅇㅜㄹㅕㅎㅐ	-11.012
▁ㅈㅣㅈㅓㄱㄷㅚㄴ	-11.0123
▁ㅍㅐㅌㅓㄴㅇ	-11.0135
ㄷㅚㄹㄲㅏㅇㅛㄹㅏ	-11.0147
▁ㅇㅑㄱㅅㅗㄱㅎㅏ	-11.0149
▁ㅂㅜㄱㅎ	-11.015
▁ㅅㅗㅇㄱ	-11.0163
ㄱㅡㅁㅇㅠㅇㄱㅝㄴ	-11.0176
ㅁㅣㅊ	-11.0177
▁ㄱㅗㅂㅏㄹㅈㅏㅇ	-11.0181
▁ㄴㅏㄱㅏㄴㄷㅏ	-11.0182
ㄱㅝ	-11.0186
ㅣㅁㅅㅡㅇㅇ	-11.0188
▁ㅇㅣㄷㅗㅇㅎㅏ	-11.0189
▁ㅈㅓㅇㅊㅣㄱㅝㄴㅇㅔㅅㅓㄴ	-11.0189
ㅇㅠㄹㅓㅂㅇㅢ	-11.0194
ㄲㅗㅁ	-11.0195
ㅁㅗㄷㅗㄱ	-11.0196
ㅂㄷㅐ	-11.0196
ㅅㅓㅇㅈㅏㅇㄹㅠㄹ	-11.0196
ㄱㅜㄱㄹㅣㅂㄱㅗㅇㅇㅝㄴ	-11.0196
ㅈㅗㅎㄱㅔ	-11.0197
ㅎㅏㄹㅁㅓㄴㅣ	-11.0197
ㄸㅓㄹㅇㅓㅈㅕㅆ	-11.0197
ㄱㅘㄴㄱㅘㅇㄱㅐㄱ	-11.0198
▁ㅈㅓㄻ	-11.0198
ㅋㅣㄹㅗㅁㅣㅌㅓ	-11.0198
ㅇㅏㅍㅏㅌㅡ	-11.0198
ㄱㅏㅇㅣㅂㅈㅏ	-11.0198
ㄹㅗㅅㄷㅔ	-11.0198
▁ㅍㅓㅈㅕ	-11.0201
ㅈㅐㅂㅐ	-11.0201
ㅁㅜㅈㅏ	-11.0202
ㄱㅐㅂㅏㅇ	-11.0203
ㅂㅣㅇㅠㄹㅇㅣ	-11.0205
ㅌㅡㄱㅅㅜ	-11.021
ㅇㅢㅎㅗㄱ	-11.0211
ㅏㄱㅗㄹㅏ	-11.0214
ㅂㅜㄴㅅㅓㄱ	-11.0221
ㅈㅏㅇㅇㅐㅇㅣㄴ	-11.0224
▁ㄷㅗㅇㅈㅓ	-11.0235
ㅈㅣㄱㅘㄴㄱㅘ	-11.0236
ㅏㄶㄴㅏ	-11.024
▁ㅇㅓㄴㄱㅡㅂㅎㅏㅁㅕ	-11.0241
ㄸㅡ	-11.0243
▁ㅎㅚㅇㅝㄴㄷㅡㄹㅇ	-11.0247
ㅓㅆㅣ	-11.0253
ㄷㅐㅇㅏㄴㅇㅡ	-11.0255
▁ㄱㅗㅇㅈㅏㄱㅇㅡㄹ	-11.0256
ㅇㅅㅣㅁㅇㅣ	-11.0257
ㅜㄹㅎㅏㄱ	-11.0258
▁ㅎㅕㅂㅈㅗㅎㅏ	-11.0263
ㅅㅣㅅㅡㅌㅔ	-11.0272
▁ㅇㅕㄴㅁㅏ	-11.0275
▁ㅆㅗㄹ	-11.0277
ㄴㄹㅏㄴㅎㅏ	-11.0279
ㄴㄷㅗㅇㅇㅜ	-11.028
ㄸㅐㄲㅏㅈㅣ	-11.0282
▁ㅍㅜㄹㄹㅣ	-11.0286
ㅜㅁㅏㄱ	-11.029
ㅌㅓㄹㅣㅇㅇ	-11.029
ㄱㅕㅇㅈㅔㅎㅏㄱ	-11.0291
▁ㅂㅗㄴㅂㅜㅇ	-11.0292
▁ㅂㅏㄹㅅㅐㅇㅎㅏㄱ	-11.0294
▁ㄱㅜㄱㅌㅗ	-11.0299
ㄴㅅㅏㅎㅏ	-11.0302
ㅐㅁㅍㅡ	-11.0303
▁ㅂㅜㄷㅏㅁㅎㅏ	-11.0304
ㅇㅕㅇㅈㅣㄴ	-11.0306
▁ㄴㅠㅅㅡㄹㅏ	-11.0306
▁ㅅㅡㅋ	-11.0308
ㄱㅂㅜㅇㅔ	-11.0308
ㅠㅈㅣㄱ	-11.031
ㅂㅕㅇㅅㅏㅇ	-11.0311
ㄴㅣㅅㅕ	-11.0311
ㄴㅐㄹㅕ	-11.0313
ㅁㅜㅅㅣㄹㄹㅗ	-11.0313
ㅂㅗㄴㅈㅓㄱㅇㅣ	-11.0315
ㅇㅣㅂㅇㅓ	-11.0316
▁ㅁㅜㅇ	-11.0318
ㄱㅏㅁㅅㅣ	-11.0318
ㅂㅗㅎㅓㅁㄹㅛㄹ	-11.0321
▁ㄲㅓ	-11.0324
ㅜㅇㅎㅘ	-11.0326
▁ㅈㅏㅁㅈ	-11.0327
ㅋㅕ	-11.0329
ㄴㄷㅐㅁㅏ	-11.0329
ㅇㅏㅆㅈ	-11.0329
▁ㄱㅓㄹㄹㅣㅁㄷㅗㄹㅇ	-11.0329
▁ㄸㅟㅊㅕㄴㅏ	-11.0329
▁ㅅㅣㄴㅎㅡㅇㅅㅣㅈㅏㅇㄱㅜㄱ	-11.0329
▁ㅇㅕㅇㅎㅜㄴㄱㅜㄱㅈㅔㅈㅜㅇ	-11.0329
▁ㅇㅗㄹㅏㄱㄱㅏㄹㅏㄱㅎㅏㄴ	-11.0329
▁ㅈㅣㅂㅁㅜㅅㅣㄹ	-11.0329
▁ㅋㅓㄴㅌㅡㄹㅗㄹㅌㅏㅇㅝ	-11.0329
▁ㅋㅗㄴㅋㅡㄹㅣㅌㅡ	-11.0329
▁ㅌㅡㄱㅈㅗㅇㅟ	-11.0329
ㄷㅏㅅㅋㅓㅁ	-11.0329
ㅎㅣㄲㅡㄱ	-11.0329
ㅜㄹㅡㄱㅗ	-11.0329
▁ㅇㅣㅁㄷㅐㄹㅛ	-11.0329
▁ㅍㅡㄹㅣㅁㅣㅇㅓㅁ	-11.0329
ㅈㅓㄴㅁㅏㅇㄷㅐ	-11.0329
ㅣㅈㅇㅡ	-11.0329
▁ㅅㅡㅌㅐㄴㄷ	-11.0329
▁ㅎㅏㄴㄱㅓㄹㅇㅡㅁ	-11.0329
▁ㅈㅏㅇㅎㅏㄱㄱㅡㅁ	-11.0329
▁ㅈㅗㄱㅖㅅㅏ	-11.0329
▁ㅈㅏㄴㅈㅗㄴㅁ	-11.0329
▁ㅇㅕㅁㄹㅕ	-11.0329
▁ㄲㅜㅈㅜㄴㅎ	-11.0329
▁ㅈㅏㅇㅏㄴㅐ	-11.033
▁ㅊㅚㅌㅐㅁㅣㄴ	-11.033
▁ㅎㅔㄷㅡㄹ	-11.033
▁ㅁㅏㅁㅜㄹㅣ	-11.033
▁ㅁㅣㅈㅣㅅㅜ	-11.033
▁ㅎㅏㄴㄹㅏㅅㅏㄴ	-11.033
▁ㅂㅏㄲㅟㅇㅓ	-11.033
▁ㅅㅏㅇㅇㅣㅁㅇㅣㅅㅏ	-11.033
ㅇㅣㄹㅊㅣㅎㅏㄴ	-11.0331
ㅈㅜㅇㄷㅗㄱ	-11.0331
ㅜㄹㅌㅜㅇ	-11.0331
▁ㅅㅏㅇㅣㅁㅎㅐㅆㄷㅏ	-11.0331
ㅂㅔㅅㅡㅌㅡㅅ	-11.0331
ㅋㅡㄹㅣㄱ	-11.0332
▁ㅅㅓㄱㅟㅍㅗ	-11.0332
ㅌㅏㅍ	-11.0332
ㅓㄹㄹㅣㅈ	-11.0334
▁ㅅㅣㄴㅇㅏㅇㅇ	-11.0334
ㅏㅇㅣㄴㅅㅣ	-11.0334
▁ㅍㅕㄴㅇㅣㅂㅇㅡㄹ	-11.0334
▁ㅈㅣㅂㅇㅏㄴㅇ	-11.0335
▁ㄱㅟㅈㅗㄱ	-11.0335
▁ㄷㅏㅁㅎ	-11.0335
▁ㅅㅔㄴㅌㅣㅁㅣㅌㅓㄱㅏㄹㅑㅇ	-11.0335
ㄴㅣㅈㅣㅁ	-11.0336
ㅌㅐㄱㅡ	-11.0337
ㄱㅟㅈ	-11.0337
▁ㅎㅏㅂㅊㅕ	-11.0337
▁ㄱㅕㅇㅂㅣㅅㅣㄹ	-11.0337
▁ㄱㅕㄴㅑㅇㅎ	-11.0338
ㅟㅇㅝㄴㅈㅏㅇㅇㅡ	-11.0339
▁ㅇㅕㄴㄹㅕㅇ	-11.0341
ㅏㅇㅣㅌㅡ	-11.0342
▁ㅂㅣㄹㄹㅕ	-11.0344
▁ㄴㅐㄹㅕㅇㅘㅆㄷㅏ	-11.0344
▁ㅈㅏㅊ	-11.0344
▁ㄱㅣㄴㄱㅡㅂ	-11.0344
▁ㅇㅣㄴㅅㅜㅎㅏ	-11.0344
ㅏㄴㅇㅕㄹ	-11.0348
▁ㄹㅣㅅㅣㄴ	-11.035
▁ㅅㅓㄴㅅㅜㄷㅡㄹㅇ	-11.0352
▁ㅌㅏㅇㅣㅌㅡ	-11.0352
ㅅㅡㅇㅇㅛㅇ	-11.0353
ㄱㅕㅇㄱㅘㄴ	-11.0353
ㅊㅗㅂㅏ	-11.0354
▁ㅈㅣㄴㅇㅏ	-11.0355
▁ㅇㅏㄹㅡ	-11.0357
ㅐㄴㅓ	-11.0359
ㅈㅜㅊㅗㅇ	-11.0361
▁ㅁㅜㄴㅎ	-11.0361
ㅔㅅㅡㅋㅗ	-11.0362
ㅇㅕㅁㄷㅚㅇㅓ	-11.0367
ㅇㄱㅝㄹ	-11.0367
▁ㅌㅗㅇㅇㅕㄱ	-11.0369
ㅊㅓㅇㅅㅏㄴㅇ	-11.0372
▁ㄱㅣㅅㅐㅇ	-11.0373
▁ㅇㅕㅇㄷ	-11.0373
ㄴㅣㅋㅗ	-11.0373
ㅓㄴㅌㅡ	-11.0376
▁ㅇㅝㄴㅇㅣㄴㅇㅣㄹㅏ	-11.0377
▁ㅇㅖㅅㅏㅇㄷㅚ	-11.0377
▁ㅅㅓㄹㅈㅓㅇ	-11.0377
▁ㅅㅣㄴㅅㅐㅇ	-11.0379
▁ㅈㅏㄱㄷㅗㅇㅎㅏ	-11.0379
▁ㄷㅏㄹㅇㅏㄴㅏ	-11.0379
ㄴㅋㅜ	-11.038
▁ㅇㅠㅊㅜ	-11.038
ㅐㅎㅕㄹ	-11.038
ㄸㅡㄹㅣ	-11.0381
▁ㄱㅐㅌㅗㅇ	-11.0389
ㄴㅈㅐㅇㅇㅡㄹ	-11.039
▁ㅈㅣㄴㅅㅏㅇ	-11.0392
▁ㄱㅏㄷㅏㅁㅎㅏ	-11.0393
▁ㅂㅣㄴㅈㅣㅂ	-11.0395
▁ㅎㅕㅂㅈㅗ	-11.0399
▁ㅇㅗㄹㄹㅕㅈㅜ	-11.0399
▁ㄴㅗㄹㄹㅏㅆ	-11.0399
▁ㅅㅏㄱㅈㅔㅎ	-11.04
ㅁㅗㅈㅣㄱ	-11.0403
ㄱㅕㄹㅎㅐㅆ	-11.0404
▁ㄱㅗㅇㅈㅏㄱㅇ	-11.0404
▁ㅂㅗㅅㅜㅊㅡㅇㅇ	-11.0408
ㄱㅕㄱㄹㅗㄴ	-11.041
▁ㄷㅚㄹㄲㅏ	-11.0414
ㅅㅓㄴㅅㅏㅇ	-11.0418
ㅣㅂㄱㅣ	-11.0421
▁ㅈㅜㄹㅇㅓㄷㅡㄹ	-11.0425
ㄹㄹㅐㄴㄷㅡㄹ	-11.0429
ㅁㅅㅐㄱ	-11.0438
▁ㅈㅣㅇㅜ	-11.0445
▁ㅊㅜㅁㅗㅎㅏ	-11.0448
▁ㅂㅐㅅㅡ	-11.045
▁ㅂㅏㄱㅇㅕㅇㅅ	-11.0452
ㅈㅏㅇㅕㄴ	-11.0454
ㅇㅏㅅㅣㅇㅏ	-11.046
ㅕㅇㅈㅜㄴ	-11.046
ㅇㅜㄹㅕ	-11.0465
▁ㅇㅣㅅㅔㅇ	-11.047
▁ㅅㅓㄴㄱㅗㅂㅏㄷ	-11.0472
ㅇㅇㅟ	-11.0477
▁ㅅㅏㅅㅏㅇㅈㅏ	-11.0482
ㅅㅔㅂ	-11.0485
▁ㅁㅜㅅㅓㅇㅜ	-11.0486
▁ㅅㅓㅇㄴㅏㅁㅅㅣ	-11.0493
▁ㅈㅜㅇㅇㅟ	-11.0498
▁ㅊㅏㅁㅅㅓㄱㅈㅏ	-11.0498
▁ㅊㅜㅅㅔㄹㅏ	-11.0506
▁ㄷㅐㅎㅏㄴㅂㅕㄴㅎ	-11.0513
▁ㅁㅜㅅㅜ	-11.0514
▁ㄷㅏㅇㄱㅜ	-11.0514
ㅣㅁㅍㅏㄴ	-11.0519
ㅓㄱㅇㅓ	-11.0524
ㅊㅐㄱㅇㅔ	-11.0529
ㅣㄹㅋ	-11.053
ㄱㅕㄴㄱㅓㅁㅅㅏ	-11.0538
▁ㄷㅗㄹㄹㅕㅆㄷㅏ	-11.0541
ㅎㅘㄹㅇㅛㅇㄷㅚ	-11.0547
▁ㅈㅜㄱㅇㅓㅆ	-11.0568
ㄴㅅㅓㄱㄱㅘ	-11.057
▁ㅈㅣㄴㄱ	-11.0571
ㅂㅏㄷㅜㄱ	-11.0572
ㅁㅏㅅㅏㅎㅚ	-11.0582
ㅇㅑㅇㄷㅏㅇㅇ	-11.0583
▁ㄱㅗㅅㅗㅎㅐㅆ	-11.0602
▁ㄱㅖㄷㅏㄴㅇ	-11.0602
▁ㄱㅡㅂㅎㅏ	-11.0604
ㅋㅓㄷ	-11.0604
▁ㅇㅕㅇㅇㅕㄱㅇ	-11.061
ㅇㅣㄴㅇㅣㄱ	-11.0615
ㅏㅇㅠㅋㅣ	-11.0616
ㄷㅐㅊㅐㄱ	-11.0638
▁ㅇㅟㅇㅕ	-11.0654
▁ㅇㅣㅂㅅㅣ	-11.068
ㅊㅜㄹㅊㅓ	-11.0682
ㅕㅆㅇㅓㅆ	-11.0685
▁ㄷㅏㅇㄷㅏㅇㅎㅏ	-11.0701
ㅓㅊㅓ	-11.071
▁ㅇㅕㄴㅎㅗㅎ	-11.0724
▁ㅅㅏㅁㅏㅇㅎㅐㅆ	-11.074
ㄹㄱㅣㅅ	-11.0749
▁ㅅㅡㅇㅂㅜㅅ	-11.0762
ㅈㅓㄴㅎㅏㄱㅣ	-11.0769
ㅅㅜㄹㅈㅓ	-11.0772
ㄹㅏㅂ	-11.0782
▁ㅇㅣㄹㅝㅈㅕㅆㄴㅡㄴ	-11.0794
▁ㅇㅗㄹㅂ	-11.0797
ㅇㅋㅏ	-11.0798
ㅁㅔㄴㅌㅡ	-11.0818
▁ㅅㅏㅇㅈㅓㅇㅎ	-11.0821
ㅇㅌㅏㄴㅅㅗ	-11.0829
ㅌㅡㄴㅓ	-11.0852
▁ㅊㅜㄹㅅㅓㄱㅎㅏ	-11.0884
ㄱㅗㅂㅏㄹㅇㅣㄴ	-11.0886
ㅏㄱㄷㅡㄹ	-11.0891
▁ㅎㅏㅇㅇㅢㅎㅏ	-11.0906
▁ㅂㅗㄴㅐㅆ	-11.0909
▁ㅎㅐㅇㅎㅏㅅㅕㅆ	-11.0918
▁ㅁㅜㄱㅘㄴㅎㅏ	-11.0919
▁ㅇㅓㄹㅕㅇㅜㅁ	-11.0949
▁ㅈㅐㅍㅕ	-11.0953
ㅏㅇㅈㅜ	-11.0963
▁ㅈㅗㅅㅓㅇㅎㅏ	-11.0974
ㄱㅅㅏㅇ	-11.0978
ㅓㄴㄷㅡ	-11.099
ㅐㅎㅗ	-11.0994
▁ㅇㅓㄴㄱㅡㅂㅎㅏ	-11.0996
ㅐㅇㅎㅐㅆㄷㅏ	-11.102
ㅇㅑㅇㅈㅜㅇㅔ	-11.102
▁ㄹㅔㅂ	-11.1024
▁ㅎㅘㄱㅂㅗㅎㅏㄱ	-11.1039
▁ㅂㅜㄹㄱㅏㄴㅡㅇㅎ	-11.1044
ㅇㅈㅜㅂㅗ	-11.1046
▁ㅇㅏㅇㅣㅇ	-11.1065
ㄷㅚㄱ	-11.1069
ㅈㅜㅎㅐㅇㅎㅏ	-11.1072
ㅕㅇㄷㅐ	-11.1074
▁ㄱㅓㄴㅅㅜ	-11.1078
▁ㅅㅏㄹㅗㅈㅏㅂㅎ	-11.108
▁ㄸㅡㄱㅓ	-11.1083
ㅍㅣㄹㅎㅏ	-11.1083
▁ㅂㅏㄹㅇ	-11.1086
ㅂㅗㄱㅇ	-11.1091
ㄴㅂㅗㅇㅇ	-11.1092
ㄴㅏㄷㅏㄴ	-11.1093
ㄹㅏㅇㅣㄴㅇㅣ	-11.1096
ㅁㅅㅏㅇㅟ	-11.1097
▁ㅇㅣㅂㄱㅜ	-11.1098
▁ㅊㅓㅇㅈㅜㅇ	-11.1102
▁ㅌㅏㅇ	-11.1122
▁ㄱㅣㅅㅗㅎㅏ	-11.1122
▁ㅇㅕㄴㄹㅜ	-11.1135
▁ㅍㅡㄹㄹㅏㅈ	-11.1139
▁ㄱㅛㅌㅗㅇㅈㅓㅇ	-11.1144
ㅏㄷㅓㄹ	-11.1146
ㅅㅗㄷㅡㄱㅅㅔ	-11.1155
▁ㅊㅜㅇㅂㅜ	-11.1161
▁ㅇㅏㄴㅌㅏㄲㅏㅂ	-11.1162
▁ㅂㅣㅇㅠ	-11.1181
ㅁㅆㅣ	-11.1182
▁ㅌㅏㄹㅂㅜㄱ	-11.121
ㅎㅠㄱㅏ	-11.1211
▁ㄴㅗㅍㅇㅏㅈㅕ	-11.1224
▁ㄱㅏㄷㅡㄱ	-11.1228
ㅜㄹㅜ	-11.1234
ㅎㅏㅇㅑㅎㅏ	-11.1252
▁ㅇㅠㄴㅇ	-11.1259
ㅂㅗㅈㅓㅇ	-11.1261
ㅋㅐㅁㅍㅡ	-11.128
▁ㅂㅓㄹㅇㅓㅈㅕ	-11.1284
ㄱㅌㅏ	-11.1288
▁ㅁㅏㅊㅕㅆ	-11.1294
ㅏㅁㅜㄴㅎㅘ	-11.1302
ㅎㅕㅁㅇㅗ	-11.1304
ㅂㅜㅍㅐ	-11.1305
ㅇㅟㅎㅓㅁ	-11.1305
ㅅㅏㄹㅍㅕ	-11.1305
ㄴㅓㅁㄱㅕ	-11.1307
ㅇㅞㅇㅣ	-11.1309
ㅂㅣㅆㅏ	-11.1309
ㅊㅏㅇㅇㅓㅂ	-11.1311
ㅅㅗㅂㅣㅈㅏ	-11.1312
ㄱㅏㅇㅜㄴㄷㅔ	-11.1312
ㅁㅏㄴㄷㅡㄹㄱㅣ	-11.1313
▁ㄷㅡㄹㄱ	-11.1314
ㄱㅕㅇㅜㄹ	-11.1315
ㄱㅔㅆㅇㅓ	-11.1317
ㅎㅕㅂㄹㅕㄱ	-11.1325
ㄷㅐㅎㅏㄱ	-11.133
ㅇㅛㅇㅇ	-11.133
ㄹㅣㅂㅔㅇㅣㅌ	-11.1334
ㅇㅣㅂㅅㅣ	-11.1335
▁ㄱㅘㅇㄱㅕㅇㅇ	-11.1335
▁ㅇㅕㄴㅡ	-11.1336
ㄱㅛㅅㅏ	-11.1342
ㅅㅣㄹㅈㅣㄹ	-11.1344
ㄹㅓㅂ	-11.1351
ㅇㅣㄹㅂㅏㄴ	-11.1352
ㅅㅓㄴㄱㅛ	-11.1352
ㅇㅓㄴㄹㅗㄴ	-11.1356
ㄷㅐㄱㅕㄹ	-11.1358
▁ㅋㅡㄹㅣㅅㅡㅌ	-11.1359
ㅝㅈㅣㄴㄷㅏ	-11.1365
ㅇㅝㄴㅎㅏㅅㅕㅆ	-11.1366
▁ㅁㅜㄴㅎㅘㅇㅖㅅㅜㄹ	-11.1368
▁ㄱㅡㅁㅁ	-11.1369
▁ㅇㅣㄹㅜㅇㅓㅈ	-11.1374
▁ㅂㅜㅂㅜㄴㄷㅡㄹㅇ	-11.1374
ㅂㅗㄴㅇㅡㄹ	-11.1381
▁ㅂㅐㅅ	-11.1385
▁ㅇㅣㄲㅡ	-11.1386
▁ㅇㅓㄹㅣㄴㅇ	-11.1395
ㅈㅏㄱㅇㅛㅇ	-11.1398
ㅂㅕㄹㅅㅏ	-11.141
ㅕㅆㅇㅓㅇㅛ	-11.1413
▁ㅋㅡㄹㄹㅓㅂㅇ	-11.1414
ㅇㅅㅗㄴ	-11.1414
ㅣㄱㅅㅓㄴ	-11.1417
ㅏㅈㅇㅏㅈㅣ	-11.1421
ㅅㅛㅍㅣㅇㅇㅡ	-11.1425
ㅘㅇㄱㅡ	-11.1426
ㅅㅏㄹㄱㅠㄴㅈㅔㄹ	-11.1429
ㅁㅜㄴㅎㅏㄱㅈㅓㄱ	-11.143
▁ㄱㅗㅂㅐ	-11.1431
ㅁㅈㅣㅇㅕㄱㅇㅔㅅㅓ	-11.1431
▁ㅇㅓㄹㅡ	-11.1434
▁ㅇㅏㄷ	-11.1434
ㅁㄱㅏㄱㅎㅐ	-11.1437
ㅅㅡㅌㅣ	-11.1438
ㅎㅗㄹㄷㅣㅇㅅㅡ	-11.1439
▁ㅋㅗㄴㅌㅔㄴ	-11.1439
ㅣㄷㅣㅇㅏㅇㅔ	-11.1439
ㄱㅡㅁㅇㅠㅇㅇ	-11.144
ㅏㄷㅏㅁㅂㅐ	-11.144
ㅇㅑㄱㅎㅐㅈ	-11.144
▁ㅍㅣㄴㄹㅏㄴㄷㅡ	-11.144
▁ㅇㅣㄴㅅㅏㅎㅕㄱㅅㅣㄴㅊㅓ	-11.144
▁ㅌㅐㅍㅕㅇㅇㅑㅇ	-11.144
ㅎㅕㅈㅕ	-11.144
▁ㄱㅣㅅㅂㅏㄹㅇㅣ	-11.144
▁ㄴㅏㅁㅈㅜㅇㄱㅜㄱㅎㅐ	-11.144
▁ㄴㅗㄴㅈㅐㅇㅇ	-11.144
▁ㅇㅣㅁㅍㅏㄹㄹㅏ	-11.144
▁ㅇㅕㅇㄱㅕㄹㅅㅣㄱ	-11.144
ㅅㅏㅇㅕㄴㄱㅜ	-11.144
▁ㅇㅓㄸㅐㅆ	-11.144
ㅊㅏㄱㅇㅗ	-11.144
▁ㅅㅓㅇㅜㄹㅅㅓㅂㅜㅈㅣ	-11.144
ㅋㅔㅇㅣㅂㅡㄹ	-11.144
▁ㅂㅜㄷㅏㄴㅈㅏㅇ	-11.1441
ㄺㅎㅕ	-11.1441
▁ㄱㅡㅁㄹㅣㅇㅣㄴㅅㅏㅇㅇ	-11.1441
▁ㅂㅜㄷㅏㅁㅅㅡㄹㅓㅇㅝㅆ	-11.1441
▁ㅅㅏㄱㅗㅇㅝㄴㅇㅣㄴ	-11.1441
▁ㅌㅏㅂㅅㅡㅇ	-11.1441
ㅈㅏㅊㅣㅂㅓㅂㅇ	-11.1441
ㅅㅏㅇㅇㅕㄱㅡㅁ	-11.1442
ㄴㄷㅡㅇㅣㄴ	-11.1442
▁ㅂㅓㄴㅎㅘㄱㅏ	-11.1442
▁ㅇㅜㅅㅇㅡㅁㅇㅡ	-11.1443
ㄹㄹㅣㅍ	-11.1443
▁ㅇㅘㄴㄱㅗㅇ	-11.1444
ㄱㅕㄱㅎㅐㅆㄷㅏ	-11.1444
ㄴㅔㅌ	-11.1445
ㅏㄱㅎㅏㄷㅓㄴ	-11.1446
▁ㄱㅓㅈㅣㅅ	-11.1446
▁ㄴㅡㅍㅇ	-11.1446
ㅇㅕㅂㅜ	-11.1446
ㅏㄲㅏㅂㄷㅏ	-11.1447
▁ㅁㅔㅁㅗ	-11.145
▁ㅂㅏㄹㅈㅓㄴㅅㅣㅋ	-11.145
▁ㅂㅕㄹㅏㄱ	-11.1451
ㄱㅐㅎㅏㅁ	-11.1452
▁ㄱㅗㄹㅁㅗㄱ	-11.1452
▁ㅇㅜㄴㅇㅕㅇㅇㅟ	-11.1454
▁ㅈㅔㅎ	-11.1455
ㄱㅎㅏㅂ	-11.1455
ㅅㄷㅗㄴ	-11.1456
▁ㄱㅜㄱㅎㅏㄴㄷㅚㄴ	-11.1458
ㅇㅕㅇㅎㅏ	-11.146
▁ㄸㅟㅇㅓㄷㅡㄴ	-11.1462
▁ㅎㅢㅁ	-11.1462
ㅂㅅㅜㅎㅐㅆ	-11.1463
ㄱㅡㅁㄱㅗㅇㅔ	-11.1464
ㅋㅓㄱ	-11.1465
▁ㄱㅓㄴㅅㅓㄹㅅㅏ	-11.1465
ㅈㅓㅁㅅㅜ	-11.1467
ㄱㄹㅑㅇㅇㅡ	-11.1468
ㅡㅌㅣㄴ	-11.1471
▁ㄷㅡㄹㅓㄴㅏㅆㄷ	-11.1471
ㅋㅙㅎㅏ	-11.1472
▁ㄱㅖㅅㅗㄱㄷㅚㅁㅕㄴ	-11.1474
▁ㅂㅏㄴㅍㅜㅁ	-11.1479
ㅈㅓㅇㄱㅏㅁ	-11.148
ㅓㅁㅍㅡ	-11.1482
ㅜㅇㅝ	-11.1483
▁ㅂㅜㄹㅁㅜㄴ	-11.1485
▁ㅂㅗㅌㅗ	-11.1487
ㄹㅏㄱㅇㅡㄹ	-11.1494
▁ㅅㅏㅇㅕㄴㅇ	-11.1495
ㅗㅅㅓㅇㅔㅅㅓ	-11.1496
▁ㅅㅗㅈㅐ	-11.15
▁ㅇㅏㅋ	-11.1501
ㅣㄴㅁㅕㅇ	-11.1504
ㅗㅇㅎㅐㅇㅇㅡ	-11.1504
▁ㅍㅏㅇㅣㄹㅇ	-11.1505
▁ㅂㅜㅇㅣㅁ	-11.1515
▁ㅈㅓㅇㅎㅘㅇㅇㅡ	-11.1516
ㅂㅏㅇㅣㄹ	-11.1518
▁ㅍㅗㅌㅏ	-11.1519
ㅎㅐㅇㄷㅚㄴ	-11.1519
▁ㅅㅜㅅㅓㄱㄷㅐ	-11.1527
ㅇㅇㅏㅈㅣ	-11.153
▁ㅎㅗㅁ	-11.1533
▁ㅌㅜㄱㅣㄹ	-11.1538
ㅊㅏㄱㅡㄴ	-11.1551
▁ㅂㅏㅇㅇㅓ	-11.1558
ㅜㄷㅚㄴㄷㅏ	-11.1558
ㅂㅗㅅㅏㅇㄱㅡㅁㅇㅡ	-11.1563
ㄴㅁㅐㄱ	-11.1566
▁ㄱㅏㅈㅕㅆㄷ	-11.1569
ㅓㅇㅕㅆ	-11.1572
ㅔㅎㅐㅆㄷㅏ	-11.1577
▁ㅅㅣㄴㅂㅕ	-11.1579
ㅏㅇㅜㄴㄷㅡ	-11.158
▁ㅍㅏㄴㅊ	-11.158
ㄱㅊㅓㅇ	-11.1583
▁ㄱㅏㅇㅅ	-11.1585
ㅅㅣㅈㅓㅇ	-11.1589
ㄷㅡㄹㅡ	-11.1595
▁ㅊㅜㅇㄷㅗㄹㅎㅏ	-11.1595
ㅜㅇㅎㅏㄹ	-11.1597
ㅎㅘㅇㅕ	-11.1602
ㅇㄱㅡㅂㅇㅡㄹ	-11.1605
ㅜㄹㅏㄱ	-11.1606
▁ㅌㅡㄱㅂㅕㄹㅅㅜㅅㅏ	-11.1611
ㄴㅋㅏㄴ	-11.162
ㅈㅗㅈㅣㄱㄷㅚ	-11.1634
ㅇㅇㅕㄱㄷㅏ	-11.1639
ㅡㄹㄹㅕㅇㅗㄴ	-11.1652
ㅗㄷㅗㅇㄹ	-11.1665
▁ㄴㅓㅁㅊ	-11.1666
▁ㄱㅘㅈㅓㅇㅇㅣㅇㅓㅆㄷ	-11.1677
ㅎㅐㅇㅎㅐㅆ	-11.1682
ㄱㅈㅏㅇㅔㄱㅔ	-11.1687
▁ㅂㅓㅅㅇㅓ	-11.1691
▁ㅈㅏㅇㅆ	-11.1692
ㅇㅓㄴㅎㅐㅆㄷㅏ	-11.171
▁ㅇㅘㄴㅅ	-11.1744
ㅏㅇㅛ	-11.1747
ㄴㅅㅜㅎㅏㄱ	-11.1757
ㅇㅘㅇㅈㅗ	-11.1761
▁ㄷㅗㅇㅅ	-11.1764
▁ㄱㅏㅇㅈㅗㅎ	-11.1766
▁ㄷㅐㅇㅚㅂ	-11.1768
▁ㅇㅠㅇ	-11.1774
▁ㅊㅏㅁㅇㅕㅎㅐ	-11.1786
▁ㅌㅡㄱㅈㅓㅇㅎㅏ	-11.181
▁ㅇㅣㅅㅗㅇㄷ	-11.1818
▁ㅇㅣㄴㅊㅓ	-11.1821
ㅊㅏㄹㄷㅙㅆㄷㅏ	-11.1839
ㅏㅁㅓㄱㄴㅡㄴ	-11.1851
ㅣㅂㅈㅏ	-11.1865
ㄱㄷㅐㄱㅣ	-11.1866
▁ㅇㅔㅂ	-11.1869
ㅇㅎㅏㅁㅕㄴㅅㅓ	-11.1871
▁ㅁㅗㄱㅈ	-11.1929
ㅅㅕㅆㅇㅡ	-11.1931
▁ㅊㅏㄱㄹㅠㄱㅎ	-11.1941
▁ㄹㅓㄴㄷ	-11.1953
ㅊㅡㄱㄱㅡㄴㅇㅣ	-11.1982
ㅇㅇㅣㅇㅓㅆㄷㅏ	-11.1989
▁ㅎㅐㅅㅂㅕㅌㅇ	-11.201
ㄱㅖㅌㅗㅇ	-11.201
ㅊㅏㅂㅕㄹㅇㅣ	-11.2013
ㅇㅏㅍㅇㅔ	-11.2013
ㅔㅇㅣㅁㅇㅡㄹ	-11.2025
▁ㅎㅘㅁㅕㄴㅇㅡ	-11.2027
▁ㅊㅚㄱㅗㅈㅓ	-11.2033
▁ㅋㅜ	-11.2039
▁ㅈㅏㅈㅓㅇ	-11.2048
▁ㅇㅕㄴㄱㅜㅇㅟㅇㅝㄴㅇㅡ	-11.2078
▁ㅂㅣㅈㅓㅇㄱㅠㅈㅣㄱㅇㅣㄹ	-11.2097
▁ㄱㅏㅍㅇ	-11.2113
▁ㅇㅣㅂㅅㅏ	-11.2116
▁ㄱㅐㄷㅡㄹㅇ	-11.2119
ㅌㅔㄹ	-11.2123
ㅇㅣㅆㅇㅓㅆㄷㅏ	-11.2126
ㅓㅇㅎㅐㅅㅓ	-11.2127
▁ㅇㅣㄹㅝㅈㅕ	-11.2147
▁ㅇㅣㄱㅕ	-11.2147
ㄱㅂㅏㅇ	-11.2153
ㄸㅏㄹ	-11.2157
▁ㄱㅜㄱㅏㄴㅇㅔ	-11.217
ㅎㅏㄱㅅㅐㅇㅇㅣ	-11.2176
ㄲㅡㅌㅇㅡㄹ	-11.2183
ㅇㄱㅡㅁㅎㅏ	-11.2187
ㄴㅈㅓㅂ	-11.2211
ㅣㄹㄹㅗㄱ	-11.2217
ㅂㅏㅇㅇㅣㄹ	-11.2223
▁ㅇㅕㄴㄱㅡ	-11.2224
▁ㅅㅡㅍ	-11.2229
ㄱㅐㄷㅚ	-11.2248
▁ㅍㅏㅁㅜ	-11.2266
ㅉㅣㄱㅎ	-11.2267
t	-12.8619
e	-13.8619
x	-13.8619
ㄳ	-15.0197
ㄵ	-15.0198
ㅀ	-15.0199
ㅒ	-15.02
ㅞ	-15.0201
ㅃ	-15.0202
ㅙ	-15.0203
ㅉ	-15.0204
ㅄ	-15.0205
ㄶ	-15.0206
ㅖ	-15.0207
ㄲ	-15.0208
ㅛ	-15.0209
